<pad>	0
<unk>	0
<s>	0
</s>	0
<en>	0
<hi>	0
<sa>	0
▁t	-0
▁a	-1
in	-2
he	-3
re	-4
on	-5
▁क	-6
▁the	-7
er	-8
▁s	-9
▁w	-10
at	-11
▁o	-12
nd	-13
▁c	-14
it	-15
or	-16
es	-17
is	-18
en	-19
ou	-20
▁f	-21
▁b	-22
ing	-23
▁p	-24
an	-25
ed	-26
al	-27
▁to	-28
▁m	-29
▁स	-30
ar	-31
▁and	-32
▁of	-33
▁in	-34
▁ह	-35
▁d	-36
ic	-37
le	-38
▁h	-39
▁म	-40
as	-41
▁प	-42
om	-43
ion	-44
▁th	-45
्र	-46
ll	-47
ent	-48
्य	-49
▁T	-50
▁l	-51
▁I	-52
ve	-53
▁e	-54
st	-55
▁re	-56
ro	-57
▁n	-58
▁y	-59
ार	-60
▁g	-61
ly	-62
▁S	-63
ct	-64
et	-65
ें	-66
▁है	-67
▁न	-68
▁ब	-69
▁A	-70
▁के	-71
▁ज	-72
▁be	-73
ut	-74
▁व	-75
▁you	-76
▁is	-77
ot	-78
id	-79
▁C	-80
▁on	-81
ay	-82
▁for	-83
▁अ	-84
ान	-85
▁द	-86
ow	-87
ur	-88
us	-89
im	-90
ce	-91
ad	-92
am	-93
ig	-94
▁ल	-95
▁त	-96
ver	-97
▁that	-98
ch	-99
र्	-100
il	-101
▁M	-102
ith	-103
या	-104
▁र	-105
ation	-106
▁st	-107
ol	-108
▁में	-109
्त	-110
ir	-111
▁with	-112
▁B	-113
▁P	-114
▁आ	-115
▁it	-116
▁he	-117
se	-118
ों	-119
ने	-120
▁The	-121
▁W	-122
▁we	-123
ra	-124
▁की	-125
▁इ	-126
▁an	-127
▁wh	-128
▁as	-129
ill	-130
▁को	-131
ers	-132
ता	-133
▁1	-134
un	-135
▁भ	-136
▁कर	-137
▁H	-138
▁उ	-139
ke	-140
if	-141
▁ग	-142
▁pro	-143
▁D	-144
ter	-145
▁2	-146
▁are	-147
▁ha	-148
▁से	-149
▁F	-150
▁(	-151
्व	-152
ge	-153
▁कि	-154
▁con	-155
ना	-156
oo	-157
ul	-158
ld	-159
▁R	-160
ति	-161
her	-162
▁का	-163
pp	-164
▁or	-165
ate	-166
▁-	-167
ess	-168
▁प्र	-169
▁com	-170
ck	-171
▁at	-172
▁se	-173
▁च	-174
ment	-175
ri	-176
िक	-177
est	-178
ore	-179
▁औ	-180
▁de	-181
▁और	-182
▁L	-183
ab	-184
▁।	-185
igh	-186
th	-187
▁य	-188
▁was	-189
rom	-190
▁ए	-191
▁श	-192
ist	-193
▁पर	-194
▁N	-195
▁ne	-196
pe	-197
▁ex	-198
▁G	-199
ित	-200
▁E	-201
ाल	-202
ant	-203
▁v	-204
ity	-205
▁su	-206
qu	-207
res	-208
ive	-209
▁O	-210
▁have	-211
op	-212
ort	-213
्या	-214
em	-215
▁r	-216
▁your	-217
ते	-218
ain	-219
art	-220
▁this	-221
ust	-222
▁from	-223
el	-224
▁not	-225
um	-226
▁sh	-227
os	-228
▁हो	-229
▁by	-230
▁al	-231
ies	-232
and	-233
▁ch	-234
ight	-235
▁can	-236
्ट	-237
▁इस	-238
ही	-239
nt	-240
▁हैं	-241
▁u	-242
िल	-243
00	-244
▁us	-245
ie	-246
ome	-247
ard	-248
all	-249
ाम	-250
ाद	-251
▁le	-252
▁will	-253
न्	-254
out	-255
..	-256
ould	-257
▁J	-258
▁ने	-259
ात	-260
ud	-261
▁ab	-262
our	-263
red	-264
iv	-265
▁do	-266
▁wor	-267
िए	-268
ally	-269
gh	-270
ost	-271
▁वि	-272
od	-273
te	-274
क्	-275
▁pl	-276
ड़	-277
ां	-278
▁all	-279
rou	-280
▁थ	-281
ci	-282
▁j	-283
ide	-284
ast	-285
ak	-286
के	-287
ear	-288
▁k	-289
▁“	-290
ine	-291
ag	-292
ास	-293
िय	-294
▁ख	-295
ure	-296
per	-297
▁Th	-298
▁भी	-299
fe	-300
▁so	-301
pt	-302
▁फ	-303
▁has	-304
्म	-305
▁U	-306
▁me	-307
▁In	-308
▁whe	-309
▁एक	-310
ice	-311
▁but	-312
ack	-313
age	-314
ction	-315
से	-316
ac	-317
▁ad	-318
ाव	-319
ther	-320
▁out	-321
▁comp	-322
ich	-323
िया	-324
ind	-325
one	-326
ook	-327
▁up	-328
ake	-329
ाय	-330
त्र	-331
▁20	-332
▁दे	-333
री	-334
▁they	-335
▁"	-336
ाह	-337
are	-338
िस	-339
▁their	-340
lo	-341
so	-342
▁more	-343
ry	-344
▁en	-345
very	-346
ong	-347
able	-348
▁लिए	-349
▁अप	-350
ती	-351
ime	-352
ated	-353
▁my	-354
▁Y	-355
▁सम	-356
हीं	-357
ood	-358
ite	-359
cc	-360
▁te	-361
▁आप	-362
ous	-363
िन	-364
▁K	-365
क्ष	-366
ip	-367
हा	-368
्थ	-369
▁one	-370
ले	-371
iz	-372
ame	-373
ans	-374
▁his	-375
ike	-376
▁सं	-377
▁im	-378
▁about	-379
▁जा	-380
ुर	-381
▁sa	-382
ाज	-383
orm	-384
ोग	-385
▁3	-386
▁who	-387
ber	-388
▁our	-389
▁un	-390
▁cont	-391
og	-392
कर	-393
ru	-394
▁go	-395
ions	-396
▁fe	-397
▁man	-398
ंग	-399
ance	-400
नी	-401
▁It	-402
▁सा	-403
du	-404
▁नहीं	-405
act	-406
▁inc	-407
▁St	-408
ia	-409
▁which	-410
्प	-411
▁cl	-412
कार	-413
▁work	-414
▁V	-415
ire	-416
▁res	-417
ult	-418
ail	-419
ne	-420
ib	-421
▁app	-422
ap	-423
ase	-424
ff	-425
ach	-426
oc	-427
ign	-428
ree	-429
ace	-430
ेश	-431
reat	-432
ations	-433
ick	-434
ary	-435
ays	-436
▁int	-437
ep	-438
▁per	-439
▁We	-440
ven	-441
▁other	-442
▁qu	-443
ub	-444
▁off	-445
िर	-446
ass	-447
का	-448
▁like	-449
▁time	-450
pl	-451
▁Ch	-452
▁year	-453
िव	-454
म्	-455
सी	-456
ical	-457
▁तो	-458
▁some	-459
▁ले	-460
▁also	-461
▁ही	-462
ue	-463
ile	-464
▁ट	-465
▁any	-466
ark	-467
▁मु	-468
▁dis	-469
▁get	-470
ount	-471
▁201	-472
ला	-473
ence	-474
now	-475
ove	-476
▁sp	-477
form	-478
▁them	-479
ings	-480
ress	-481
ord	-482
▁यह	-483
▁new	-484
erv	-485
गा	-486
▁ड	-487
▁part	-488
▁had	-489
▁He	-490
▁her	-491
▁been	-492
▁ag	-493
▁there	-494
▁were	-495
ond	-496
▁pe	-497
त्त	-498
्च	-499
स्त	-500
ाने	-501
vel	-502
av	-503
▁over	-504
क्त	-505
▁when	-506
ition	-507
▁ar	-508
ents	-509
▁what	-510
▁This	-511
▁would	-512
ial	-513
ough	-514
ink	-515
▁हु	-516
▁if	-517
ors	-518
द्	-519
▁tr	-520
▁–	-521
▁रह	-522
▁4	-523
▁just	-524
▁than	-525
port	-526
ens	-527
रा	-528
ild	-529
की	-530
त्व	-531
▁ro	-532
▁pre	-533
वा	-534
▁5	-535
मा	-536
ound	-537
रे	-538
▁करने	-539
ish	-540
▁spe	-541
use	-542
▁bec	-543
ली	-544
int	-545
▁know	-546
irst	-547
▁किया	-548
mer	-549
▁rec	-550
ople	-551
own	-552
स्य	-553
wn	-554
▁नि	-555
▁कु	-556
▁need	-557
▁॥	-558
▁into	-559
ंद	-560
▁सक	-561
वि	-562
ren	-563
ाप	-564
nder	-565
▁कार	-566
ory	-567
▁said	-568
ose	-569
▁how	-570
▁हम	-571
fter	-572
▁sc	-573
ov	-574
▁am	-575
▁था	-576
ater	-577
▁acc	-578
lic	-579
त्	-580
▁co	-581
...	-582
rough	-583
ade	-584
ang	-585
▁या	-586
▁people	-587
vers	-588
itt	-589
▁पह	-590
▁tw	-591
▁its	-592
▁अन	-593
▁उस	-594
ning	-595
▁ध	-596
▁Wh	-597
▁घ	-598
ारी	-599
▁19	-600
old	-601
▁साथ	-602
▁Re	-603
▁she	-604
▁no	-605
▁des	-606
cial	-607
lud	-608
▁सु	-609
▁first	-610
ual	-611
ons	-612
ैं	-613
ष्ट	-614
ces	-615
▁may	-616
सा	-617
र्व	-618
▁comm	-619
ian	-620
▁गया	-621
we	-622
▁पू	-623
lp	-624
ause	-625
hed	-626
▁जो	-627
▁You	-628
amp	-629
▁make	-630
ates	-631
▁only	-632
्री	-633
ments	-634
ull	-635
▁उन	-636
ric	-637
ob	-638
त्य	-639
ft	-640
▁help	-641
les	-642
▁tra	-643
▁add	-644
end	-645
को	-646
▁most	-647
▁bet	-648
ूप	-649
rent	-650
▁look	-651
▁po	-652
ating	-653
▁prov	-654
ुल	-655
ily	-656
▁back	-657
tern	-658
▁em	-659
▁ind	-660
▁अपने	-661
day	-662
▁want	-663
▁every	-664
▁As	-665
ise	-666
न्ह	-667
▁through	-668
▁मे	-669
▁Ne	-670
round	-671
प्र	-672
iew	-673
▁includ	-674
भी	-675
ious	-676
▁see	-677
गी	-678
▁well	-679
▁act	-680
hing	-681
▁cons	-682
▁two	-683
▁use	-684
्क	-685
▁'	-686
▁bu	-687
दा	-688
▁If	-689
▁produ	-690
gr	-691
ियों	-692
).	-693
ect	-694
▁these	-695
▁under	-696
▁स्व	-697
▁6	-698
ाइ	-699
sel	-700
न्त	-701
ks	-702
ph	-703
iss	-704
ities	-705
ife	-706
▁|	-707
▁छ	-708
▁ph	-709
▁after	-710
fect	-711
▁serv	-712
▁वाल	-713
▁could	-714
ेन	-715
oll	-716
▁And	-717
र्म	-718
▁अध	-719
fore	-720
xt	-721
ific	-722
ced	-723
pport	-724
aw	-725
hen	-726
गे	-727
▁कहा	-728
▁very	-729
▁dif	-730
▁Se	-731
▁दो	-732
row	-733
ढ़	-734
li	-735
▁200	-736
द्ध	-737
ting	-738
्ल	-739
▁मह	-740
urn	-741
uch	-742
ont	-743
▁play	-744
▁good	-745
▁years	-746
▁way	-747
▁inv	-748
lect	-749
▁many	-750
▁बाद	-751
▁pr	-752
ys	-753
▁even	-754
ject	-755
ert	-756
▁sy	-757
ful	-758
ोज	-759
▁imp	-760
▁reg	-761
rit	-762
iness	-763
▁उन्ह	-764
▁ra	-765
erson	-766
▁stud	-767
ाग	-768
com	-769
als	-770
िश	-771
ange	-772
▁लोग	-773
▁An	-774
▁ke	-775
ool	-776
▁should	-777
▁him	-778
▁then	-779
oss	-780
aking	-781
pect	-782
▁where	-783
▁now	-784
▁उप	-785
bs	-786
▁Un	-787
▁rem	-788
▁10	-789
▁रहे	-790
cess	-791
▁Com	-792
▁सि	-793
▁मिल	-794
ाना	-795
oth	-796
द्र	-797
▁dec	-798
ारा	-799
ational	-800
ानी	-801
▁sm	-802
▁col	-803
▁fl	-804
ुप	-805
▁‘	-806
▁ev	-807
▁exper	-808
▁7	-809
.”	-810
ward	-811
ility	-812
▁did	-813
ंड	-814
▁राज	-815
▁तक	-816
ased	-817
||	-818
ible	-819
्ञ	-820
ts	-821
▁because	-822
any	-823
मे	-824
िति	-825
olog	-826
▁rel	-827
▁right	-828
get	-829
्छ	-830
ath	-831
▁start	-832
),	-833
▁don	-834
्स	-835
ures	-836
erm	-837
▁own	-838
▁थी	-839
▁sec	-840
ident	-841
▁down	-842
ular	-843
▁gu	-844
ower	-845
ble	-846
▁bus	-847
र्थ	-848
▁ac	-849
▁ऐ	-850
▁Pro	-851
ices	-852
▁great	-853
▁$	-854
uring	-855
▁De	-856
च्छ	-857
▁fin	-858
ty	-859
▁bl	-860
ेष	-861
▁For	-862
▁much	-863
▁att	-864
▁ent	-865
▁think	-866
▁But	-867
hip	-868
▁वह	-869
up	-870
देश	-871
ative	-872
्ष	-873
its	-874
▁too	-875
ारे	-876
ract	-877
ुत	-878
ये	-879
▁8	-880
hes	-881
कि	-882
दी	-883
ूर	-884
oy	-885
टी	-886
▁दिया	-887
other	-888
▁बह	-889
▁such	-890
stem	-891
formation	-892
▁day	-893
20	-894
und	-895
alth	-896
▁long	-897
ited	-898
velop	-899
▁So	-900
▁again	-901
ork	-902
▁high	-903
▁जी	-904
omet	-905
ics	-906
ict	-907
▁find	-908
ओं	-909
air	-910
▁inst	-911
▁take	-912
ेद	-913
gan	-914
▁सी	-915
▁set	-916
▁रहा	-917
्रे	-918
स्थ	-919
▁read	-920
▁&	-921
arch	-922
line	-923
▁कुछ	-924
▁सर	-925
ener	-926
दि	-927
▁being	-928
▁here	-929
▁best	-930
▁inte	-931
था	-932
▁Al	-933
rib	-934
▁New	-935
रो	-936
▁जिस	-937
cy	-938
▁before	-939
▁car	-940
▁does	-941
▁mon	-942
▁कम	-943
▁show	-944
ंत्र	-945
▁ins	-946
▁those	-947
▁diffe	-948
▁made	-949
▁इति	-950
भाव	-951
▁Sh	-952
िला	-953
▁pres	-954
▁wee	-955
▁min	-956
ied	-957
▁Be	-958
गर	-959
्ड	-960
▁end	-961
▁person	-962
ner	-963
chool	-964
▁9	-965
ually	-966
▁bel	-967
▁चाह	-968
▁loc	-969
▁call	-970
ाई	-971
▁हुए	-972
ason	-973
जी	-974
ank	-975
▁world	-976
किन	-977
▁प्रति	-978
▁sur	-979
▁home	-980
िप	-981
▁ass	-982
▁mark	-983
▁fam	-984
▁br	-985
▁द्व	-986
alk	-987
▁requ	-988
ollow	-989
ues	-990
क्र	-991
▁स्थ	-992
▁तर	-993
ix	-994
▁मैं	-995
▁che	-996
▁business	-997
rest	-998
▁बी	-999
▁life	-1000
way	-1001
▁सब	-1002
▁There	-1003
▁देख	-1004
io	-1005
ax	-1006
ving	-1007
ell	-1008
में	-1009
पि	-1010
▁last	-1011
self	-1012
▁जब	-1013
▁sim	-1014
▁लेकिन	-1015
ng	-1016
िम	-1017
▁information	-1018
▁av	-1019
ेल	-1020
ैसे	-1021
▁भार	-1022
योग	-1023
gram	-1024
स्ट	-1025
▁विश	-1026
▁hand	-1027
▁एव	-1028
gg	-1029
▁med	-1030
▁How	-1031
▁disc	-1032
▁trans	-1033
▁develop	-1034
▁op	-1035
शन	-1036
▁used	-1037
ffect	-1038
▁ear	-1039
led	-1040
▁थे	-1041
▁रही	-1042
ins	-1043
▁system	-1044
az	-1045
▁while	-1046
ather	-1047
ince	-1048
▁व्य	-1049
ave	-1050
िंग	-1051
▁mem	-1052
▁pol	-1053
▁really	-1054
arm	-1055
▁sub	-1056
▁art	-1057
atch	-1058
▁बात	-1059
▁चु	-1060
▁वे	-1061
ौर	-1062
chn	-1063
▁अधिक	-1064
▁पा	-1065
ublic	-1066
▁दी	-1067
ouse	-1068
▁करते	-1069
▁mod	-1070
▁ये	-1071
▁लग	-1072
च्च	-1073
▁inter	-1074
ros	-1075
000	-1076
▁cre	-1077
ives	-1078
au	-1079
▁going	-1080
ंच	-1081
▁lead	-1082
▁On	-1083
ale	-1084
ple	-1085
akes	-1086
imes	-1087
▁बता	-1088
ah	-1089
ock	-1090
ness	-1091
pr	-1092
ीन	-1093
▁num	-1094
▁Le	-1095
▁experi	-1096
ene	-1097
▁vis	-1098
▁around	-1099
,”	-1100
▁det	-1101
▁each	-1102
cept	-1103
▁Ar	-1104
ved	-1105
▁though	-1106
land	-1107
▁बे	-1108
▁They	-1109
मान	-1110
▁गई	-1111
view	-1112
ines	-1113
▁design	-1114
▁अब	-1115
▁कोई	-1116
▁Ad	-1117
▁count	-1118
▁product	-1119
oun	-1120
▁ret	-1121
▁support	-1122
ash	-1123
▁somet	-1124
▁cour	-1125
▁bo	-1126
▁Cl	-1127
▁करें	-1128
▁child	-1129
riend	-1130
▁follow	-1131
▁still	-1132
▁सो	-1133
read	-1134
▁form	-1135
▁जान	-1136
▁real	-1137
ets	-1138
▁team	-1139
▁exp	-1140
▁सकते	-1141
▁किसी	-1142
."	-1143
roup	-1144
िख	-1145
ज्ञ	-1146
▁वर्	-1147
ages	-1148
▁आपको	-1149
▁cur	-1150
▁provid	-1151
ween	-1152
▁feel	-1153
irect	-1154
▁say	-1155
der	-1156
▁मो	-1157
▁care	-1158
▁different	-1159
ctions	-1160
▁gr	-1161
▁comple	-1162
ize	-1163
ब्	-1164
▁जाए	-1165
ution	-1166
ड़ी	-1167
▁ed	-1168
▁अपनी	-1169
▁str	-1170
▁इन	-1171
▁adv	-1172
▁sign	-1173
▁book	-1174
▁कह	-1175
▁पहले	-1176
▁same	-1177
ivers	-1178
▁char	-1179
▁ser	-1180
▁point	-1181
पी	-1182
▁रूप	-1183
▁commun	-1184
ata	-1185
ोंने	-1186
ूल	-1187
▁साम	-1188
▁found	-1189
lease	-1190
meric	-1191
ittle	-1192
▁sk	-1193
▁both	-1194
▁aut	-1195
▁met	-1196
न्न	-1197
▁between	-1198
▁cle	-1199
▁सरकार	-1200
रण	-1201
ustom	-1202
ute	-1203
-1	-1204
▁place	-1205
ंत	-1206
▁eas	-1207
▁What	-1208
ars	-1209
ष्	-1210
man	-1211
▁रख	-1212
▁sl	-1213
▁कार्य	-1214
ways	-1215
▁run	-1216
▁होने	-1217
बर	-1218
▁few	-1219
▁दु	-1220
▁lot	-1221
▁happ	-1222
ाध	-1223
चार	-1224
▁three	-1225
ार्थ	-1226
▁program	-1227
▁अनु	-1228
▁दिन	-1229
ंध	-1230
ized	-1231
▁free	-1232
ional	-1233
▁12	-1234
▁love	-1235
▁काम	-1236
▁She	-1237
▁To	-1238
▁post	-1239
ital	-1240
द्य	-1241
ody	-1242
िट	-1243
ever	-1244
▁prof	-1245
ंट	-1246
भि	-1247
be	-1248
ेट	-1249
▁import	-1250
नों	-1251
ex	-1252
▁rep	-1253
less	-1254
▁pur	-1255
▁things	-1256
ves	-1257
▁इसके	-1258
ड़ा	-1259
▁पु	-1260
▁बन	-1261
▁process	-1262
▁list	-1263
ज़	-1264
दे	-1265
▁ext	-1266
पर	-1267
र्ण	-1268
▁उन्होंने	-1269
ोल	-1270
▁state	-1271
ames	-1272
att	-1273
▁fun	-1274
ired	-1275
ient	-1276
▁top	-1277
▁All	-1278
▁Americ	-1279
▁पी	-1280
▁month	-1281
ants	-1282
श्च	-1283
▁बना	-1284
▁समय	-1285
▁lar	-1286
▁full	-1287
ton	-1288
▁little	-1289
▁health	-1290
ोक	-1291
▁gener	-1292
▁तरह	-1293
▁plan	-1294
▁Q	-1295
ety	-1296
vern	-1297
▁cor	-1298
thing	-1299
▁लोगों	-1300
▁बहुत	-1301
ug	-1302
oh	-1303
The	-1304
ology	-1305
▁keep	-1306
▁वाले	-1307
uc	-1308
ड़े	-1309
▁When	-1310
tt	-1311
▁0	-1312
▁करना	-1313
▁fact	-1314
arn	-1315
▁तु	-1316
जा	-1317
▁report	-1318
ailable	-1319
ross	-1320
नि	-1321
▁ऑ	-1322
वी	-1323
▁fil	-1324
▁वा	-1325
▁during	-1326
▁techn	-1327
ात्	-1328
▁come	-1329
र्ट	-1330
cer	-1331
▁सह	-1332
ality	-1333
ists	-1334
▁Pl	-1335
▁Ex	-1336
▁open	-1337
िता	-1338
bers	-1339
▁appro	-1340
▁.	-1341
ature	-1342
ten	-1343
▁school	-1344
ोट	-1345
त्या	-1346
ms	-1347
▁ref	-1348
▁market	-1349
▁जाता	-1350
▁ob	-1351
ering	-1352
▁def	-1353
▁poss	-1354
ात्र	-1355
▁fr	-1356
▁partic	-1357
ूस	-1358
▁Ind	-1359
ोप	-1360
▁15	-1361
gy	-1362
rand	-1363
▁ty	-1364
ining	-1365
▁using	-1366
▁result	-1367
ically	-1368
ik	-1369
ense	-1370
▁क्ष	-1371
▁अल	-1372
▁something	-1373
▁custom	-1374
cent	-1375
▁Is	-1376
ined	-1377
▁sol	-1378
▁better	-1379
▁गए	-1380
▁contin	-1381
con	-1382
▁pat	-1383
▁put	-1384
▁var	-1385
▁iss	-1386
iving	-1387
▁cent	-1388
▁क्या	-1389
▁dist	-1390
ished	-1391
▁allow	-1392
▁interest	-1393
▁18	-1394
जन	-1395
▁—	-1396
▁[	-1397
▁friend	-1398
ield	-1399
ention	-1400
▁resp	-1401
ling	-1402
▁must	-1403
▁rest	-1404
▁i	-1405
▁quest	-1406
▁always	-1407
▁without	-1408
▁opt	-1409
▁small	-1410
▁game	-1411
▁big	-1412
ोर	-1413
्यम	-1414
▁company	-1415
▁नाम	-1416
oot	-1417
ared	-1418
▁main	-1419
▁१	-1420
▁including	-1421
▁pass	-1422
uss	-1423
▁next	-1424
▁another	-1425
ुक्त	-1426
▁val	-1427
orn	-1428
▁water	-1429
▁try	-1430
atur	-1431
loy	-1432
aj	-1433
▁got	-1434
▁देश	-1435
,000	-1436
ङ्	-1437
iqu	-1438
▁बार	-1439
▁मौ	-1440
▁pri	-1441
्यों	-1442
▁Fr	-1443
▁conf	-1444
▁wom	-1445
▁सकता	-1446
▁available	-1447
▁आज	-1448
▁बि	-1449
▁group	-1450
्यू	-1451
्रह	-1452
▁build	-1453
▁pay	-1454
▁head	-1455
▁family	-1456
▁might	-1457
▁फिर	-1458
▁ला	-1459
▁11	-1460
▁organ	-1461
▁सभी	-1462
ंप	-1463
▁That	-1464
▁stand	-1465
▁tri	-1466
stand	-1467
धान	-1468
▁effect	-1469
▁होता	-1470
ger	-1471
▁बढ़	-1472
▁ide	-1473
वे	-1474
▁हर	-1475
▁mov	-1476
▁cr	-1477
ुरु	-1478
ier	-1479
reen	-1480
me	-1481
▁week	-1482
▁never	-1483
▁since	-1484
▁Ph	-1485
▁wr	-1486
▁second	-1487
,"	-1488
oney	-1489
▁dri	-1490
▁विक	-1491
▁कई	-1492
ृत	-1493
▁hard	-1494
▁रा	-1495
▁experience	-1496
▁ओ	-1497
▁द्वारा	-1498
ंत्री	-1499
▁mus	-1500
▁important	-1501
ately	-1502
▁ask	-1503
ploy	-1504
▁number	-1505
ertain	-1506
▁सर्व	-1507
▁स्ट	-1508
▁rece	-1509
▁With	-1510
▁incre	-1511
क्ट	-1512
▁proble	-1513
िका	-1514
ware	-1515
कों	-1516
▁sure	-1517
ision	-1518
ंह	-1519
ample	-1520
▁:	-1521
▁project	-1522
▁data	-1523
स्या	-1524
ism	-1525
illion	-1526
▁टी	-1527
ps	-1528
ेत	-1529
▁Te	-1530
भा	-1531
els	-1532
वार	-1533
▁लगा	-1534
▁Z	-1535
▁bro	-1536
cl	-1537
▁public	-1538
rist	-1539
▁old	-1540
क्षा	-1541
▁perform	-1542
ER	-1543
▁inf	-1544
▁हि	-1545
▁साल	-1546
▁तथा	-1547
▁direct	-1548
▁भारत	-1549
ccess	-1550
▁गु	-1551
co	-1552
▁Con	-1553
▁class	-1554
▁पुल	-1555
▁service	-1556
▁At	-1557
iversity	-1558
▁power	-1559
नु	-1560
▁उनके	-1561
▁online	-1562
▁level	-1563
▁,	-1564
न्द	-1565
▁days	-1566
▁cost	-1567
▁निर्	-1568
▁against	-1569
▁ve	-1570
▁give	-1571
▁invest	-1572
▁अस	-1573
ान्त	-1574
वन	-1575
▁पार	-1576
व्य	-1577
क्स	-1578
ted	-1579
▁Tr	-1580
मु	-1581
▁वो	-1582
▁हुआ	-1583
▁able	-1584
▁Bl	-1585
▁bre	-1586
▁law	-1587
ral	-1588
work	-1589
pend	-1590
ास्त	-1591
▁grow	-1592
▁pos	-1593
ित्य	-1594
▁No	-1595
rence	-1596
▁blo	-1597
▁less	-1598
धार	-1599
▁spec	-1600
▁test	-1601
▁ca	-1602
▁Or	-1603
the	-1604
▁sit	-1605
▁होगा	-1606
▁belie	-1607
▁Col	-1608
▁el	-1609
rol	-1610
▁expl	-1611
ior	-1612
ards	-1613
▁चल	-1614
▁win	-1615
▁let	-1616
▁आव	-1617
ours	-1618
inal	-1619
ird	-1620
▁बै	-1621
ases	-1622
uck	-1623
▁rese	-1624
ered	-1625
▁My	-1626
▁seem	-1627
बी	-1628
▁सू	-1629
ote	-1630
raph	-1631
▁unt	-1632
ency	-1633
ients	-1634
▁provide	-1635
▁order	-1636
▁फिल	-1637
▁Sp	-1638
▁पुलिस	-1639
ivid	-1640
वाद	-1641
▁दिल	-1642
▁within	-1643
ffic	-1644
णा	-1645
श्य	-1646
ीड	-1647
ann	-1648
▁क्र	-1649
▁ते	-1650
▁30	-1651
aut	-1652
▁US	-1653
▁meet	-1654
▁एवं	-1655
▁current	-1656
ission	-1657
▁turn	-1658
ember	-1659
ats	-1660
ruct	-1661
10	-1662
▁light	-1663
ोऽ	-1664
ok	-1665
ंस	-1666
▁Res	-1667
ably	-1668
▁उन्हें	-1669
gin	-1670
cing	-1671
ोन	-1672
vernment	-1673
▁est	-1674
pped	-1675
मी	-1676
▁oper	-1677
त्प	-1678
▁proper	-1679
ised	-1680
50	-1681
▁Comm	-1682
▁hum	-1683
▁four	-1684
▁says	-1685
▁today	-1686
▁leg	-1687
ott	-1688
ently	-1689
▁माम	-1690
here	-1691
outh	-1692
▁prev	-1693
▁मुख	-1694
ोध	-1695
ल्	-1696
▁services	-1697
्न	-1698
ration	-1699
▁मान	-1700
▁eng	-1701
ron	-1702
स्म	-1703
▁ann	-1704
eng	-1705
द्व	-1706
▁supp	-1707
▁मै	-1708
ाया	-1709
▁access	-1710
▁di	-1711
▁लेकर	-1712
▁webs	-1713
▁working	-1714
▁food	-1715
ator	-1716
▁pop	-1717
जे	-1718
▁away	-1719
▁prote	-1720
▁हुई	-1721
मार	-1722
▁children	-1723
▁दर्	-1724
▁job	-1725
pping	-1726
pos	-1727
med	-1728
▁prom	-1729
.,	-1730
▁कारण	-1731
▁area	-1732
▁view	-1733
▁addition	-1734
ider	-1735
▁Sc	-1736
▁making	-1737
▁Man	-1738
ains	-1739
▁अव	-1740
ium	-1741
▁Mar	-1742
▁case	-1743
oint	-1744
तर	-1745
▁घर	-1746
▁जर	-1747
ret	-1748
स्व	-1749
▁gl	-1750
30	-1751
▁सबसे	-1752
▁क्यों	-1753
atter	-1754
ाती	-1755
▁sing	-1756
ेय	-1757
ified	-1758
▁dem	-1759
ww	-1760
▁special	-1761
सि	-1762
▁अच्छ	-1763
हर	-1764
बंध	-1765
▁equ	-1766
▁पास	-1767
▁beh	-1768
▁sal	-1769
ुक	-1770
▁phot	-1771
tend	-1772
ina	-1773
▁जन	-1774
▁cap	-1775
म्म	-1776
▁Can	-1777
▁money	-1778
▁thing	-1779
▁course	-1780
▁change	-1781
ley	-1782
▁looking	-1783
क्ति	-1784
▁tru	-1785
▁One	-1786
ream	-1787
▁अगर	-1788
▁ना	-1789
▁श्र	-1790
▁vide	-1791
ured	-1792
▁चाहिए	-1793
▁ग्र	-1794
▁local	-1795
to	-1796
▁intern	-1797
भव	-1798
▁night	-1799
▁students	-1800
दान	-1801
▁pract	-1802
hor	-1803
▁present	-1804
▁पहु	-1805
iting	-1806
ording	-1807
iron	-1808
ids	-1809
▁करता	-1810
ope	-1811
orth	-1812
lection	-1813
्याप	-1814
ury	-1815
▁why	-1816
▁site	-1817
▁until	-1818
▁App	-1819
▁past	-1820
▁chang	-1821
▁hist	-1822
▁Christ	-1823
ories	-1824
ify	-1825
icle	-1826
▁मुझ	-1827
▁bas	-1828
ेम	-1829
▁room	-1830
▁Cent	-1831
▁अन्य	-1832
arent	-1833
▁खु	-1834
aring	-1835
ष्ठ	-1836
▁May	-1837
ump	-1838
ंक	-1839
ुरू	-1840
▁const	-1841
▁fac	-1842
▁word	-1843
▁understand	-1844
ills	-1845
ability	-1846
▁impro	-1847
ney	-1848
▁उसके	-1849
por	-1850
▁मन	-1851
ून	-1852
IN	-1853
▁large	-1854
sh	-1855
▁नी	-1856
ैव	-1857
lish	-1858
कारी	-1859
ization	-1860
▁Am	-1861
ential	-1862
augh	-1863
▁मार	-1864
त्म	-1865
▁फिल्म	-1866
▁kind	-1867
▁profess	-1868
▁God	-1869
▁Our	-1870
▁dr	-1871
▁success	-1872
▁पै	-1873
▁Co	-1874
▁जु	-1875
iven	-1876
joy	-1877
▁बताया	-1878
▁times	-1879
▁expect	-1880
तः	-1881
▁activ	-1882
▁14	-1883
itions	-1884
▁writ	-1885
माण	-1886
डी	-1887
▁having	-1888
ूम	-1889
utes	-1890
▁Do	-1891
ged	-1892
ising	-1893
▁left	-1894
▁name	-1895
वाल	-1896
▁often	-1897
soci	-1898
चा	-1899
एं	-1900
▁toget	-1901
▁पूर्व	-1902
▁applic	-1903
agement	-1904
▁together	-1905
ries	-1906
▁199	-1907
conom	-1908
▁event	-1909
▁term	-1910
ocus	-1911
▁जाने	-1912
min	-1913
शी	-1914
▁employ	-1915
load	-1916
▁These	-1917
िवार	-1918
▁air	-1919
▁Su	-1920
ived	-1921
▁check	-1922
enef	-1923
ane	-1924
omm	-1925
▁आपके	-1926
ाण	-1927
▁season	-1928
▁indust	-1929
जर	-1930
ाप्त	-1931
▁complete	-1932
▁dra	-1933
▁tell	-1934
veral	-1935
▁didn	-1936
▁along	-1937
▁श्री	-1938
▁learn	-1939
्ली	-1940
▁move	-1941
▁सिंह	-1942
▁dev	-1943
▁दूस	-1944
▁जि	-1945
ध्य	-1946
▁Ste	-1947
▁हाल	-1948
ode	-1949
ांच	-1950
enn	-1951
▁cond	-1952
▁16	-1953
▁es	-1954
part	-1955
▁talk	-1956
▁pa	-1957
▁near	-1958
▁side	-1959
▁creat	-1960
ination	-1961
▁निक	-1962
ividual	-1963
ohn	-1964
▁community	-1965
▁treat	-1966
bo	-1967
▁story	-1968
ूत	-1969
▁house	-1970
ajor	-1971
▁...	-1972
▁बु	-1973
यं	-1974
itive	-1975
▁बच्च	-1976
▁buy	-1977
यो	-1978
aim	-1979
सान	-1980
▁After	-1981
▁कै	-1982
ready	-1983
let	-1984
हार	-1985
िण	-1986
▁(1	-1987
▁University	-1988
▁enough	-1989
फी	-1990
aster	-1991
br	-1992
▁become	-1993
▁ever	-1994
side	-1995
▁mar	-1996
▁body	-1997
▁/	-1998
▁short	-1999
▁account	-2000
ल्प	-2001
पा	-2002
ेत्र	-2003
गत	-2004
▁sw	-2005
urs	-2006
ोड़	-2007
▁उसे	-2008
▁शुरू	-2009
▁ज्या	-2010
ead	-2011
tain	-2012
irl	-2013
▁offer	-2014
▁Car	-2015
▁products	-2016
▁Fe	-2017
▁offic	-2018
alf	-2019
▁women	-2020
▁done	-2021
▁शिक	-2022
aterial	-2023
न्ध	-2024
▁Eng	-2025
▁feat	-2026
▁include	-2027
िज	-2028
▁website	-2029
▁men	-2030
ery	-2031
दर्	-2032
▁pot	-2033
पुर	-2034
▁needs	-2035
वान	-2036
▁होती	-2037
▁pain	-2038
ON	-2039
▁दौर	-2040
▁बारे	-2041
▁13	-2042
▁trad	-2043
by	-2044
uro	-2045
▁ठ	-2046
son	-2047
une	-2048
▁conne	-2049
▁members	-2050
क्षण	-2051
्ज	-2052
rap	-2053
▁bit	-2054
▁clo	-2055
▁country	-2056
▁हू	-2057
▁स्त	-2058
ows	-2059
▁already	-2060
▁makes	-2061
fer	-2062
एस	-2063
▁line	-2064
▁called	-2065
▁possible	-2066
▁ऐसे	-2067
्टी	-2068
ails	-2069
▁research	-2070
▁certain	-2071
▁la	-2072
ञ्च	-2073
▁far	-2074
▁यु	-2075
▁Pr	-2076
▁वै	-2077
▁However	-2078
▁झ	-2079
▁review	-2080
▁individual	-2081
pportun	-2082
▁1.	-2083
▁easy	-2084
न्द्र	-2085
▁getting	-2086
र्स	-2087
टर	-2088
ern	-2089
▁news	-2090
ots	-2091
▁आई	-2092
cu	-2093
oice	-2094
▁enjoy	-2095
ानि	-2096
▁benef	-2097
▁means	-2098
▁live	-2099
▁John	-2100
▁मुझे	-2101
ीर	-2102
▁quality	-2103
▁mean	-2104
▁*	-2105
▁several	-2106
▁occ	-2107
▁lo	-2108
▁record	-2109
▁personal	-2110
ush	-2111
▁social	-2112
▁following	-2113
▁others	-2114
▁focus	-2115
सार	-2116
▁government	-2117
AT	-2118
▁based	-2119
ec	-2120
वल	-2121
▁control	-2122
fort	-2123
▁लिया	-2124
▁fore	-2125
▁mil	-2126
▁--	-2127
uture	-2128
▁doing	-2129
ES	-2130
▁cou	-2131
नाव	-2132
▁पहुंच	-2133
क्रम	-2134
ither	-2135
ीय	-2136
of	-2137
▁non	-2138
▁अपना	-2139
▁visit	-2140
▁came	-2141
▁ट्र	-2142
viron	-2143
ands	-2144
▁Cont	-2145
▁camp	-2146
▁Rep	-2147
ique	-2148
1.	-2149
करण	-2150
▁music	-2151
ored	-2152
ात्म	-2153
▁रुप	-2154
▁mind	-2155
▁fund	-2156
....	-2157
पू	-2158
app	-2159
▁Me	-2160
▁17	-2161
▁25	-2162
▁२	-2163
▁क्षेत्र	-2164
▁En	-2165
ावा	-2166
▁शाम	-2167
▁American	-2168
-2	-2169
▁मा	-2170
ण्ड	-2171
▁दिख	-2172
▁major	-2173
▁lim	-2174
▁Not	-2175
▁actually	-2176
ption	-2177
aff	-2178
▁मां	-2179
▁यदि	-2180
▁elect	-2181
▁100	-2182
▁Ro	-2183
osed	-2184
लो	-2185
ances	-2186
ides	-2187
▁educ	-2188
ोजना	-2189
▁least	-2190
mber	-2191
▁24	-2192
▁Fl	-2193
ोष	-2194
▁opportun	-2195
वर	-2196
▁comes	-2197
▁tre	-2198
▁young	-2199
wards	-2200
ai	-2201
▁million	-2202
▁आय	-2203
▁ई	-2204
orts	-2205
▁fav	-2206
सर	-2207
▁hold	-2208
AN	-2209
ङ्ग	-2210
▁quick	-2211
book	-2212
cially	-2213
ेंद्र	-2214
▁Med	-2215
▁दोनों	-2216
▁उनकी	-2217
एम	-2218
idd	-2219
▁doesn	-2220
rop	-2221
lement	-2222
▁thought	-2223
AR	-2224
▁#	-2225
▁बद	-2226
ee	-2227
▁return	-2228
▁जैसे	-2229
श्व	-2230
▁create	-2231
yle	-2232
▁विशेष	-2233
▁कंप	-2234
▁भव	-2235
▁across	-2236
2.	-2237
ियो	-2238
▁।।	-2239
▁कृ	-2240
▁deal	-2241
स्	-2242
▁X	-2243
ape	-2244
atic	-2245
▁clear	-2246
▁net	-2247
▁mom	-2248
err	-2249
most	-2250
▁ey	-2251
▁took	-2252
▁charact	-2253
▁Your	-2254
▁ce	-2255
▁Br	-2256
ष्य	-2257
र्त	-2258
▁contact	-2259
▁anal	-2260
▁हा	-2261
ched	-2262
▁material	-2263
▁mult	-2264
▁once	-2265
तीय	-2266
▁low	-2267
▁Inst	-2268
▁invol	-2269
▁particular	-2270
ully	-2271
▁happen	-2272
ches	-2273
▁स्प	-2274
▁By	-2275
▁started	-2276
▁development	-2277
ब्द	-2278
ंब	-2279
ians	-2280
ister	-2281
ाक	-2282
▁soft	-2283
▁बीच	-2284
ony	-2285
ेंगे	-2286
▁city	-2287
न्य	-2288
ालय	-2289
▁वाली	-2290
▁दौरान	-2291
crib	-2292
▁went	-2293
▁video	-2294
▁beaut	-2295
aps	-2296
▁ज्यादा	-2297
▁50	-2298
urther	-2299
room	-2300
duct	-2301
!!	-2302
OR	-2303
▁friends	-2304
ones	-2305
▁won	-2306
▁खिला	-2307
▁hot	-2308
▁future	-2309
▁तै	-2310
▁orig	-2311
▁जानकारी	-2312
▁months	-2313
▁percent	-2314
▁अग	-2315
▁link	-2316
▁स्क	-2317
िये	-2318
▁Comp	-2319
▁2.	-2320
mm	-2321
vironment	-2322
ियम	-2323
not	-2324
र्ष	-2325
▁reason	-2326
▁Sy	-2327
aken	-2328
▁hours	-2329
▁गां	-2330
▁वर्ष	-2331
lf	-2332
धा	-2333
▁पि	-2334
ips	-2335
▁econom	-2336
▁bring	-2337
isk	-2338
lished	-2339
▁redu	-2340
▁specific	-2341
▁रो	-2342
▁perfect	-2343
hod	-2344
▁share	-2345
▁yet	-2346
▁early	-2347
▁later	-2348
दार	-2349
▁कॉ	-2350
▁strong	-2351
▁Intern	-2352
▁study	-2353
▁vers	-2354
ograph	-2355
▁cut	-2356
▁Che	-2357
▁example	-2358
▁चे	-2359
भाग	-2360
▁ident	-2361
▁typ	-2362
▁key	-2363
urity	-2364
▁Wor	-2365
ateg	-2366
▁शु	-2367
lling	-2368
▁ऐसा	-2369
uff	-2370
ences	-2371
रिक	-2372
ges	-2373
रूप	-2374
▁et	-2375
1,	-2376
्रेस	-2377
ners	-2378
▁compet	-2379
gle	-2380
▁compan	-2381
oose	-2382
फ़	-2383
for	-2384
ift	-2385
▁heart	-2386
▁problem	-2387
▁email	-2388
bal	-2389
▁hig	-2390
▁इसे	-2391
▁page	-2392
▁step	-2393
▁)	-2394
▁require	-2395
▁wa	-2396
▁told	-2397
▁five	-2398
▁घट	-2399
▁विश्व	-2400
▁United	-2401
ference	-2402
▁tem	-2403
ource	-2404
wh	-2405
cle	-2406
sw	-2407
resent	-2408
iday	-2409
▁par	-2410
verage	-2411
▁इत्य	-2412
ृत्त	-2413
osp	-2414
▁ब्र	-2415
धिक	-2416
▁appear	-2417
ulation	-2418
▁deli	-2419
arr	-2420
▁Now	-2421
▁begin	-2422
▁Ab	-2423
▁human	-2424
icy	-2425
्यान	-2426
तु	-2427
▁Gu	-2428
▁press	-2429
▁discuss	-2430
▁भाव	-2431
utions	-2432
ित्त	-2433
▁chall	-2434
▁below	-2435
▁Here	-2436
▁close	-2437
▁ant	-2438
▁walk	-2439
▁known	-2440
▁vari	-2441
धी	-2442
▁उत्त	-2443
▁rele	-2444
▁सुर	-2445
ृष्ट	-2446
▁given	-2447
▁दिल्ली	-2448
unch	-2449
ino	-2450
▁Bo	-2451
तो	-2452
iod	-2453
ोर्ट	-2454
▁State	-2455
pro	-2456
ैन	-2457
We	-2458
reet	-2459
▁?	-2460
--	-2461
सं	-2462
लिए	-2463
▁minutes	-2464
▁relations	-2465
idence	-2466
ights	-2467
▁ste	-2468
ster	-2469
▁बैठ	-2470
acy	-2471
▁pack	-2472
▁राज्य	-2473
ources	-2474
▁item	-2475
▁प्रश	-2476
▁space	-2477
▁author	-2478
▁priv	-2479
ler	-2480
ilities	-2481
de	-2482
▁ener	-2483
▁face	-2484
lege	-2485
▁everything	-2486
▁Serv	-2487
itor	-2488
ादी	-2489
▁ess	-2490
निया	-2491
▁ago	-2492
▁comb	-2493
▁someone	-2494
▁Tw	-2495
▁देने	-2496
▁exc	-2497
धि	-2498
▁industry	-2499
▁purch	-2500
▁question	-2501
▁Some	-2502
▁उपयोग	-2503
rict	-2504
▁stay	-2505
ेज	-2506
▁While	-2507
rew	-2508
oon	-2509
▁निव	-2510
▁seen	-2511
▁समझ	-2512
over	-2513
▁tax	-2514
▁लिख	-2515
ilar	-2516
ural	-2517
▁Des	-2518
चे	-2519
▁prob	-2520
▁202	-2521
illed	-2522
▁whether	-2523
▁whole	-2524
▁sound	-2525
▁vol	-2526
▁कप	-2527
eral	-2528
▁क्योंकि	-2529
▁ऊ	-2530
▁games	-2531
▁among	-2532
▁पद	-2533
▁फै	-2534
सम	-2535
▁super	-2536
▁टीम	-2537
▁यहां	-2538
▁Mr	-2539
▁jo	-2540
▁ens	-2541
ज्ञान	-2542
though	-2543
atural	-2544
ख्या	-2545
par	-2546
▁field	-2547
▁tot	-2548
hers	-2549
जू	-2550
भ्य	-2551
ball	-2552
ply	-2553
▁price	-2554
▁single	-2555
▁Dr	-2556
ama	-2557
che	-2558
ित्र	-2559
aces	-2560
▁बो	-2561
▁break	-2562
▁polit	-2563
▁content	-2564
▁respons	-2565
ilt	-2566
▁believe	-2567
▁claim	-2568
▁pie	-2569
▁मेरे	-2570
▁pick	-2571
र्ड	-2572
ourn	-2573
▁enc	-2574
▁काफी	-2575
pecially	-2576
▁योजना	-2577
//	-2578
▁sex	-2579
▁clean	-2580
ाली	-2581
▁amount	-2582
▁companies	-2583
▁जग	-2584
ibility	-2585
▁tool	-2586
▁मद	-2587
▁प्राप्त	-2588
▁Count	-2589
▁महिला	-2590
▁Min	-2591
ctor	-2592
▁जाती	-2593
▁age	-2594
▁Go	-2595
▁बल	-2596
urch	-2597
3.	-2598
▁taking	-2599
ST	-2600
आई	-2601
ned	-2602
▁ज्ञ	-2603
ेव	-2604
▁Qu	-2605
ided	-2606
ison	-2607
▁mor	-2608
चना	-2609
▁media	-2610
gs	-2611
selves	-2612
▁cult	-2613
▁Cal	-2614
िस्ट	-2615
▁Euro	-2616
▁address	-2617
▁fre	-2618
ili	-2619
rain	-2620
▁wind	-2621
ained	-2622
ensive	-2623
▁डॉ	-2624
िस्त	-2625
▁Ed	-2626
▁Pe	-2627
://	-2628
▁above	-2629
श्र	-2630
▁hope	-2631
ancial	-2632
ental	-2633
af	-2634
ued	-2635
▁half	-2636
▁York	-2637
▁mess	-2638
▁anything	-2639
cri	-2640
▁results	-2641
▁Ke	-2642
▁port	-2643
▁history	-2644
▁Bro	-2645
▁पढ़	-2646
▁due	-2647
▁More	-2648
▁issues	-2649
▁phys	-2650
▁fall	-2651
▁ज़	-2652
iously	-2653
new	-2654
टा	-2655
गु	-2656
ृति	-2657
ogn	-2658
abor	-2659
ggest	-2660
▁City	-2661
▁Jan	-2662
▁Just	-2663
त्स	-2664
▁questions	-2665
▁pub	-2666
2,	-2667
ेंट	-2668
ंबर	-2669
▁cred	-2670
go	-2671
▁consider	-2672
▁recomm	-2673
irm	-2674
▁mot	-2675
▁cra	-2676
▁His	-2677
fic	-2678
▁तीन	-2679
▁शामिल	-2680
▁करे	-2681
▁girl	-2682
▁z	-2683
5.	-2684
fully	-2685
▁कर्म	-2686
irt	-2687
▁recommend	-2688
▁उठ	-2689
▁series	-2690
ेस	-2691
imate	-2692
▁प्रदेश	-2693
▁Mc	-2694
EN	-2695
uation	-2696
▁manag	-2697
्रीय	-2698
▁front	-2699
▁जाएगा	-2700
▁works	-2701
▁please	-2702
मिति	-2703
elt	-2704
▁period	-2705
▁store	-2706
▁sci	-2707
asing	-2708
▁common	-2709
▁योग	-2710
ams	-2711
▁Sec	-2712
▁व्यव	-2713
फल	-2714
▁building	-2715
▁environment	-2716
▁bar	-2717
▁eff	-2718
ille	-2719
▁हमारे	-2720
▁मैंने	-2721
ledge	-2722
come	-2723
▁भा	-2724
▁aff	-2725
▁बा	-2726
▁कैसे	-2727
▁energy	-2728
▁Pres	-2729
▁wond	-2730
ेर	-2731
▁technology	-2732
षय	-2733
▁watch	-2734
र्थः	-2735
▁आर	-2736
▁मामले	-2737
9.	-2738
▁भारतीय	-2739
▁brand	-2740
ेशन	-2741
back	-2742
▁Gr	-2743
▁entire	-2744
▁idea	-2745
▁almost	-2746
▁होते	-2747
itted	-2748
▁either	-2749
▁Je	-2750
▁सकती	-2751
▁Per	-2752
vert	-2753
▁aud	-2754
▁features	-2755
▁suggest	-2756
▁bad	-2757
▁improve	-2758
हत	-2759
▁cal	-2760
AL	-2761
201	-2762
▁further	-2763
▁गो	-2764
▁search	-2765
ried	-2766
▁इसलिए	-2767
▁method	-2768
ित्व	-2769
▁बाह	-2770
ask	-2771
▁everyone	-2772
▁तब	-2773
▁range	-2774
ators	-2775
▁Im	-2776
न्म	-2777
स्था	-2778
▁pict	-2779
▁पुर	-2780
▁self	-2781
▁travel	-2782
काश	-2783
▁पूरी	-2784
▁Sm	-2785
anks	-2786
chie	-2787
▁crit	-2788
▁type	-2789
▁कभी	-2790
▁concer	-2791
▁Will	-2792
▁land	-2793
▁चार	-2794
▁relationship	-2795
org	-2796
ites	-2797
mb	-2798
▁repl	-2799
▁इससे	-2800
▁training	-2801
्रह्म	-2802
▁•	-2803
▁quite	-2804
iver	-2805
लाइ	-2806
__	-2807
▁value	-2808
▁miss	-2809
▁parent	-2810
▁इसी	-2811
▁त्व	-2812
▁film	-2813
cell	-2814
▁3.	-2815
vent	-2816
4.	-2817
▁अंत	-2818
▁National	-2819
▁इत	-2820
▁deb	-2821
▁del	-2822
▁meas	-2823
▁Dis	-2824
▁Pre	-2825
▁गिर	-2826
▁offers	-2827
▁track	-2828
▁आरो	-2829
▁Part	-2830
▁trying	-2831
iful	-2832
▁likely	-2833
▁Mark	-2834
▁dig	-2835
▁अभ	-2836
used	-2837
ेड	-2838
▁signific	-2839
▁customers	-2840
▁taken	-2841
umb	-2842
ED	-2843
▁web	-2844
ान्य	-2845
िद	-2846
▁किए	-2847
ively	-2848
arning	-2849
▁जीवन	-2850
▁various	-2851
स्प	-2852
aur	-2853
▁wanted	-2854
▁Tra	-2855
▁ली	-2856
▁mag	-2857
र्क	-2858
▁Don	-2859
ची	-2860
▁Europe	-2861
▁favor	-2862
ging	-2863
▁प्रव	-2864
लों	-2865
▁especially	-2866
ूट	-2867
▁black	-2868
play	-2869
▁राष्ट	-2870
▁South	-2871
rodu	-2872
lex	-2873
▁necess	-2874
ana	-2875
sy	-2876
▁dou	-2877
▁sent	-2878
fact	-2879
▁भर	-2880
▁third	-2881
▁सप	-2882
▁ओर	-2883
oogle	-2884
▁however	-2885
gest	-2886
▁particip	-2887
▁हों	-2888
▁six	-2889
▁ele	-2890
▁अभी	-2891
▁North	-2892
ficult	-2893
8.	-2894
▁consum	-2895
▁areas	-2896
▁card	-2897
▁simple	-2898
▁लड़	-2899
resh	-2900
▁School	-2901
▁TH	-2902
▁points	-2903
omes	-2904
▁comput	-2905
ताओं	-2906
▁World	-2907
Th	-2908
IT	-2909
6.	-2910
▁तत्र	-2911
▁Acc	-2912
▁protect	-2913
▁asked	-2914
▁सुन	-2915
▁होगी	-2916
▁पड़	-2917
ायर	-2918
gress	-2919
ises	-2920
▁Ge	-2921
▁glo	-2922
▁याद	-2923
▁States	-2924
▁host	-2925
▁needed	-2926
▁coming	-2927
▁spend	-2928
▁cir	-2929
▁oil	-2930
▁Ju	-2931
iol	-2932
▁else	-2933
▁management	-2934
▁performance	-2935
मत	-2936
ाला	-2937
ांस	-2938
obile	-2939
▁pret	-2940
IC	-2941
ples	-2942
▁कांग	-2943
7.	-2944
AS	-2945
▁difficult	-2946
3,	-2947
▁simply	-2948
ियां	-2949
▁install	-2950
opy	-2951
▁issue	-2952
▁राम	-2953
na	-2954
▁तैय	-2955
rie	-2956
▁office	-2957
▁htt	-2958
▁docu	-2959
▁40	-2960
ाये	-2961
▁staff	-2962
▁Oct	-2963
▁Spe	-2964
▁सामने	-2965
ung	-2966
ग्	-2967
▁probably	-2968
▁From	-2969
▁ways	-2970
▁Aug	-2971
ially	-2972
▁Aust	-2973
ires	-2974
▁व्यक्ति	-2975
▁rather	-2976
▁answ	-2977
▁!	-2978
▁Inc	-2979
▁red	-2980
▁provides	-2981
▁पत्र	-2982
म्ब	-2983
▁stop	-2984
oid	-2985
▁Dep	-2986
99	-2987
▁Cor	-2988
ीस	-2989
▁शिक्ष	-2990
▁चुनाव	-2991
ication	-2992
▁living	-2993
▁Apr	-2994
▁required	-2995
▁position	-2996
angu	-2997
▁abs	-2998
▁cell	-2999
▁उसकी	-3000
aching	-3001
▁added	-3002
चित	-3003
▁text	-3004
▁soon	-3005
▁प्रकार	-3006
▁Please	-3007
time	-3008
▁व्याप	-3009
▁foot	-3010
मन	-3011
ruction	-3012
ification	-3013
्ले	-3014
▁hy	-3015
▁Pol	-3016
itch	-3017
▁upd	-3018
▁Add	-3019
▁isn	-3020
▁Ag	-3021
▁risk	-3022
हाँ	-3023
year	-3024
यी	-3025
▁dam	-3026
काल	-3027
reme	-3028
roll	-3029
▁प्रत्य	-3030
ze	-3031
्यते	-3032
▁assist	-3033
eth	-3034
▁bed	-3035
yn	-3036
▁३	-3037
▁problems	-3038
▁represent	-3039
▁continue	-3040
60	-3041
▁तद	-3042
▁Park	-3043
▁करके	-3044
▁आने	-3045
▁words	-3046
urance	-3047
▁pretty	-3048
▁exist	-3049
▁init	-3050
▁professional	-3051
▁बैं	-3052
ेति	-3053
▁writing	-3054
▁लोक	-3055
▁स्म	-3056
▁prep	-3057
▁Bar	-3058
मो	-3059
▁behind	-3060
▁announ	-3061
.)	-3062
my	-3063
itting	-3064
ibr	-3065
ाइल	-3066
▁पता	-3067
▁केवल	-3068
्याय	-3069
▁198	-3070
It	-3071
▁कांग्रेस	-3072
▁जारी	-3073
▁determ	-3074
▁forward	-3075
itional	-3076
▁character	-3077
▁पार्टी	-3078
▁yourself	-3079
▁matter	-3080
oring	-3081
▁21	-3082
वाई	-3083
▁मत	-3084
▁significant	-3085
ief	-3086
▁according	-3087
▁nothing	-3088
▁Stud	-3089
pper	-3090
▁similar	-3091
▁flo	-3092
▁events	-3093
ग्र	-3094
▁white	-3095
apt	-3096
▁accept	-3097
▁infl	-3098
▁property	-3099
▁impact	-3100
▁दर	-3101
ables	-3102
head	-3103
▁provided	-3104
इट	-3105
ience	-3106
▁action	-3107
▁कुमार	-3108
▁role	-3109
ैक	-3110
श्यक	-3111
itten	-3112
where	-3113
IS	-3114
▁size	-3115
▁जिन	-3116
▁प्रधान	-3117
▁संबंध	-3118
minist	-3119
▁inj	-3120
▁$1	-3121
▁अलग	-3122
▁जाते	-3123
val	-3124
▁subject	-3125
▁Reg	-3126
▁hon	-3127
ole	-3128
▁मदद	-3129
▁extra	-3130
▁fail	-3131
▁popular	-3132
▁stat	-3133
ume	-3134
▁Pa	-3135
▁पिछ	-3136
astic	-3137
▁road	-3138
era	-3139
▁विध	-3140
▁gra	-3141
▁natural	-3142
ring	-3143
▁achie	-3144
ामी	-3145
▁Af	-3146
▁final	-3147
▁cook	-3148
ान्	-3149
▁अध्य	-3150
▁financial	-3151
▁निर	-3152
▁Act	-3153
▁ची	-3154
▁tou	-3155
▁प्रो	-3156
▁सद	-3157
▁कल	-3158
▁takes	-3159
▁परि	-3160
ेक	-3161
▁weeks	-3162
▁connect	-3163
uge	-3164
मेव	-3165
▁lov	-3166
▁outside	-3167
▁x	-3168
▁ground	-3169
▁increase	-3170
▁party	-3171
▁हाथ	-3172
▁death	-3173
ानु	-3174
ufact	-3175
▁date	-3176
AC	-3177
nes	-3178
▁sum	-3179
▁आगे	-3180
ades	-3181
40	-3182
▁दें	-3183
▁phone	-3184
▁associ	-3185
▁includes	-3186
▁त्र	-3187
हां	-3188
ival	-3189
▁fire	-3190
▁फ़	-3191
aily	-3192
▁log	-3193
▁वहीं	-3194
▁पानी	-3195
6,	-3196
▁Fin	-3197
▁Center	-3198
ेण	-3199
िं	-3200
ID	-3201
▁options	-3202
medi	-3203
▁select	-3204
▁March	-3205
▁Us	-3206
anc	-3207
▁मोदी	-3208
▁exam	-3209
ासन	-3210
▁Art	-3211
▁unique	-3212
▁general	-3213
▁held	-3214
▁upon	-3215
स्तु	-3216
ules	-3217
▁true	-3218
▁article	-3219
▁Of	-3220
▁Post	-3221
र्ग	-3222
▁(2	-3223
ैर	-3224
▁sle	-3225
7,	-3226
ox	-3227
▁June	-3228
8,	-3229
ees	-3230
▁बनाने	-3231
▁cover	-3232
11	-3233
▁Em	-3234
▁beautiful	-3235
क्टर	-3236
▁आए	-3237
▁regard	-3238
icro	-3239
▁बेह	-3240
ीक	-3241
▁लाख	-3242
istic	-3243
▁परिवार	-3244
▁model	-3245
empt	-3246
▁धर्म	-3247
▁wide	-3248
▁Dav	-3249
ha	-3250
▁send	-3251
▁Sept	-3252
▁respect	-3253
▁estab	-3254
▁education	-3255
-0	-3256
शि	-3257
▁coll	-3258
न्ति	-3259
olution	-3260
▁security	-3261
शा	-3262
▁खिलाफ	-3263
▁paper	-3264
▁changes	-3265
▁देव	-3266
▁पो	-3267
▁recogn	-3268
▁opportunity	-3269
▁एस	-3270
▁safe	-3271
▁America	-3272
ाइन	-3273
▁treatment	-3274
▁recent	-3275
▁official	-3276
ंज	-3277
▁उत्प	-3278
▁Up	-3279
▁swe	-3280
▁seems	-3281
▁County	-3282
▁अम	-3283
ादि	-3284
▁cannot	-3285
फ्त	-3286
9,	-3287
eter	-3288
overed	-3289
face	-3290
arget	-3291
▁fa	-3292
▁coun	-3293
▁Bu	-3294
▁tit	-3295
▁Read	-3296
▁इसमें	-3297
▁मेरी	-3298
र्फ	-3299
ffe	-3300
▁2010	-3301
▁agree	-3302
ष्ण	-3303
▁song	-3304
▁Then	-3305
▁loss	-3306
▁April	-3307
▁चौ	-3308
oura	-3309
▁Int	-3310
▁kids	-3311
ada	-3312
▁leave	-3313
yl	-3314
▁couple	-3315
▁created	-3316
▁running	-3317
aving	-3318
▁Day	-3319
जार	-3320
त्वा	-3321
reg	-3322
▁engine	-3323
▁जै	-3324
atest	-3325
▁West	-3326
▁High	-3327
▁software	-3328
▁potential	-3329
▁2012	-3330
▁President	-3331
▁longer	-3332
यन	-3333
कु	-3334
▁knowledge	-3335
itter	-3336
▁इसका	-3337
izing	-3338
▁higher	-3339
oud	-3340
▁opp	-3341
ests	-3342
▁बड़ी	-3343
▁member	-3344
▁करती	-3345
तम	-3346
▁defin	-3347
▁systems	-3348
ंदर	-3349
▁table	-3350
nov	-3351
▁inde	-3352
▁fig	-3353
▁skin	-3354
anced	-3355
RE	-3356
▁anim	-3357
oph	-3358
ोजन	-3359
▁shows	-3360
ायक	-3361
▁Her	-3362
▁Health	-3363
▁received	-3364
▁designed	-3365
▁court	-3366
▁usually	-3367
cil	-3368
ude	-3369
▁choose	-3370
▁network	-3371
▁fast	-3372
▁ब्रह्म	-3373
रीर	-3374
▁अनुसार	-3375
▁आद	-3376
▁neg	-3377
▁inside	-3378
▁reading	-3379
iter	-3380
▁जिसमें	-3381
▁worth	-3382
▁कंपनी	-3383
ese	-3384
▁stri	-3385
▁etc	-3386
▁हूं	-3387
▁आवश्यक	-3388
▁throughout	-3389
uary	-3390
▁details	-3391
▁रुपये	-3392
25	-3393
▁click	-3394
ops	-3395
▁ready	-3396
्यो	-3397
▁function	-3398
▁आधार	-3399
▁bott	-3400
देव	-3401
▁anyone	-3402
▁moment	-3403
ीडिया	-3404
cks	-3405
▁खेल	-3406
▁gen	-3407
▁speak	-3408
▁News	-3409
▁comfort	-3410
▁El	-3411
▁Google	-3412
aced	-3413
gu	-3414
पूर्ण	-3415
arter	-3416
▁जरूर	-3417
▁dom	-3418
▁अलावा	-3419
ृह	-3420
▁contract	-3421
▁Off	-3422
earch	-3423
▁बदल	-3424
▁>	-3425
▁regular	-3426
▁attack	-3427
▁बाहर	-3428
▁मुख्य	-3429
▁ध्यान	-3430
▁attend	-3431
▁rad	-3432
▁उनका	-3433
▁download	-3434
▁town	-3435
iddle	-3436
▁ensure	-3437
▁lay	-3438
▁receive	-3439
▁total	-3440
▁contrib	-3441
▁sales	-3442
▁print	-3443
यर	-3444
▁pric	-3445
erc	-3446
iet	-3447
ेयर	-3448
▁ill	-3449
▁Jo	-3450
rect	-3451
▁saw	-3452
▁happy	-3453
▁sense	-3454
▁rate	-3455
▁leaders	-3456
▁lives	-3457
▁Har	-3458
▁+	-3459
▁norm	-3460
रु	-3461
▁House	-3462
▁4.	-3463
▁medical	-3464
▁application	-3465
atform	-3466
▁July	-3467
ंगे	-3468
▁describ	-3469
hib	-3470
▁mass	-3471
▁वज	-3472
▁mach	-3473
▁depend	-3474
▁box	-3475
▁users	-3476
▁भग	-3477
▁express	-3478
aining	-3479
▁माध	-3480
▁टे	-3481
iff	-3482
सु	-3483
▁players	-3484
▁बच	-3485
हित	-3486
▁बॉ	-3487
▁dest	-3488
▁original	-3489
ाउ	-3490
▁ball	-3491
▁nice	-3492
▁First	-3493
▁collect	-3494
▁ut	-3495
ग्रह	-3496
amed	-3497
icles	-3498
atory	-3499
ening	-3500
षा	-3501
idge	-3502
▁growth	-3503
▁practice	-3504
▁मीडिया	-3505
नीति	-3506
▁इस्त	-3507
▁नव	-3508
▁Feb	-3509
▁emb	-3510
▁decision	-3511
▁क्ल	-3512
mit	-3513
▁stra	-3514
▁dep	-3515
यः	-3516
▁national	-3517
aging	-3518
OU	-3519
▁struct	-3520
▁late	-3521
▁पुन	-3522
▁themselves	-3523
▁blog	-3524
▁Every	-3525
▁लाभ	-3526
▁इंड	-3527
णं	-3528
ानां	-3529
▁मिले	-3530
▁wonder	-3531
▁base	-3532
▁deep	-3533
▁Was	-3534
▁मज	-3535
▁अथ	-3536
▁park	-3537
▁recently	-3538
▁learning	-3539
5,	-3540
▁2020	-3541
edd	-3542
▁fit	-3543
based	-3544
▁आस	-3545
▁प्रभाव	-3546
▁ple	-3547
▁हिस	-3548
▁cause	-3549
▁exact	-3550
▁Cour	-3551
जूद	-3552
▁former	-3553
▁यू	-3554
▁cele	-3555
▁कथ	-3556
▁morning	-3557
▁दुनिया	-3558
चन	-3559
▁नई	-3560
▁version	-3561
मुख	-3562
aign	-3563
▁deg	-3564
▁Sw	-3565
▁हमें	-3566
▁आया	-3567
ceed	-3568
▁pers	-3569
ek	-3570
▁पूरा	-3571
यों	-3572
▁war	-3573
▁color	-3574
▁books	-3575
▁रिप	-3576
ताब	-3577
lier	-3578
▁policy	-3579
ysis	-3580
▁hands	-3581
▁patients	-3582
▁quickly	-3583
▁goal	-3584
▁hit	-3585
▁prior	-3586
टे	-3587
▁board	-3588
▁Mon	-3589
70	-3590
▁विकास	-3591
▁private	-3592
▁currently	-3593
▁खुद	-3594
adem	-3595
ciety	-3596
▁Mich	-3597
dd	-3598
पु	-3599
▁hair	-3600
▁बस	-3601
▁lost	-3602
▁via	-3603
▁Aut	-3604
azing	-3605
iber	-3606
▁वीड	-3607
cast	-3608
action	-3609
ब्ध	-3610
irit	-3611
4,	-3612
inary	-3613
▁additional	-3614
▁किसान	-3615
ached	-3616
शल	-3617
like	-3618
▁जहां	-3619
ober	-3620
▁2013	-3621
▁mother	-3622
▁Friday	-3623
ederal	-3624
▁sho	-3625
▁दिए	-3626
▁करोड़	-3627
▁वाला	-3628
▁Most	-3629
▁credit	-3630
▁जांच	-3631
▁Are	-3632
do	-3633
▁बाल	-3634
▁worked	-3635
▁playing	-3636
▁Let	-3637
▁style	-3638
णी	-3639
▁सौ	-3640
बा	-3641
्रा	-3642
▁itself	-3643
▁langu	-3644
▁viol	-3645
irth	-3646
ament	-3647
▁production	-3648
ux	-3649
▁activities	-3650
▁imm	-3651
▁Face	-3652
▁teac	-3653
▁Par	-3654
▁fight	-3655
▁obs	-3656
▁अच्छा	-3657
▁विभाग	-3658
ham	-3659
ूरी	-3660
▁उसने	-3661
ny	-3662
▁sens	-3663
िः	-3664
oke	-3665
▁उत्तर	-3666
स्थान	-3667
▁prim	-3668
▁items	-3669
▁woman	-3670
▁veh	-3671
▁छात्र	-3672
▁autom	-3673
▁चाहते	-3674
▁career	-3675
▁manufact	-3676
▁conc	-3677
▁meeting	-3678
▁pan	-3679
▁affect	-3680
ague	-3681
-3	-3682
▁Val	-3683
▁sat	-3684
▁व्या	-3685
ky	-3686
right	-3687
▁customer	-3688
▁terms	-3689
▁परी	-3690
▁summer	-3691
▁ability	-3692
12	-3693
▁drive	-3694
clus	-3695
ournal	-3696
▁जगह	-3697
▁आम	-3698
▁squ	-3699
म्मी	-3700
▁Get	-3701
▁object	-3702
▁cases	-3703
▁तरी	-3704
ming	-3705
▁इं	-3706
▁Sund	-3707
▁Also	-3708
▁myself	-3709
▁included	-3710
▁दूर	-3711
▁screen	-3712
▁rights	-3713
▁ढ	-3714
▁arri	-3715
80	-3716
▁Ob	-3717
मेंट	-3718
▁weight	-3719
▁22	-3720
▁Char	-3721
▁स्थिति	-3722
ession	-3723
्यमंत्री	-3724
sc	-3725
▁वीडियो	-3726
▁August	-3727
ground	-3728
bor	-3729
चर	-3730
▁programs	-3731
▁मंत्री	-3732
▁bal	-3733
▁दूसरे	-3734
क्रिया	-3735
▁कौ	-3736
▁goes	-3737
▁wall	-3738
▁blood	-3739
ायत	-3740
▁multip	-3741
▁करी	-3742
▁San	-3743
erve	-3744
▁Cons	-3745
▁बड़े	-3746
▁began	-3747
▁Satur	-3748
▁chance	-3749
▁skills	-3750
खा	-3751
aby	-3752
▁ri	-3753
▁target	-3754
ological	-3755
▁स्या	-3756
off	-3757
▁वजह	-3758
▁ep	-3759
▁देते	-3760
artment	-3761
▁Black	-3762
▁latest	-3763
▁आपकी	-3764
गम	-3765
▁मही	-3766
▁तैयार	-3767
र्ज	-3768
▁insp	-3769
▁dise	-3770
▁मूल	-3771
▁wasn	-3772
▁पिछले	-3773
▁अधिकार	-3774
▁Well	-3775
हि	-3776
▁समस्या	-3777
▁mix	-3778
▁cam	-3779
▁War	-3780
ांकि	-3781
▁cand	-3782
▁clos	-3783
airs	-3784
▁TV	-3785
ecut	-3786
ोद	-3787
▁tour	-3788
▁introdu	-3789
▁immedi	-3790
▁शिव	-3791
▁आरोप	-3792
hood	-3793
▁involved	-3794
hel	-3795
▁Red	-3796
▁cool	-3797
▁remember	-3798
AM	-3799
▁ति	-3800
▁dru	-3801
imum	-3802
OT	-3803
▁September	-3804
▁appe	-3805
pose	-3806
▁Nove	-3807
बल	-3808
mon	-3809
▁घटना	-3810
uth	-3811
▁political	-3812
ales	-3813
▁student	-3814
▁easily	-3815
▁instead	-3816
:00	-3817
▁approach	-3818
ुः	-3819
▁सेवा	-3820
▁होना	-3821
भू	-3822
▁ता	-3823
▁Mus	-3824
▁grad	-3825
▁Austral	-3826
र्न	-3827
asons	-3828
▁Even	-3829
▁पूछ	-3830
▁marketing	-3831
▁बंद	-3832
▁stock	-3833
▁international	-3834
▁India	-3835
ेंस	-3836
▁sun	-3837
▁decided	-3838
▁lower	-3839
▁Bus	-3840
▁draw	-3841
▁parents	-3842
light	-3843
▁challeng	-3844
ुरुष	-3845
haps	-3846
▁match	-3847
ari	-3848
▁jud	-3849
▁built	-3850
▁सिद्ध	-3851
lim	-3852
ांत	-3853
▁looks	-3854
▁levels	-3855
▁shall	-3856
▁कोरो	-3857
itc	-3858
ियर	-3859
▁ऑफ	-3860
▁round	-3861
▁जाना	-3862
▁हालांकि	-3863
reng	-3864
▁Ac	-3865
ospital	-3866
▁CO	-3867
सल	-3868
दर्शन	-3869
▁became	-3870
▁60	-3871
▁पे	-3872
▁bank	-3873
▁Free	-3874
हन	-3875
ls	-3876
▁platform	-3877
▁Sim	-3878
▁felt	-3879
ासी	-3880
▁apply	-3881
▁conditions	-3882
▁अह	-3883
▁PM	-3884
▁Associ	-3885
▁legal	-3886
▁बाज	-3887
▁computer	-3888
िले	-3889
In	-3890
▁saf	-3891
▁related	-3892
्यं	-3893
▁Pat	-3894
iam	-3895
urg	-3896
▁fresh	-3897
enced	-3898
▁sell	-3899
rown	-3900
▁choice	-3901
▁ब्ल	-3902
▁countries	-3903
pri	-3904
▁surpr	-3905
▁भाग	-3906
▁commit	-3907
▁maintain	-3908
fficient	-3909
▁January	-3910
iction	-3911
illing	-3912
▁October	-3913
थम	-3914
▁written	-3915
▁hol	-3916
▁bud	-3917
amb	-3918
▁Brit	-3919
▁mention	-3920
ule	-3921
▁Saturday	-3922
मंत्री	-3923
▁attempt	-3924
▁दोस्त	-3925
atives	-3926
▁राह	-3927
▁sett	-3928
▁खरी	-3929
▁2018	-3930
str	-3931
▁ones	-3932
ING	-3933
▁स्	-3934
▁release	-3935
ipment	-3936
▁तुम	-3937
▁necessary	-3938
▁Direct	-3939
रि	-3940
hern	-3941
▁English	-3942
▁projects	-3943
कर्	-3944
▁शब्द	-3945
▁ord	-3946
▁डी	-3947
▁1,	-3948
▁clients	-3949
wood	-3950
uses	-3951
▁costs	-3952
▁cy	-3953
▁लो	-3954
▁attention	-3955
▁feed	-3956
▁benefits	-3957
्ठ	-3958
▁campaign	-3959
rought	-3960
भग	-3961
▁favorite	-3962
▁Why	-3963
▁रिपोर्ट	-3964
ंटर	-3965
▁eyes	-3966
ray	-3967
लाइन	-3968
/2	-3969
attle	-3970
US	-3971
▁standard	-3972
पद	-3973
▁hear	-3974
▁vict	-3975
▁खा	-3976
▁police	-3977
▁encoura	-3978
▁emer	-3979
राब	-3980
▁स्थान	-3981
▁बैंक	-3982
aught	-3983
▁investig	-3984
▁write	-3985
▁दिनों	-3986
ara	-3987
▁मुख्यमंत्री	-3988
▁दिव	-3989
▁bi	-3990
▁जिससे	-3991
ैः	-3992
▁integr	-3993
▁जिसके	-3994
15	-3995
▁wrong	-3996
▁allows	-3997
ivity	-3998
▁Afric	-3999
▁leading	-4000
▁groups	-4001
▁विचार	-4002
त्वं	-4003
▁2017	-4004
put	-4005
▁=	-4006
uel	-4007
▁बिल	-4008
▁user	-4009
▁plans	-4010
onse	-4011
युक्त	-4012
▁November	-4013
▁Department	-4014
▁निय	-4015
erous	-4016
▁UK	-4017
cember	-4018
▁Sch	-4019
▁gets	-4020
▁option	-4021
▁trust	-4022
▁पाक	-4023
ension	-4024
▁सच	-4025
▁ideas	-4026
▁sn	-4027
▁gave	-4028
▁sil	-4029
inc	-4030
▁Net	-4031
▁बिना	-4032
just	-4033
▁नए	-4034
▁huge	-4035
▁Sunday	-4036
सभा	-4037
▁गांव	-4038
unt	-4039
ought	-4040
icated	-4041
▁movie	-4042
cription	-4043
सिद्ध	-4044
▁Mond	-4045
ंदी	-4046
▁global	-4047
▁आदि	-4048
▁बच्चों	-4049
▁Other	-4050
avy	-4051
मि	-4052
▁image	-4053
▁शरीर	-4054
▁variety	-4055
▁महत्व	-4056
▁लगे	-4057
▁केंद्र	-4058
aves	-4059
▁cas	-4060
▁वृ	-4061
▁Facebook	-4062
▁saying	-4063
▁मिला	-4064
▁वेब	-4065
▁drink	-4066
▁propos	-4067
▁rev	-4068
kend	-4069
▁tal	-4070
▁effective	-4071
ester	-4072
▁कान	-4073
▁touch	-4074
▁aw	-4075
hold	-4076
▁International	-4077
▁div	-4078
▁defe	-4079
र्च	-4080
bit	-4081
ेंद	-4082
▁मांग	-4083
▁reported	-4084
itary	-4085
▁Ser	-4086
▁संप	-4087
▁except	-4088
▁सिर्फ	-4089
▁sus	-4090
▁जल	-4091
▁समाज	-4092
▁कोरोना	-4093
ET	-4094
ास्थ	-4095
▁रात	-4096
▁लेने	-4097
▁नौ	-4098
▁circ	-4099
▁माध्यम	-4100
▁Calif	-4101
▁hor	-4102
▁यथा	-4103
uk	-4104
ताल	-4105
St	-4106
बह	-4107
body	-4108
▁४	-4109
▁Sci	-4110
▁gives	-4111
ondon	-4112
aged	-4113
▁Many	-4114
▁sold	-4115
▁इत्या	-4116
cip	-4117
▁door	-4118
▁23	-4119
▁डाल	-4120
▁उपल	-4121
आर	-4122
▁कोश	-4123
▁ऐसी	-4124
त्त्व	-4125
▁आत्म	-4126
▁lab	-4127
▁comment	-4128
▁सल	-4129
▁answer	-4130
▁separ	-4131
▁speed	-4132
ेमाल	-4133
bert	-4134
ett	-4135
ुट	-4136
▁modern	-4137
▁करेंगे	-4138
urb	-4139
▁Air	-4140
▁pull	-4141
▁Any	-4142
EO	-4143
▁request	-4144
▁इस्तेमाल	-4145
EC	-4146
▁बड़ा	-4147
▁2019	-4148
?”	-4149
▁Commun	-4150
alt	-4151
▁Gener	-4152
▁fair	-4153
▁Sen	-4154
▁excell	-4155
स्क	-4156
mercial	-4157
ris	-4158
verse	-4159
त्वात्	-4160
▁चला	-4161
▁president	-4162
धन	-4163
▁played	-4164
▁lif	-4165
ुन	-4166
त्ता	-4167
▁thinking	-4168
ma	-4169
▁अध्यक्ष	-4170
ville	-4171
idered	-4172
▁मार्	-4173
▁parts	-4174
▁note	-4175
iring	-4176
▁completely	-4177
▁Germ	-4178
▁safety	-4179
▁himself	-4180
▁expected	-4181
क्षित	-4182
ॉल	-4183
▁positive	-4184
su	-4185
▁enter	-4186
जय	-4187
▁average	-4188
▁stru	-4189
▁गा	-4190
▁sche	-4191
enty	-4192
▁interesting	-4193
▁cross	-4194
▁amazing	-4195
▁daily	-4196
▁ज्ञान	-4197
▁अति	-4198
▁center	-4199
▁5.	-4200
▁ख़	-4201
wise	-4202
▁resources	-4203
िस्तान	-4204
▁pred	-4205
▁जिला	-4206
▁digital	-4207
▁December	-4208
▁AN	-4209
▁rout	-4210
▁streng	-4211
▁remov	-4212
▁types	-4213
▁flow	-4214
▁ऋ	-4215
ns	-4216
त्रा	-4217
▁sites	-4218
▁source	-4219
mission	-4220
ram	-4221
ani	-4222
▁जबकि	-4223
▁अमे	-4224
▁giving	-4225
▁administ	-4226
vey	-4227
▁display	-4228
king	-4229
fl	-4230
▁situation	-4231
ishing	-4232
▁जल्	-4233
▁prin	-4234
▁slow	-4235
ियन	-4236
ूर्	-4237
म्मीद	-4238
▁extreme	-4239
▁साह	-4240
बाज	-4241
▁purchase	-4242
▁हूँ	-4243
▁Monday	-4244
pite	-4245
cious	-4246
enge	-4247
▁save	-4248
band	-4249
▁plant	-4250
▁location	-4251
gar	-4252
itation	-4253
▁prevent	-4254
▁माल	-4255
▁vac	-4256
zy	-4257
▁piece	-4258
▁उम्मीद	-4259
iding	-4260
▁Coun	-4261
▁मैच	-4262
name	-4263
▁located	-4264
▁mid	-4265
▁स्कूल	-4266
▁knew	-4267
▁La	-4268
▁dark	-4269
▁प्रा	-4270
भिन्न	-4271
▁document	-4272
▁प्रधानमंत्री	-4273
▁led	-4274
▁लॉ	-4275
urt	-4276
isions	-4277
▁file	-4278
▁interview	-4279
▁heard	-4280
yond	-4281
aker	-4282
▁पृ	-4283
▁2016	-4284
▁providing	-4285
▁insurance	-4286
▁conduct	-4287
▁http	-4288
▁कार्यक्रम	-4289
tee	-4290
▁Over	-4291
▁छोड़	-4292
▁bur	-4293
aly	-4294
▁cat	-4295
▁Wind	-4296
न्त्र	-4297
▁तथ	-4298
key	-4299
दम	-4300
▁उसका	-4301
▁detail	-4302
▁celebr	-4303
▁dead	-4304
▁qual	-4305
▁mobile	-4306
Wh	-4307
▁sometimes	-4308
▁सही	-4309
▁THE	-4310
▁नजर	-4311
▁अर्थ	-4312
itution	-4313
▁depart	-4314
ऽपि	-4315
▁2011	-4316
▁published	-4317
▁पट	-4318
▁इसकी	-4319
▁London	-4320
▁2014	-4321
▁influ	-4322
▁arch	-4323
www	-4324
▁organization	-4325
pre	-4326
▁Group	-4327
ilies	-4328
▁King	-4329
OS	-4330
▁Since	-4331
apan	-4332
▁रहने	-4333
▁tools	-4334
▁न्यू	-4335
कल	-4336
ornia	-4337
पति	-4338
agn	-4339
▁Out	-4340
iles	-4341
▁Dem	-4342
▁dating	-4343
▁tele	-4344
▁nature	-4345
itute	-4346
▁Gl	-4347
▁section	-4348
aste	-4349
add	-4350
▁प्रदान	-4351
idents	-4352
sec	-4353
▁वहां	-4354
▁रु	-4355
▁मि	-4356
▁नियम	-4357
▁reve	-4358
▁दर्ज	-4359
▁देखा	-4360
▁सम्म	-4361
aint	-4362
):	-4363
▁offe	-4364
▁Once	-4365
▁गयी	-4366
▁directly	-4367
▁Tod	-4368
▁broad	-4369
यां	-4370
ंगल	-4371
▁highly	-4372
▁China	-4373
▁helps	-4374
EL	-4375
itely	-4376
▁sleep	-4377
▁starting	-4378
imately	-4379
शेष	-4380
ened	-4381
▁physical	-4382
▁Business	-4383
oms	-4384
▁सम्	-4385
▁brought	-4386
▁path	-4387
ruary	-4388
▁Law	-4389
".	-4390
▁father	-4391
aches	-4392
rs	-4393
▁eye	-4394
rel	-4395
▁पं	-4396
मर	-4397
णि	-4398
▁considered	-4399
▁भू	-4400
▁अच्छी	-4401
▁तहत	-4402
ica	-4403
19	-4404
▁cup	-4405
▁reach	-4406
▁पोस्ट	-4407
▁Jes	-4408
शत	-4409
▁Court	-4410
प्रति	-4411
▁avoid	-4412
द्द	-4413
▁subs	-4414
▁गुण	-4415
यान	-4416
▁towards	-4417
▁तरफ	-4418
▁Prof	-4419
▁एन	-4420
स्स	-4421
ores	-4422
cies	-4423
▁turned	-4424
▁condition	-4425
▁stuff	-4426
ibly	-4427
▁partners	-4428
sych	-4429
lin	-4430
▁economic	-4431
▁David	-4432
▁green	-4433
▁Wed	-4434
▁wood	-4435
▁son	-4436
▁विद्य	-4437
aries	-4438
▁fine	-4439
▁convers	-4440
▁stories	-4441
ube	-4442
”.	-4443
▁dream	-4444
कान	-4445
▁feature	-4446
▁language	-4447
र्मा	-4448
IL	-4449
▁शहर	-4450
ैंड	-4451
▁खबर	-4452
▁multiple	-4453
▁विरो	-4454
▁Street	-4455
orge	-4456
▁collection	-4457
▁released	-4458
▁fell	-4459
ford	-4460
▁looked	-4461
omen	-4462
▁Trans	-4463
▁solution	-4464
ael	-4465
▁विषय	-4466
ancy	-4467
▁IN	-4468
षु	-4469
▁दि	-4470
▁California	-4471
▁individuals	-4472
▁block	-4473
▁ge	-4474
▁परम	-4475
▁तस्य	-4476
▁materials	-4477
▁player	-4478
board	-4479
ivil	-4480
▁progress	-4481
▁aware	-4482
ैल	-4483
rote	-4484
▁तत्	-4485
▁response	-4486
▁vot	-4487
▁device	-4488
▁Ear	-4489
▁हजार	-4490
▁subst	-4491
-4	-4492
▁हे	-4493
▁वाप	-4494
▁capt	-4495
▁कित	-4496
▁copy	-4497
ेदन	-4498
cause	-4499
ications	-4500
▁Met	-4501
ांड	-4502
▁ten	-4503
▁limited	-4504
▁भु	-4505
▁lack	-4506
▁consist	-4507
ुद	-4508
▁restaur	-4509
▁लगी	-4510
▁mis	-4511
वाह	-4512
म्ह	-4513
▁Best	-4514
▁संख्या	-4515
▁पस	-4516
▁लक्ष	-4517
▁सवाल	-4518
▁nation	-4519
▁weekend	-4520
▁Op	-4521
▁Home	-4522
▁Techn	-4523
चान	-4524
aling	-4525
▁states	-4526
▁fix	-4527
▁भाज	-4528
▁analysis	-4529
▁distrib	-4530
▁अधिकारी	-4531
▁hour	-4532
▁Web	-4533
▁करीब	-4534
▁band	-4535
▁pen	-4536
ोक्त	-4537
▁warm	-4538
▁Book	-4539
▁club	-4540
▁AM	-4541
▁certainly	-4542
ength	-4543
▁College	-4544
▁जीत	-4545
▁सुरक्षा	-4546
षण	-4547
▁ऑन	-4548
hington	-4549
itchen	-4550
▁mount	-4551
▁firm	-4552
error	-4553
▁code	-4554
▁28	-4555
▁देखने	-4556
aughter	-4557
▁equipment	-4558
▁message	-4559
▁February	-4560
▁वार	-4561
arily	-4562
▁places	-4563
▁सके	-4564
▁growing	-4565
▁spent	-4566
▁implement	-4567
▁0.	-4568
▁successful	-4569
▁behav	-4570
▁स्थित	-4571
▁concept	-4572
▁carry	-4573
▁स्वास्थ	-4574
▁कुल	-4575
▁expert	-4576
▁पहली	-4577
▁feeling	-4578
▁complex	-4579
▁achieve	-4580
▁employees	-4581
▁Mod	-4582
यति	-4583
▁gold	-4584
▁26	-4585
▁शुरु	-4586
▁interested	-4587
▁जम	-4588
शु	-4589
▁Paul	-4590
zz	-4591
ald	-4592
बन्ध	-4593
▁Del	-4594
▁adult	-4595
▁कोशिश	-4596
▁race	-4597
▁लगता	-4598
vant	-4599
▁effects	-4600
oming	-4601
▁farm	-4602
▁Thurs	-4603
▁effort	-4604
▁dro	-4605
▁finally	-4606
प्य	-4607
uate	-4608
▁correct	-4609
sp	-4610
AP	-4611
▁Service	-4612
antly	-4613
▁neigh	-4614
izes	-4615
▁यही	-4616
▁trip	-4617
erved	-4618
▁आपका	-4619
▁नेता	-4620
▁college	-4621
▁birth	-4622
्सा	-4623
ida	-4624
ography	-4625
▁नम	-4626
rast	-4627
vin	-4628
▁Great	-4629
▁रे	-4630
▁regul	-4631
sequ	-4632
ंगा	-4633
▁regist	-4634
▁developed	-4635
वरी	-4636
▁Tues	-4637
▁Rem	-4638
▁spot	-4639
raft	-4640
▁previous	-4641
▁exerc	-4642
field	-4643
धे	-4644
▁respond	-4645
▁उपलब्ध	-4646
16	-4647
▁निर्देश	-4648
नो	-4649
▁कहना	-4650
▁advant	-4651
▁197	-4652
▁wife	-4653
▁iP	-4654
▁ded	-4655
ूब	-4656
▁Click	-4657
arden	-4658
▁भूम	-4659
▁II	-4660
▁bag	-4661
het	-4662
▁According	-4663
▁See	-4664
▁प्रस	-4665
nds	-4666
▁promot	-4667
▁feet	-4668
mas	-4669
▁fully	-4670
ृत्य	-4671
▁exactly	-4672
▁lic	-4673
mitted	-4674
ेशा	-4675
▁फैस	-4676
▁Mor	-4677
anch	-4678
▁Ass	-4679
ित्या	-4680
ocr	-4681
▁photos	-4682
▁मेरा	-4683
▁Good	-4684
▁imag	-4685
▁नर	-4686
▁businesses	-4687
▁Japan	-4688
▁innov	-4689
▁moving	-4690
▁खान	-4691
rences	-4692
▁Jack	-4693
▁planning	-4694
▁bra	-4695
▁stress	-4696
▁शेयर	-4697
▁मौत	-4698
▁प्रया	-4699
▁उत	-4700
▁wants	-4701
▁स्वास्थ्य	-4702
▁threat	-4703
▁भवति	-4704
▁2015	-4705
▁Sub	-4706
▁जाएगी	-4707
wor	-4708
▁nearly	-4709
▁Washington	-4710
▁tried	-4711
uted	-4712
ंदिर	-4713
▁eat	-4714
रों	-4715
pm	-4716
oul	-4717
ares	-4718
▁traditional	-4719
▁activity	-4720
mark	-4721
▁altern	-4722
▁demand	-4723
ेतु	-4724
ION	-4725
▁evidence	-4726
▁पक्ष	-4727
▁stage	-4728
▁mat	-4729
▁deliver	-4730
▁impress	-4731
▁भाजपा	-4732
itable	-4733
▁White	-4734
बार	-4735
▁उद	-4736
▁गुरु	-4737
olute	-4738
▁kn	-4739
▁आग	-4740
▁Although	-4741
▁थो	-4742
▁healthy	-4743
▁obtain	-4744
्रेड	-4745
▁Play	-4746
▁families	-4747
▁paid	-4748
▁wel	-4749
▁लाइ	-4750
▁organiz	-4751
▁goals	-4752
्कि	-4753
▁prices	-4754
bum	-4755
duc	-4756
▁hous	-4757
ेषु	-4758
▁independ	-4759
▁sen	-4760
▁disease	-4761
more	-4762
▁tick	-4763
▁लगभग	-4764
▁East	-4765
▁ult	-4766
▁prem	-4767
▁schools	-4768
▁pressure	-4769
िकल	-4770
ruit	-4771
▁emot	-4772
▁beginning	-4773
▁Thursday	-4774
लब	-4775
▁शादी	-4776
▁Indian	-4777
▁पूरे	-4778
▁creating	-4779
▁शी	-4780
13	-4781
▁excellent	-4782
▁culture	-4783
▁difference	-4784
▁Russ	-4785
unk	-4786
▁वक्त	-4787
▁purpose	-4788
oly	-4789
▁accom	-4790
▁बाजार	-4791
▁histor	-4792
lied	-4793
▁inform	-4794
▁Cle	-4795
▁picture	-4796
vis	-4797
▁लि	-4798
▁acqu	-4799
▁उत्पाद	-4800
▁maybe	-4801
vest	-4802
ords	-4803
▁जिसे	-4804
▁Tuesday	-4805
▁शिक्षा	-4806
▁£	-4807
PS	-4808
▁मी	-4809
▁इंटर	-4810
▁fat	-4811
राज	-4812
▁दृष्ट	-4813
ibrary	-4814
यम	-4815
▁budget	-4816
:30	-4817
विध	-4818
पाल	-4819
▁dress	-4820
down	-4821
▁27	-4822
श्म	-4823
▁Ir	-4824
▁Dist	-4825
arant	-4826
▁नही	-4827
example	-4828
chan	-4829
▁Green	-4830
ying	-4831
▁ter	-4832
ेंड	-4833
▁announced	-4834
त्ति	-4835
क्य	-4836
▁prot	-4837
▁Work	-4838
▁तस्म	-4839
▁Wednes	-4840
▁straight	-4841
▁wish	-4842
▁५	-4843
rows	-4844
▁consult	-4845
indi	-4846
▁बच्चे	-4847
▁Last	-4848
▁shoot	-4849
▁analy	-4850
▁लिये	-4851
▁राष्ट्र	-4852
ategy	-4853
rench	-4854
▁occur	-4855
▁dire	-4856
▁understanding	-4857
▁Pal	-4858
▁gas	-4859
▁देता	-4860
विधा	-4861
▁कोर्ट	-4862
ato	-4863
wide	-4864
▁ठीक	-4865
▁sort	-4866
▁राजनीति	-4867
▁instru	-4868
▁मध्य	-4869
▁demon	-4870
पन	-4871
▁spirit	-4872
साइट	-4873
▁floor	-4874
▁frequ	-4875
▁alone	-4876
▁region	-4877
▁dog	-4878
▁किस	-4879
▁पुरुष	-4880
▁अस्प	-4881
▁wrote	-4882
▁कहते	-4883
▁hop	-4884
▁opportunities	-4885
▁फल	-4886
▁teams	-4887
ताबिक	-4888
▁talking	-4889
▁strateg	-4890
ager	-4891
▁प्य	-4892
▁80	-4893
▁particularly	-4894
▁rent	-4895
▁खरीद	-4896
▁Services	-4897
▁सोच	-4898
▁dry	-4899
BC	-4900
asc	-4901
amm	-4902
नाथ	-4903
दर्श	-4904
▁मुताबिक	-4905
venue	-4906
▁रोज	-4907
▁प्रक	-4908
estern	-4909
▁thous	-4910
▁relig	-4911
▁महीने	-4912
▁Jesus	-4913
▁images	-4914
orage	-4915
▁billion	-4916
▁shot	-4917
▁solutions	-4918
पे	-4919
▁reports	-4920
▁अभि	-4921
▁earlier	-4922
▁पिता	-4923
▁aim	-4924
atever	-4925
▁beyond	-4926
reed	-4927
नीय	-4928
▁@	-4929
isc	-4930
18	-4931
▁heat	-4932
AD	-4933
▁appropri	-4934
▁स्तर	-4935
▁सफल	-4936
▁गल	-4937
ाः	-4938
▁investment	-4939
▁Pri	-4940
▁cert	-4941
▁बल्कि	-4942
rael	-4943
▁ऊपर	-4944
▁Bel	-4945
▁title	-4946
14	-4947
ार्ट	-4948
▁enh	-4949
▁director	-4950
▁applications	-4951
▁wait	-4952
▁घोष	-4953
hest	-4954
inner	-4955
▁sale	-4956
▁छोट	-4957
▁increased	-4958
▁ver	-4959
नाम	-4960
णे	-4961
▁charge	-4962
▁पांच	-4963
undred	-4964
reci	-4965
ocol	-4966
▁temper	-4967
gen	-4968
▁नीचे	-4969
▁Republic	-4970
▁Wednesday	-4971
▁apart	-4972
ronic	-4973
सू	-4974
▁benefit	-4975
ashion	-4976
▁Program	-4977
▁दू	-4978
ya	-4979
▁Whe	-4980
▁होंगे	-4981
▁whose	-4982
▁विकल्प	-4983
म्भ	-4984
▁baby	-4985
▁Super	-4986
▁पेश	-4987
▁कार्ड	-4988
▁increasing	-4989
▁meaning	-4990
ipping	-4991
▁फोन	-4992
▁Tex	-4993
-19	-4994
▁doub	-4995
कं	-4996
▁assess	-4997
▁award	-4998
न्तु	-4999
▁रोक	-5000
imin	-5001
▁Inter	-5002
▁overall	-5003
▁fem	-5004
्यास	-5005
▁निर्माण	-5006
▁व्यापार	-5007
▁uses	-5008
र्द	-5009
▁Today	-5010
तं	-5011
▁roll	-5012
▁Internet	-5013
▁commercial	-5014
▁candid	-5015
▁निवेश	-5016
▁www	-5017
▁definitely	-5018
▁Oh	-5019
▁Gold	-5020
▁requirements	-5021
▁trade	-5022
▁James	-5023
▁Because	-5024
ils	-5025
▁System	-5026
ears	-5027
▁grand	-5028
▁Found	-5029
▁सदस्य	-5030
TM	-5031
ault	-5032
▁रखा	-5033
▁हमारी	-5034
▁rock	-5035
गल	-5036
▁opin	-5037
▁Market	-5038
▁immediately	-5039
▁Research	-5040
▁Cong	-5041
▁comments	-5042
▁fans	-5043
▁voice	-5044
▁smart	-5045
▁संग	-5046
▁doll	-5047
▁Ty	-5048
ously	-5049
▁load	-5050
र्चा	-5051
▁serious	-5052
▁middle	-5053
isf	-5054
change	-5055
▁लेख	-5056
OM	-5057
त्वाद	-5058
मति	-5059
▁surv	-5060
क्शन	-5061
ाउन	-5062
▁advert	-5063
▁Down	-5064
म्प	-5065
lock	-5066
▁numbers	-5067
ew	-5068
िश्च	-5069
▁उच्च	-5070
▁statement	-5071
aled	-5072
▁although	-5073
ancing	-5074
▁तुम्ह	-5075
dom	-5076
▁rates	-5077
▁seven	-5078
▁विभिन्न	-5079
▁ऑनलाइन	-5080
▁extend	-5081
▁allowed	-5082
▁normal	-5083
▁pet	-5084
ecutive	-5085
▁IS	-5086
edding	-5087
▁offered	-5088
नां	-5089
▁nut	-5090
▁Each	-5091
▁advice	-5092
▁proced	-5093
भेद	-5094
▁तौर	-5095
▁capital	-5096
-5	-5097
▁serve	-5098
▁समर्थ	-5099
▁मिली	-5100
▁und	-5101
ापि	-5102
▁shown	-5103
▁Port	-5104
▁Develop	-5105
▁pattern	-5106
▁strugg	-5107
olf	-5108
▁glass	-5109
ffee	-5110
▁couldn	-5111
▁remain	-5112
▁changed	-5113
▁दूसरी	-5114
force	-5115
▁दल	-5116
▁Design	-5117
▁internet	-5118
▁Ret	-5119
▁liter	-5120
▁Ant	-5121
▁eight	-5122
ातार	-5123
▁Check	-5124
0.	-5125
▁Educ	-5126
▁धन	-5127
ounds	-5128
▁Cr	-5129
▁den	-5130
र्य	-5131
▁clin	-5132
▁categ	-5133
▁owners	-5134
omb	-5135
▁वेबसाइट	-5136
▁महत्वपूर्ण	-5137
itiz	-5138
▁force	-5139
▁happened	-5140
▁photo	-5141
▁degree	-5142
लाई	-5143
▁church	-5144
▁पाकिस्तान	-5145
रीज	-5146
▁cash	-5147
▁scient	-5148
▁active	-5149
la	-5150
▁Hot	-5151
▁prefer	-5152
urning	-5153
rial	-5154
▁लाग	-5155
etic	-5156
स्ताव	-5157
▁Mac	-5158
▁mer	-5159
▁supply	-5160
▁पीछ	-5161
▁शो	-5162
▁नाग	-5163
▁पाठ	-5164
▁Like	-5165
▁max	-5166
▁corpor	-5167
▁Av	-5168
▁Council	-5169
▁moved	-5170
▁rules	-5171
िष्ट	-5172
▁quarter	-5173
्ता	-5174
▁बर	-5175
▁मोब	-5176
▁पैसे	-5177
वाब	-5178
▁बज	-5179
▁reasons	-5180
▁loved	-5181
▁Mem	-5182
▁जरूरत	-5183
्वा	-5184
▁lik	-5185
▁gar	-5186
▁military	-5187
ास्तव	-5188
▁join	-5189
▁basis	-5190
You	-5191
▁Canada	-5192
▁एक्स	-5193
▁प्रकाश	-5194
▁truly	-5195
icate	-5196
▁reduce	-5197
▁Rich	-5198
भर	-5199
▁People	-5200
bon	-5201
▁जन्म	-5202
isl	-5203
द्धि	-5204
▁Israel	-5205
▁Rel	-5206
▁associated	-5207
▁hus	-5208
▁aspect	-5209
▁cancer	-5210
IG	-5211
▁machine	-5212
▁रखने	-5213
पक्ष	-5214
ties	-5215
▁2009	-5216
▁मात्र	-5217
▁Association	-5218
▁वायर	-5219
ॉप	-5220
▁Board	-5221
set	-5222
▁European	-5223
▁federal	-5224
nded	-5225
▁मौजूद	-5226
▁reflect	-5227
▁6.	-5228
▁challenge	-5229
▁damage	-5230
pa	-5231
▁fra	-5232
inger	-5233
▁Office	-5234
order	-5235
▁cold	-5236
▁Make	-5237
vision	-5238
que	-5239
▁खास	-5240
▁ing	-5241
▁album	-5242
▁construction	-5243
▁बोल	-5244
This	-5245
istry	-5246
▁सुबह	-5247
▁patient	-5248
▁Phot	-5249
▁studies	-5250
▁pow	-5251
▁About	-5252
useum	-5253
▁काल	-5254
hi	-5255
▁Company	-5256
▁पक	-5257
iling	-5258
well	-5259
▁परीक्षा	-5260
त्वेन	-5261
ड़क	-5262
▁Michael	-5263
▁अं	-5264
▁बिज	-5265
ago	-5266
▁मंदिर	-5267
▁essential	-5268
▁Bank	-5269
▁ble	-5270
house	-5271
▁science	-5272
▁हमेशा	-5273
▁Review	-5274
▁सप्त	-5275
ooth	-5276
▁90	-5277
He	-5278
▁लाल	-5279
िन्	-5280
45	-5281
rapy	-5282
▁helped	-5283
▁easier	-5284
▁जनता	-5285
▁guide	-5286
▁lines	-5287
▁ST	-5288
ज्ज	-5289
▁During	-5290
▁Christmas	-5291
▁पाल	-5292
▁Sol	-5293
▁devices	-5294
▁profession	-5295
▁ahead	-5296
▁द्र	-5297
▁मंत्र	-5298
OL	-5299
▁महा	-5300
▁Thanks	-5301
▁Hall	-5302
▁Spr	-5303
500	-5304
▁hundred	-5305
▁निकल	-5306
▁शुरुआ	-5307
▁responsible	-5308
द्या	-5309
▁Use	-5310
▁cru	-5311
orrow	-5312
एल	-5313
▁aren	-5314
िनी	-5315
amic	-5316
22	-5317
▁नंबर	-5318
ss	-5319
▁perhaps	-5320
▁poor	-5321
▁घंट	-5322
ताव	-5323
▁partner	-5324
▁Ange	-5325
▁लगातार	-5326
▁basic	-5327
▁jobs	-5328
▁कीमत	-5329
▁attract	-5330
▁70	-5331
17	-5332
्ये	-5333
▁सूर	-5334
▁greater	-5335
▁vehicle	-5336
▁absolute	-5337
▁Sur	-5338
icip	-5339
▁चुके	-5340
iny	-5341
▁Rec	-5342
▁बेहतर	-5343
▁Sam	-5344
▁Yes	-5345
▁प्ल	-5346
▁gone	-5347
▁2008	-5348
त्वे	-5349
▁pages	-5350
▁Top	-5351
▁sust	-5352
▁measure	-5353
▁guy	-5354
ल्ले	-5355
▁dang	-5356
▁डे	-5357
▁जिले	-5358
▁spread	-5359
▁सुविधा	-5360
बाद	-5361
विष्य	-5362
▁miles	-5363
▁Loc	-5364
arc	-5365
▁प्रमुख	-5366
CC	-5367
▁contain	-5368
▁brother	-5369
ृश	-5370
▁Texas	-5371
▁efforts	-5372
▁wonderful	-5373
▁साध	-5374
Ch	-5375
osing	-5376
▁powerful	-5377
▁यहाँ	-5378
rief	-5379
▁produce	-5380
▁Sk	-5381
ष्प	-5382
▁Public	-5383
▁Bill	-5384
IV	-5385
▁wild	-5386
▁प्रयास	-5387
▁नार	-5388
itect	-5389
▁decl	-5390
iment	-5391
iant	-5392
ग्री	-5393
▁double	-5394
▁appreci	-5395
▁cry	-5396
▁प्रयोग	-5397
▁sports	-5398
itude	-5399
ट्ट	-5400
वृत्त	-5401
▁29	-5402
▁transport	-5403
▁notice	-5404
▁largest	-5405
▁guys	-5406
▁पसंद	-5407
▁तेज	-5408
▁ड्र	-5409
▁स्थाप	-5410
▁hotel	-5411
cul	-5412
▁एम	-5413
▁Bre	-5414
▁served	-5415
istics	-5416
▁Church	-5417
▁सोशल	-5418
▁offering	-5419
▁sym	-5420
ुम	-5421
हास	-5422
▁मोबाइल	-5423
तन	-5424
coming	-5425
▁transfer	-5426
▁bill	-5427
▁६	-5428
▁strategy	-5429
▁faith	-5430
▁stick	-5431
▁surround	-5432
▁girls	-5433
िकेट	-5434
▁client	-5435
▁followed	-5436
▁surface	-5437
▁Apple	-5438
्वर	-5439
▁बैठक	-5440
IP	-5441
▁accur	-5442
ourney	-5443
▁named	-5444
्वी	-5445
▁Big	-5446
▁British	-5447
▁peace	-5448
▁Ev	-5449
▁annual	-5450
▁तम	-5451
▁जाये	-5452
olic	-5453
▁हार	-5454
▁बजे	-5455
▁General	-5456
▁Bra	-5457
▁bottom	-5458
ाद्य	-5459
ken	-5460
▁steps	-5461
▁chem	-5462
▁star	-5463
atively	-5464
▁यादव	-5465
▁प्रदर्शन	-5466
▁कहीं	-5467
▁lock	-5468
▁रंग	-5469
िक्ष	-5470
ूह	-5471
eds	-5472
hips	-5473
see	-5474
▁kitchen	-5475
▁hospital	-5476
लि	-5477
कर्म	-5478
ाम्	-5479
▁संघ	-5480
▁Rom	-5481
▁विदेश	-5482
▁माह	-5483
▁196	-5484
▁Ann	-5485
▁Look	-5486
▁पति	-5487
▁delivery	-5488
▁occas	-5489
▁lots	-5490
▁shop	-5491
▁देना	-5492
▁जीव	-5493
हरा	-5494
ico	-5495
▁राष्ट्रीय	-5496
बोध	-5497
▁Christian	-5498
▁extremely	-5499
____	-5500
▁slight	-5501
शब्द	-5502
▁frame	-5503
▁compon	-5504
ston	-5505
▁adjust	-5506
▁helping	-5507
▁expand	-5508
friend	-5509
▁Cur	-5510
▁सूत्र	-5511
▁trou	-5512
▁गति	-5513
▁born	-5514
ero	-5515
डा	-5516
▁Flor	-5517
care	-5518
ifying	-5519
▁strength	-5520
▁जे	-5521
▁society	-5522
▁fab	-5523
▁गांधी	-5524
▁Who	-5525
▁Micro	-5526
rupt	-5527
▁blue	-5528
▁compared	-5529
hens	-5530
apter	-5531
ulf	-5532
place	-5533
▁workers	-5534
प्प	-5535
ustr	-5536
▁Life	-5537
▁regarding	-5538
अल	-5539
▁दर्श	-5540
▁बनाया	-5541
▁विरोध	-5542
्रम	-5543
▁ताकि	-5544
▁train	-5545
क्सी	-5546
90	-5547
term	-5548
akers	-5549
inated	-5550
▁setting	-5551
▁थीं	-5552
▁husband	-5553
▁परेश	-5554
acity	-5555
encies	-5556
नेन	-5557
र्प	-5558
क्षिण	-5559
▁movement	-5560
ports	-5561
leg	-5562
▁pictures	-5563
▁clot	-5564
▁Class	-5565
oos	-5566
▁brain	-5567
▁cast	-5568
▁obv	-5569
▁income	-5570
▁truth	-5571
▁इतना	-5572
▁letter	-5573
ोम	-5574
▁finish	-5575
▁eval	-5576
▁Two	-5577
▁Mart	-5578
षि	-5579
▁उम	-5580
▁Another	-5581
▁गृह	-5582
▁opening	-5583
त्नी	-5584
ij	-5585
▁Australia	-5586
▁Hel	-5587
▁weather	-5588
▁Online	-5589
▁सामान्य	-5590
▁Twitter	-5591
▁continued	-5592
roid	-5593
LE	-5594
▁35	-5595
gn	-5596
▁पीछे	-5597
ady	-5598
▁appoint	-5599
▁collabor	-5600
▁Vis	-5601
▁breat	-5602
▁length	-5603
▁Lear	-5604
▁seeing	-5605
▁प्रक्रिया	-5606
▁virt	-5607
▁मजब	-5608
ech	-5609
▁Under	-5610
▁Find	-5611
▁repe	-5612
▁Windows	-5613
▁cho	-5614
▁fant	-5615
▁kept	-5616
▁finished	-5617
▁अंदर	-5618
एन	-5619
▁लिखा	-5620
anging	-5621
35	-5622
▁protection	-5623
▁पंच	-5624
▁IT	-5625
▁sweet	-5626
75	-5627
usion	-5628
▁विधान	-5629
▁French	-5630
▁भाई	-5631
▁Mag	-5632
▁Time	-5633
▁अस्पताल	-5634
▁pros	-5635
▁compl	-5636
▁जवाब	-5637
▁structure	-5638
▁मिश	-5639
▁learned	-5640
ologies	-5641
▁nove	-5642
▁satisf	-5643
गार	-5644
lying	-5645
▁population	-5646
phone	-5647
▁generally	-5648
dule	-5649
▁डि	-5650
asy	-5651
▁Director	-5652
imal	-5653
▁Sa	-5654
ोह	-5655
▁Obama	-5656
▁existing	-5657
▁Sun	-5658
▁replace	-5659
नं	-5660
▁Sing	-5661
▁appropriate	-5662
िली	-5663
▁boy	-5664
▁suff	-5665
कम	-5666
▁arr	-5667
▁Rob	-5668
नेट	-5669
▁धार	-5670
▁इल	-5671
aming	-5672
iced	-5673
▁characters	-5674
▁larger	-5675
▁राशि	-5676
▁gift	-5677
▁लें	-5678
रं	-5679
rem	-5680
▁रुपए	-5681
▁OF	-5682
साय	-5683
▁अफ	-5684
▁continu	-5685
▁Plan	-5686
▁Thom	-5687
▁camera	-5688
िणाम	-5689
्यां	-5690
▁vill	-5691
▁मास	-5692
▁निकाल	-5693
▁wat	-5694
जेपी	-5695
▁चुन	-5696
▁2,	-5697
▁thank	-5698
▁primary	-5699
ym	-5700
▁Mary	-5701
र्वा	-5702
▁सुख	-5703
▁afford	-5704
▁initi	-5705
▁Road	-5706
▁bath	-5707
▁सूचना	-5708
▁payment	-5709
▁उद्	-5710
raw	-5711
rig	-5712
लर	-5713
▁नगर	-5714
▁रहते	-5715
-8	-5716
▁economy	-5717
imb	-5718
▁Lord	-5719
icine	-5720
▁esc	-5721
▁experienced	-5722
pective	-5723
त्ते	-5724
▁guarant	-5725
▁figure	-5726
▁disapp	-5727
▁7.	-5728
▁pieces	-5729
िम्म	-5730
?"	-5731
▁PC	-5732
IM	-5733
▁anti	-5734
▁incred	-5735
▁आख	-5736
▁Fam	-5737
▁Thank	-5738
iled	-5739
चि	-5740
▁drug	-5741
▁critical	-5742
▁शर्मा	-5743
▁सोम	-5744
▁knows	-5745
▁View	-5746
▁Care	-5747
▁चिक	-5748
▁hom	-5749
DA	-5750
nding	-5751
▁सांस	-5752
▁आवश्यकता	-5753
भूत	-5754
चाल	-5755
▁established	-5756
▁audience	-5757
▁लौ	-5758
▁passed	-5759
▁biggest	-5760
eria	-5761
▁advantage	-5762
▁useful	-5763
▁entertain	-5764
▁background	-5765
▁adop	-5766
▁Cam	-5767
▁तरीके	-5768
व्या	-5769
▁हमने	-5770
using	-5771
lies	-5772
▁भविष्य	-5773
▁reb	-5774
▁psych	-5775
▁यात्रा	-5776
▁plus	-5777
unte	-5778
ुड	-5779
▁onto	-5780
▁Dec	-5781
▁reviews	-5782
त्थ	-5783
▁demonstr	-5784
ंख	-5785
▁Det	-5786
▁leader	-5787
▁Have	-5788
▁gun	-5789
-6	-5790
न्व	-5791
.’	-5792
▁वेद	-5793
udd	-5794
▁mission	-5795
▁ir	-5796
▁अंतर	-5797
▁Back	-5798
▁homes	-5799
प्त	-5800
पाद	-5801
lands	-5802
▁गं	-5803
▁PR	-5804
za	-5805
▁harm	-5806
▁creative	-5807
rey	-5808
▁Hum	-5809
▁wear	-5810
▁status	-5811
▁reality	-5812
▁सहित	-5813
▁चुकी	-5814
▁bow	-5815
▁driving	-5816
▁electric	-5817
▁toward	-5818
▁therefore	-5819
▁comfortable	-5820
▁Win	-5821
मता	-5822
▁Club	-5823
▁haven	-5824
▁Jer	-5825
▁Hist	-5826
▁गये	-5827
▁पश्च	-5828
▁इंडिया	-5829
▁mechan	-5830
ampions	-5831
▁परिव	-5832
▁storage	-5833
▁Child	-5834
▁प्रतिशत	-5835
न्ना	-5836
▁heavy	-5837
▁organizations	-5838
”,	-5839
▁उसी	-5840
▁प्ले	-5841
▁fear	-5842
▁युवा	-5843
▁methods	-5844
▁अद	-5845
▁requires	-5846
▁daughter	-5847
तीति	-5848
▁Step	-5849
▁अर	-5850
▁beg	-5851
▁कौन	-5852
▁500	-5853
ुं	-5854
गढ़	-5855
▁actual	-5856
last	-5857
ado	-5858
टन	-5859
EM	-5860
▁सरकारी	-5861
▁मध	-5862
▁unit	-5863
ipped	-5864
▁Miss	-5865
▁किं	-5866
24	-5867
▁Tom	-5868
स्ति	-5869
▁जिन्ह	-5870
▁AP	-5871
▁wouldn	-5872
▁connection	-5873
▁मू	-5874
ios	-5875
▁Ben	-5876
riage	-5877
annel	-5878
▁Jew	-5879
▁calls	-5880
िन्न	-5881
200	-5882
▁mist	-5883
azon	-5884
▁उठा	-5885
▁Matt	-5886
▁older	-5887
▁फॉ	-5888
▁guid	-5889
▁प्रमाण	-5890
▁सार	-5891
भिः	-5892
▁एक्ट	-5893
OW	-5894
▁Sal	-5895
▁Commission	-5896
▁व्यवस्था	-5897
ona	-5898
▁सत्य	-5899
press	-5900
▁देर	-5901
▁highest	-5902
▁प्यार	-5903
▁Ins	-5904
▁finding	-5905
▁util	-5906
▁नोट	-5907
▁चीज	-5908
sey	-5909
gal	-5910
▁govern	-5911
▁establish	-5912
▁मिलने	-5913
फर	-5914
▁conference	-5915
ष्क	-5916
men	-5917
▁Phil	-5918
▁colle	-5919
aven	-5920
rees	-5921
▁फाय	-5922
ae	-5923
▁models	-5924
ker	-5925
▁मिन	-5926
▁origin	-5927
rowd	-5928
vere	-5929
▁बीजेपी	-5930
▁completed	-5931
▁तस्व	-5932
▁Rock	-5933
▁factors	-5934
▁खे	-5935
roud	-5936
▁tend	-5937
विशेष	-5938
▁views	-5939
टक	-5940
▁कमी	-5941
▁died	-5942
porary	-5943
soft	-5944
rab	-5945
▁Where	-5946
▁exhib	-5947
तया	-5948
▁Education	-5949
▁बने	-5950
क़	-5951
▁Bay	-5952
▁shared	-5953
▁चर्चा	-5954
unately	-5955
ोस	-5956
ील	-5957
▁civil	-5958
estival	-5959
▁Love	-5960
▁Pet	-5961
▁cells	-5962
▁stream	-5963
स्कार	-5964
▁pray	-5965
▁fan	-5966
ading	-5967
▁produced	-5968
▁manufacture	-5969
▁whatever	-5970
RA	-5971
द्योग	-5972
▁scene	-5973
▁नया	-5974
▁sto	-5975
iques	-5976
टल	-5977
रम	-5978
न्ते	-5979
▁journey	-5980
▁Sl	-5981
▁challenges	-5982
▁Ber	-5983
▁names	-5984
▁वी	-5985
▁traffic	-5986
▁देखते	-5987
▁secret	-5988
कृ	-5989
▁doctor	-5990
itar	-5991
▁पुत्र	-5992
inese	-5993
atically	-5994
ander	-5995
▁meant	-5996
▁पञ्च	-5997
▁Press	-5998
▁रेल	-5999
▁refer	-6000
▁वाह	-6001
works	-6002
▁वर्त	-6003
िटी	-6004
▁pool	-6005
▁century	-6006
▁academ	-6007
▁tips	-6008
ांग	-6009
▁remind	-6010
rian	-6011
ड़ों	-6012
▁tom	-6013
▁earth	-6014
ॉक	-6015
▁retail	-6016
ितं	-6017
▁runs	-6018
▁diet	-6019
▁वास्तव	-6020
itors	-6021
▁माना	-6022
▁Pay	-6023
लेज	-6024
ervation	-6025
▁owner	-6026
▁गिरफ्त	-6027
▁resist	-6028
▁mill	-6029
▁communities	-6030
▁Camp	-6031
▁युव	-6032
एफ	-6033
ूं	-6034
▁अप्र	-6035
▁coffee	-6036
▁drop	-6037
▁parties	-6038
कृत	-6039
▁Institute	-6040
ाचार	-6041
▁Water	-6042
▁रव	-6043
▁रोग	-6044
▁prec	-6045
oyal	-6046
orial	-6047
▁happens	-6048
▁placed	-6049
ses	-6050
▁तुल	-6051
▁cards	-6052
uty	-6053
umn	-6054
▁Management	-6055
▁files	-6056
itness	-6057
▁Florida	-6058
▁har	-6059
asure	-6060
acing	-6061
▁पाए	-6062
▁आता	-6063
gment	-6064
▁तस्वीर	-6065
TS	-6066
▁Str	-6067
▁प्रभ	-6068
▁manage	-6069
ियल	-6070
▁Sum	-6071
log	-6072
▁अख	-6073
▁अभिय	-6074
▁साइ	-6075
▁वापस	-6076
▁score	-6077
▁thanks	-6078
entially	-6079
▁experiences	-6080
▁आदेश	-6081
▁claims	-6082
▁31	-6083
▁scen	-6084
▁Cap	-6085
▁Bet	-6086
▁बहु	-6087
▁रिक	-6088
▁master	-6089
iation	-6090
▁manager	-6091
▁Dig	-6092
box	-6093
▁covered	-6094
▁आन	-6095
osure	-6096
▁evening	-6097
▁Information	-6098
iller	-6099
▁वन	-6100
icks	-6101
गुण	-6102
▁waiting	-6103
▁standards	-6104
▁अंग	-6105
▁अत	-6106
text	-6107
▁lands	-6108
ंभ	-6109
▁जय	-6110
ायल	-6111
▁अच्छे	-6112
▁रन	-6113
▁चतु	-6114
ात्मक	-6115
▁ग्राह	-6116
▁ton	-6117
▁Congress	-6118
cript	-6119
▁वही	-6120
ठन	-6121
▁Lou	-6122
▁Mal	-6123
▁limit	-6124
▁Fore	-6125
▁बनाए	-6126
▁rare	-6127
BS	-6128
भीर	-6129
ङ्क	-6130
▁memory	-6131
▁argu	-6132
ायद	-6133
▁Call	-6134
▁पत्नी	-6135
▁fashion	-6136
▁बिहार	-6137
▁remains	-6138
▁rob	-6139
▁secure	-6140
डे	-6141
▁becomes	-6142
enses	-6143
▁balance	-6144
23	-6145
▁Att	-6146
▁भगवान	-6147
▁वित्त	-6148
ota	-6149
olly	-6150
▁lose	-6151
UR	-6152
वर्	-6153
▁showed	-6154
केट	-6155
▁England	-6156
▁Form	-6157
▁USA	-6158
▁Power	-6159
▁selection	-6160
oe	-6161
▁batter	-6162
▁wedding	-6163
▁Vir	-6164
▁elements	-6165
▁Social	-6166
standing	-6167
करी	-6168
**	-6169
▁street	-6170
▁Open	-6171
vention	-6172
▁keeping	-6173
▁कार्र	-6174
▁खो	-6175
▁अधिकारियों	-6176
▁window	-6177
▁हास	-6178
ipe	-6179
look	-6180
▁solid	-6181
",	-6182
अप	-6183
lig	-6184
▁अवसर	-6185
▁citiz	-6186
NA	-6187
ितः	-6188
▁competition	-6189
hem	-6190
▁fish	-6191
▁किसानों	-6192
▁links	-6193
▁described	-6194
▁communication	-6195
▁Take	-6196
▁operations	-6197
▁Year	-6198
▁mentioned	-6199
▁vs	-6200
semb	-6201
▁launch	-6202
▁अत्र	-6203
तिम	-6204
▁जानते	-6205
▁spring	-6206
▁पूर्ण	-6207
▁earn	-6208
▁Mil	-6209
hy	-6210
▁हेतु	-6211
▁passion	-6212
▁foreign	-6213
▁लगाया	-6214
▁राय	-6215
▁grant	-6216
▁जित	-6217
▁चलते	-6218
ाद्	-6219
▁monitor	-6220
▁guess	-6221
ads	-6222
▁central	-6223
▁मामला	-6224
रिक्त	-6225
धर	-6226
र्श	-6227
▁legisl	-6228
overy	-6229
▁आवेदन	-6230
know	-6231
▁forms	-6232
▁Hindi	-6233
▁flav	-6234
▁continues	-6235
▁presented	-6236
odes	-6237
ki	-6238
anta	-6239
▁relax	-6240
▁coach	-6241
▁prepared	-6242
ula	-6243
fast	-6244
▁tim	-6245
▁Smith	-6246
▁बयान	-6247
▁Profess	-6248
▁River	-6249
▁determine	-6250
▁कमा	-6251
bed	-6252
▁सारे	-6253
▁opened	-6254
▁developing	-6255
▁जाय	-6256
▁teaching	-6257
▁matt	-6258
▁कार्रवाई	-6259
▁Their	-6260
▁exercise	-6261
▁Alex	-6262
▁station	-6263
▁Star	-6264
▁एत	-6265
▁videos	-6266
▁senior	-6267
▁Commit	-6268
miss	-6269
▁funds	-6270
▁ideal	-6271
▁beat	-6272
▁क्रिकेट	-6273
▁rap	-6274
▁clearly	-6275
ेप	-6276
ल्ल	-6277
ka	-6278
yer	-6279
पूर्व	-6280
▁officials	-6281
▁eth	-6282
apers	-6283
▁TO	-6284
▁forget	-6285
gency	-6286
▁gain	-6287
azine	-6288
▁चा	-6289
▁seemed	-6290
▁ष	-6291
▁direction	-6292
▁technical	-6293
▁counter	-6294
▁जल्द	-6295
▁दौ	-6296
▁Vol	-6297
▁प्रथम	-6298
▁जरूरी	-6299
▁संभाव	-6300
▁शुरुआत	-6301
▁दश	-6302
▁45	-6303
▁सीट	-6304
▁पृथ	-6305
ented	-6306
free	-6307
स्त्र	-6308
▁luck	-6309
▁rich	-6310
▁2021	-6311
osis	-6312
▁thousands	-6313
▁तेन	-6314
▁reli	-6315
गो	-6316
▁session	-6317
▁महिलाओं	-6318
▁फर	-6319
▁loan	-6320
▁estate	-6321
▁jump	-6322
▁impl	-6323
▁majority	-6324
▁क्लिक	-6325
▁becoming	-6326
▁plenty	-6327
दु	-6328
▁पेट	-6329
▁करो	-6330
वत्	-6331
▁wine	-6332
IA	-6333
▁journal	-6334
▁कहानी	-6335
▁तय	-6336
▁trial	-6337
▁Chic	-6338
▁होकर	-6339
च्य	-6340
▁unc	-6341
▁Government	-6342
▁epis	-6343
▁ingred	-6344
ctors	-6345
▁गण	-6346
ांति	-6347
▁boo	-6348
▁धी	-6349
▁paint	-6350
▁George	-6351
▁fol	-6352
▁Sil	-6353
▁विन	-6354
▁पड़े	-6355
▁डिज	-6356
▁Chinese	-6357
▁मौके	-6358
▁2007	-6359
▁spending	-6360
▁testing	-6361
▁furn	-6362
ंश	-6363
▁watching	-6364
हे	-6365
▁posted	-6366
▁भेज	-6367
▁polic	-6368
▁caused	-6369
mail	-6370
▁exclus	-6371
भार	-6372
▁Custom	-6373
▁Ve	-6374
▁उससे	-6375
▁flu	-6376
ास्त्र	-6377
▁appears	-6378
amin	-6379
▁dat	-6380
▁Democr	-6381
);	-6382
▁values	-6383
▁व्यक्त	-6384
▁otherwise	-6385
▁रज	-6386
▁Mot	-6387
▁छो	-6388
्रीम	-6389
iers	-6390
▁thus	-6391
mp	-6392
▁Hy	-6393
द्रा	-6394
▁rank	-6395
edy	-6396
▁catch	-6397
osition	-6398
▁task	-6399
▁willing	-6400
night	-6401
▁Science	-6402
CA	-6403
वादी	-6404
वास	-6405
ooper	-6406
▁independent	-6407
ुद्ध	-6408
▁इला	-6409
▁shape	-6410
▁ग्राम	-6411
ipp	-6412
ोजित	-6413
lor	-6414
▁graph	-6415
▁फीस	-6416
▁Africa	-6417
स्थित	-6418
▁assign	-6419
▁सिर	-6420
▁Before	-6421
inct	-6422
▁Card	-6423
ाज़	-6424
uled	-6425
PA	-6426
▁remove	-6427
▁Mex	-6428
orney	-6429
ाह्म	-6430
▁sexual	-6431
▁चुका	-6432
▁Mount	-6433
▁Project	-6434
ामा	-6435
▁sources	-6436
▁शाह	-6437
खंड	-6438
▁vision	-6439
▁classes	-6440
Re	-6441
▁दिश	-6442
▁शिकायत	-6443
▁फोट	-6444
▁button	-6445
▁sand	-6446
ette	-6447
▁टेस्ट	-6448
धर्म	-6449
▁crowd	-6450
33	-6451
▁leaving	-6452
▁भे	-6453
▁ice	-6454
▁vir	-6455
▁दोष	-6456
▁fill	-6457
▁raised	-6458
▁Follow	-6459
95	-6460
state	-6461
ोत	-6462
hone	-6463
बू	-6464
▁estim	-6465
▁discover	-6466
▁approx	-6467
▁स्वयं	-6468
▁तेल	-6469
▁adding	-6470
ror	-6471
▁capacity	-6472
▁प्रेम	-6473
▁राहुल	-6474
▁टाइ	-6475
▁Glo	-6476
▁मश	-6477
▁handle	-6478
यू	-6479
▁Food	-6480
ags	-6481
▁sustain	-6482
▁पहचान	-6483
▁victim	-6484
▁विस्त	-6485
icken	-6486
▁transl	-6487
▁रहता	-6488
▁closed	-6489
actions	-6490
▁decide	-6491
▁cris	-6492
▁Both	-6493
▁records	-6494
▁vote	-6495
▁excited	-6496
▁10.	-6497
antic	-6498
icon	-6499
▁winter	-6500
च्छेद	-6501
▁conven	-6502
▁यथ	-6503
▁सै	-6504
▁proud	-6505
किंग	-6506
▁starts	-6507
▁Brown	-6508
▁egg	-6509
▁एज	-6510
ception	-6511
▁efficient	-6512
▁flex	-6513
tra	-6514
▁परिणाम	-6515
▁despite	-6516
▁रण	-6517
▁sugar	-6518
फा	-6519
▁Lake	-6520
ga	-6521
▁क्व	-6522
▁agency	-6523
▁schedule	-6524
oop	-6525
itz	-6526
्याया	-6527
▁Wood	-6528
▁laws	-6529
ंबई	-6530
▁Trump	-6531
▁sch	-6532
nect	-6533
▁ju	-6534
umber	-6535
▁Real	-6536
▁smaller	-6537
▁contains	-6538
▁ended	-6539
iency	-6540
CH	-6541
▁summ	-6542
्राम	-6543
win	-6544
how	-6545
▁advance	-6546
▁incor	-6547
▁welcome	-6548
▁craft	-6549
बे	-6550
▁famous	-6551
enture	-6552
▁टै	-6553
विर	-6554
▁update	-6555
▁Special	-6556
asp	-6557
▁plants	-6558
▁Main	-6559
▁residents	-6560
▁artist	-6561
outhern	-6562
▁हत्या	-6563
arge	-6564
▁खुल	-6565
▁दिखाई	-6566
berg	-6567
▁विव	-6568
▁honest	-6569
ोरी	-6570
योः	-6571
iliar	-6572
▁निर्ण	-6573
▁football	-6574
▁एड	-6575
▁लेते	-6576
ano	-6577
▁8.	-6578
!”	-6579
▁Amazon	-6580
▁Development	-6581
▁वालों	-6582
▁actions	-6583
▁minute	-6584
▁करा	-6585
▁दोस्तों	-6586
▁pair	-6587
▁showing	-6588
▁छोटे	-6589
ression	-6590
▁decisions	-6591
roy	-6592
ellow	-6593
▁मोह	-6594
ृश्य	-6595
aked	-6596
▁kid	-6597
ंद्र	-6598
▁Lu	-6599
▁सम्मान	-6600
-7	-6601
र्जी	-6602
ishes	-6603
▁ign	-6604
MS	-6605
▁micro	-6606
iture	-6607
tenance	-6608
▁माँ	-6609
▁presence	-6610
26	-6611
fit	-6612
▁essay	-6613
▁2000	-6614
▁Arch	-6615
▁cars	-6616
▁experts	-6617
▁Fire	-6618
estic	-6619
▁relevant	-6620
।”	-6621
cel	-6622
▁numerous	-6623
▁स्पष्ट	-6624
▁हिस्सा	-6625
▁ap	-6626
▁मॉ	-6627
esome	-6628
oma	-6629
▁सेना	-6630
▁leadership	-6631
खी	-6632
▁घंटे	-6633
osh	-6634
▁injury	-6635
ixt	-6636
▁यो	-6637
▁diagn	-6638
▁Central	-6639
▁tree	-6640
▁साफ	-6641
▁animals	-6642
▁department	-6643
्यता	-6644
▁ship	-6645
▁निश्च	-6646
▁प्रशासन	-6647
ेदार	-6648
word	-6649
▁;	-6650
▁आइ	-6651
▁अनुभव	-6652
रिका	-6653
▁फैसला	-6654
▁उम्र	-6655
▁cab	-6656
लोड	-6657
▁मर	-6658
ste	-6659
▁करेगा	-6660
▁shopping	-6661
▁ur	-6662
▁Committee	-6663
▁restaurant	-6664
gery	-6665
▁rat	-6666
▁motor	-6667
▁practices	-6668
▁opinion	-6669
▁Enter	-6670
▁volunte	-6671
▁thoughts	-6672
▁taste	-6673
▁sector	-6674
▁आत	-6675
▁brief	-6676
▁Download	-6677
▁गुजर	-6678
▁AND	-6679
▁Upd	-6680
▁समान	-6681
▁फ्र	-6682
▁mort	-6683
▁dedicated	-6684
▁Community	-6685
▁focused	-6686
▁]	-6687
▁rule	-6688
▁District	-6689
त्री	-6690
▁चीन	-6691
▁agreement	-6692
▁driver	-6693
ternal	-6694
▁er	-6695
▁खूब	-6696
ंटी	-6697
▁buying	-6698
▁behavior	-6699
▁Somet	-6700
चल	-6701
▁Blue	-6702
▁relationships	-6703
▁discussion	-6704
▁Elect	-6705
▁दक्षिण	-6706
फ्ट	-6707
▁sty	-6708
▁bright	-6709
▁गंभीर	-6710
▁cloud	-6711
going	-6712
rd	-6713
▁arm	-6714
▁Chicago	-6715
21	-6716
outs	-6717
isation	-6718
▁separate	-6719
▁रि	-6720
▁Scott	-6721
▁mail	-6722
▁संबंधित	-6723
hab	-6724
▁architect	-6725
▁संक्रम	-6726
▁facilities	-6727
▁mental	-6728
uries	-6729
▁operating	-6730
▁मना	-6731
हरे	-6732
active	-6733
▁garden	-6734
▁snow	-6735
ript	-6736
▁2022	-6737
point	-6738
▁whom	-6739
▁Show	-6740
▁मनु	-6741
▁सीमा	-6742
श्क	-6743
▁mo	-6744
abilities	-6745
▁core	-6746
IR	-6747
बंधन	-6748
▁७	-6749
▁Start	-6750
illa	-6751
▁initial	-6752
त्तर	-6753
▁changing	-6754
▁reached	-6755
pan	-6756
▁सम्प	-6757
▁Data	-6758
▁CD	-6759
▁sem	-6760
▁पल	-6761
▁Carol	-6762
▁notes	-6763
BA	-6764
isco	-6765
rehens	-6766
▁https	-6767
▁worry	-6768
▁Mad	-6769
▁mostly	-6770
ini	-6771
िक्स	-6772
28	-6773
▁(3	-6774
▁Times	-6775
▁Div	-6776
▁गर्	-6777
▁Foundation	-6778
▁corner	-6779
▁रस	-6780
▁bul	-6781
▁listed	-6782
ित्यर्थः	-6783
▁दुर्	-6784
▁novel	-6785
▁मुंबई	-6786
▁chair	-6787
▁throw	-6788
▁Mass	-6789
▁leaves	-6790
▁identify	-6791
▁नो	-6792
▁माता	-6793
door	-6794
▁funding	-6795
ेश्वर	-6796
काम	-6797
▁36	-6798
▁previously	-6799
मपि	-6800
▁भाषा	-6801
▁posts	-6802
▁आह	-6803
▁sched	-6804
▁Gra	-6805
▁sympt	-6806
cipe	-6807
▁poll	-6808
▁UN	-6809
▁दर्द	-6810
ापन	-6811
▁Hill	-6812
▁putting	-6813
▁markets	-6814
धिकार	-6815
▁Mer	-6816
▁कल्प	-6817
▁asking	-6818
▁Vide	-6819
नेस	-6820
ीति	-6821
▁bought	-6822
▁artists	-6823
no	-6824
▁cream	-6825
▁documents	-6826
ृद	-6827
▁Dri	-6828
▁शायद	-6829
▁जैसा	-6830
unction	-6831
▁smooth	-6832
▁trail	-6833
▁पत्रकार	-6834
ंका	-6835
▁circum	-6836
▁List	-6837
▁परिस	-6838
▁dinner	-6839
▁जैसी	-6840
माह	-6841
▁rid	-6842
▁coverage	-6843
कल्प	-6844
inn	-6845
▁managed	-6846
▁चिकित	-6847
craft	-6848
▁emp	-6849
▁battle	-6850
ॉट	-6851
coh	-6852
▁visual	-6853
▁डॉक्टर	-6854
▁कट	-6855
▁sea	-6856
▁Only	-6857
▁Fort	-6858
▁लगाने	-6859
▁हाई	-6860
▁spl	-6861
▁खुश	-6862
ferences	-6863
▁रिश	-6864
ान्तर	-6865
▁नुक	-6866
▁बेहद	-6867
▁संत	-6868
तंत्र	-6869
▁veget	-6870
▁Island	-6871
▁द्वित	-6872
▁Women	-6873
ार्	-6874
▁compar	-6875
esterday	-6876
▁Product	-6877
▁100%	-6878
▁विधानसभा	-6879
र्थिक	-6880
षे	-6881
▁articles	-6882
▁absolutely	-6883
▁alternative	-6884
▁princi	-6885
▁selected	-6886
डल	-6887
▁eventually	-6888
▁Robert	-6889
▁एल	-6890
▁holiday	-6891
▁teachers	-6892
▁situ	-6893
▁temperature	-6894
▁spect	-6895
▁मंगल	-6896
alls	-6897
▁पाप	-6898
:0	-6899
▁eating	-6900
▁concent	-6901
▁(19	-6902
▁sharing	-6903
▁Its	-6904
llig	-6905
▁bird	-6906
▁लंब	-6907
▁teacher	-6908
ection	-6909
▁decor	-6910
▁concerns	-6911
reek	-6912
▁slightly	-6913
▁rain	-6914
▁आते	-6915
▁waste	-6916
▁Exper	-6917
▁hearing	-6918
ulated	-6919
▁beauty	-6920
DF	-6921
▁walking	-6922
▁Music	-6923
▁brings	-6924
▁बढ़ा	-6925
▁अमेरिका	-6926
▁shut	-6927
▁Grand	-6928
▁Journal	-6929
▁doubt	-6930
▁कदम	-6931
▁kick	-6932
▁IP	-6933
▁प्रण	-6934
▁Tor	-6935
▁explore	-6936
▁freed	-6937
▁Tim	-6938
ण्य	-6939
श्वर	-6940
net	-6941
▁delic	-6942
▁Americans	-6943
cket	-6944
▁Const	-6945
▁धो	-6946
ushing	-6947
▁connected	-6948
▁encourage	-6949
▁adapt	-6950
▁AL	-6951
▁Jud	-6952
▁medium	-6953
fr	-6954
:5	-6955
tered	-6956
▁Ma	-6957
bl	-6958
ज़र	-6959
▁तीस	-6960
▁advanced	-6961
▁Frank	-6962
▁mur	-6963
▁south	-6964
life	-6965
▁तृ	-6966
ँच	-6967
यु	-6968
▁अहम	-6969
▁Engine	-6970
▁Franc	-6971
▁listen	-6972
▁न्याय	-6973
▁McC	-6974
agram	-6975
▁songs	-6976
▁ride	-6977
but	-6978
▁Pub	-6979
▁शा	-6980
▁thr	-6981
▁Long	-6982
▁winning	-6983
▁गौर	-6984
▁classic	-6985
▁defense	-6986
▁हासिल	-6987
▁Media	-6988
▁arrest	-6989
▁responsibility	-6990
▁laun	-6991
▁ग्रह	-6992
▁जमा	-6993
▁combination	-6994
▁Lo	-6995
▁labor	-6996
▁League	-6997
ucle	-6998
▁nor	-6999
▁feels	-7000
मात्र	-7001
▁ट्रेन	-7002
▁bon	-7003
▁returned	-7004
eed	-7005
▁Jim	-7006
▁मिनट	-7007
▁policies	-7008
▁पीएम	-7009
▁fee	-7010
▁indic	-7011
▁fabric	-7012
▁सित	-7013
व्यव	-7014
▁sounds	-7015
ंगी	-7016
▁Team	-7017
▁Tre	-7018
▁proceed	-7019
▁environmental	-7020
atures	-7021
ii	-7022
वुड	-7023
▁3,	-7024
▁entry	-7025
▁स्यात्	-7026
काउ	-7027
▁प्रत्येक	-7028
▁unless	-7029
▁survey	-7030
44	-7031
ructure	-7032
▁professionals	-7033
ड़ने	-7034
ENT	-7035
▁radio	-7036
▁गेंद	-7037
▁properties	-7038
fin	-7039
▁female	-7040
▁थाना	-7041
27	-7042
▁metal	-7043
▁pal	-7044
कट	-7045
▁leads	-7046
▁आतंक	-7047
▁filled	-7048
मारी	-7049
▁Microsoft	-7050
▁friendly	-7051
rolled	-7052
▁district	-7053
▁Jul	-7054
If	-7055
▁Peter	-7056
▁Offic	-7057
pet	-7058
▁Que	-7059
▁negative	-7060
▁du	-7061
▁आपने	-7062
▁generation	-7063
▁Family	-7064
▁neighbor	-7065
▁RE	-7066
▁administration	-7067
▁ban	-7068
while	-7069
▁पैसा	-7070
▁selling	-7071
▁techniques	-7072
▁समर्थन	-7073
▁Nov	-7074
known	-7075
▁allowing	-7076
▁कानून	-7077
▁expensive	-7078
▁Mel	-7079
ुरा	-7080
▁distance	-7081
▁Word	-7082
▁guests	-7083
▁Bi	-7084
▁आसान	-7085
▁Contact	-7086
▁यानी	-7087
orter	-7088
▁Build	-7089
▁seek	-7090
▁गी	-7091
▁हिंदी	-7092
▁तला	-7093
yan	-7094
▁optim	-7095
▁आर्थिक	-7096
ात्त	-7097
ye	-7098
▁killed	-7099
▁climate	-7100
▁package	-7101
top	-7102
▁Those	-7103
▁married	-7104
दीप	-7105
▁गै	-7106
▁disp	-7107
▁आती	-7108
istan	-7109
oles	-7110
ulate	-7111
▁संभव	-7112
▁rooms	-7113
न्स	-7114
▁नुकसान	-7115
ैत	-7116
▁cheap	-7117
▁Union	-7118
▁accompl	-7119
ख्य	-7120
▁Next	-7121
▁rise	-7122
▁Whether	-7123
eal	-7124
▁cities	-7125
▁species	-7126
राध	-7127
▁रहती	-7128
icians	-7129
idential	-7130
▁Test	-7131
▁fuel	-7132
▁consid	-7133
▁Sign	-7134
▁influence	-7135
spe	-7136
हाल	-7137
▁पड़ा	-7138
ugg	-7139
▁Keep	-7140
▁Ok	-7141
▁flat	-7142
▁mouth	-7143
▁ट्रेड	-7144
▁CEO	-7145
▁कृत	-7146
▁election	-7147
▁tight	-7148
noon	-7149
▁helpful	-7150
कर्ता	-7151
▁committed	-7152
रल	-7153
▁colors	-7154
▁joined	-7155
▁Stand	-7156
What	-7157
ुति	-7158
▁north	-7159
ब्र	-7160
▁operation	-7161
ंदगी	-7162
ograp	-7163
▁पाया	-7164
▁theme	-7165
▁समी	-7166
▁Academ	-7167
▁सहयोग	-7168
▁ID	-7169
▁joint	-7170
ाहरण	-7171
▁Color	-7172
▁Rad	-7173
▁debt	-7174
▁brows	-7175
.'	-7176
CT	-7177
▁मतलब	-7178
fortunately	-7179
▁profile	-7180
▁exciting	-7181
igr	-7182
शे	-7183
▁sequ	-7184
▁डा	-7185
nel	-7186
ायु	-7187
▁पौ	-7188
▁alle	-7189
36	-7190
▁Mike	-7191
▁casino	-7192
त्यर्थः	-7193
essions	-7194
orthern	-7195
▁Fil	-7196
हो	-7197
▁Bur	-7198
▁map	-7199
ushed	-7200
▁300	-7201
▁सड़क	-7202
्याप्त	-7203
rier	-7204
▁लागू	-7205
्याद	-7206
▁applied	-7207
▁minor	-7208
ulture	-7209
SS	-7210
▁Organ	-7211
ommod	-7212
▁plays	-7213
▁कवि	-7214
▁marriage	-7215
▁readers	-7216
ल्ड	-7217
▁दब	-7218
▁अगले	-7219
tion	-7220
▁खाने	-7221
▁बोर्ड	-7222
▁Di	-7223
unning	-7224
what	-7225
▁youth	-7226
ship	-7227
▁Society	-7228
ifts	-7229
-20	-7230
▁घोषणा	-7231
ups	-7232
▁वर्तमान	-7233
▁Note	-7234
▁typically	-7235
▁रू	-7236
resp	-7237
▁Old	-7238
विद्य	-7239
▁रास्त	-7240
▁आक	-7241
▁Hol	-7242
isher	-7243
पट	-7244
ius	-7245
ocolate	-7246
iminal	-7247
▁कर्	-7248
▁Tur	-7249
oor	-7250
▁भुगत	-7251
▁sav	-7252
▁गौ	-7253
▁दा	-7254
▁sport	-7255
▁signed	-7256
▁सुप	-7257
▁forces	-7258
▁प्राण	-7259
▁भावः	-7260
ेषां	-7261
cient	-7262
▁Person	-7263
ग्न	-7264
osen	-7265
▁intellig	-7266
▁32	-7267
ामीण	-7268
▁assistance	-7269
▁multi	-7270
ait	-7271
▁Earth	-7272
▁transform	-7273
▁fees	-7274
▁Ham	-7275
कः	-7276
िश्चित	-7277
ena	-7278
▁measures	-7279
▁हमारा	-7280
▁2006	-7281
OP	-7282
88	-7283
▁cart	-7284
▁गिरफ्तार	-7285
▁चाल	-7286
water	-7287
▁NE	-7288
▁Security	-7289
▁importance	-7290
iance	-7291
ala	-7292
▁movies	-7293
▁context	-7294
लीवुड	-7295
▁weap	-7296
▁एंड	-7297
▁देशों	-7298
▁डेट	-7299
▁Police	-7300
odies	-7301
▁पहला	-7302
▁beach	-7303
▁Full	-7304
▁आसानी	-7305
▁stated	-7306
▁corporate	-7307
▁male	-7308
▁ourselves	-7309
▁performed	-7310
igan	-7311
▁consumers	-7312
▁चरण	-7313
anda	-7314
ड्ड	-7315
▁enhance	-7316
▁noted	-7317
▁steel	-7318
▁German	-7319
ावि	-7320
▁Wil	-7321
ूर्ति	-7322
▁discount	-7323
▁holding	-7324
▁sitting	-7325
▁scale	-7326
ानीय	-7327
तां	-7328
▁pun	-7329
▁खोल	-7330
▁बुध	-7331
विषय	-7332
▁जुड़े	-7333
▁appeared	-7334
cher	-7335
▁Light	-7336
LA	-7337
वीं	-7338
ेंसी	-7339
▁जाति	-7340
▁accident	-7341
▁Party	-7342
okes	-7343
▁कैं	-7344
uce	-7345
▁iPhone	-7346
▁missing	-7347
▁conversation	-7348
▁दवा	-7349
▁195	-7350
▁edge	-7351
ordin	-7352
ज्	-7353
▁”	-7354
▁Sand	-7355
▁Chris	-7356
▁मार्ग	-7357
▁pregn	-7358
▁plastic	-7359
▁जिम्म	-7360
▁Report	-7361
▁डाउन	-7362
▁depos	-7363
▁साब	-7364
with	-7365
ृत्व	-7366
▁writer	-7367
▁Los	-7368
▁enjoyed	-7369
ॉन	-7370
च्यते	-7371
▁busy	-7372
atin	-7373
▁ग्रामीण	-7374
▁किये	-7375
▁Virgin	-7376
-10	-7377
▁raise	-7378
▁seeking	-7379
▁manner	-7380
▁conflic	-7381
han	-7382
▁wire	-7383
▁शुक्र	-7384
▁चले	-7385
▁repair	-7386
▁कला	-7387
ंसा	-7388
uable	-7389
▁Android	-7390
▁websites	-7391
▁Instead	-7392
▁शुभ	-7393
▁minimum	-7394
▁गर्म	-7395
poses	-7396
olars	-7397
▁exchange	-7398
ाधिक	-7399
▁इत्यादि	-7400
▁विधायक	-7401
▁familiar	-7402
▁motiv	-7403
▁मस	-7404
▁visitors	-7405
▁lived	-7406
▁जिसका	-7407
zen	-7408
▁explain	-7409
▁tow	-7410
ाजिक	-7411
ियाँ	-7412
rad	-7413
▁Valley	-7414
ivered	-7415
▁processes	-7416
▁Medical	-7417
▁एप	-7418
▁ment	-7419
▁fourth	-7420
ita	-7421
GB	-7422
▁sets	-7423
SA	-7424
▁serving	-7425
rical	-7426
▁announce	-7427
▁Mont	-7428
▁Joe	-7429
/0	-7430
▁NY	-7431
▁दुकान	-7432
▁Atl	-7433
▁लक्षण	-7434
▁tells	-7435
▁Thomas	-7436
▁units	-7437
▁Second	-7438
▁Beach	-7439
▁ingredients	-7440
den	-7441
▁आदमी	-7442
▁teach	-7443
▁८	-7444
▁प्रे	-7445
▁Western	-7446
▁possibly	-7447
▁seat	-7448
▁der	-7449
▁देती	-7450
equ	-7451
▁वैसे	-7452
वै	-7453
▁valid	-7454
gl	-7455
▁thick	-7456
ania	-7457
▁apparent	-7458
otic	-7459
▁Gen	-7460
▁animal	-7461
▁सात	-7462
▁आयोजित	-7463
▁format	-7464
▁सहाय	-7465
▁ज़र	-7466
arrant	-7467
▁recommended	-7468
ूपी	-7469
▁symptoms	-7470
▁Technology	-7471
▁बाव	-7472
▁datab	-7473
phas	-7474
rooms	-7475
▁li	-7476
▁निश	-7477
▁मिलता	-7478
ंडी	-7479
▁हिंद	-7480
▁forg	-7481
▁Id	-7482
▁tough	-7483
साथ	-7484
रीब	-7485
cont	-7486
श्मीर	-7487
▁stret	-7488
fol	-7489
▁chemical	-7490
▁Invest	-7491
▁fif	-7492
▁वर्ग	-7493
▁चिं	-7494
नल	-7495
▁Game	-7496
▁maintenance	-7497
सद	-7498
bre	-7499
LC	-7500
▁panel	-7501
▁confidence	-7502
lla	-7503
▁nine	-7504
▁stores	-7505
▁salt	-7506
▁seconds	-7507
▁Wall	-7508
▁उक्त	-7509
▁ती	-7510
▁France	-7511
▁supposed	-7512
▁quant	-7513
▁predict	-7514
थि	-7515
omin	-7516
eless	-7517
▁cleaning	-7518
VID	-7519
cipl	-7520
▁charges	-7521
▁spons	-7522
▁arg	-7523
▁conv	-7524
▁stre	-7525
▁topic	-7526
▁quot	-7527
▁effic	-7528
तक	-7529
hand	-7530
श्किल	-7531
▁calling	-7532
▁William	-7533
ाजा	-7534
▁properly	-7535
▁सलाह	-7536
▁totally	-7537
▁स्वी	-7538
asks	-7539
▁Louis	-7540
cohol	-7541
ev	-7542
▁switch	-7543
▁push	-7544
▁नै	-7545
▁©	-7546
OD	-7547
ोऽपि	-7548
▁पड़ता	-7549
▁Link	-7550
▁ris	-7551
arp	-7552
▁trees	-7553
▁facility	-7554
▁पहुंचे	-7555
▁violence	-7556
▁desire	-7557
▁खत्म	-7558
▁die	-7559
SP	-7560
ानं	-7561
▁Tri	-7562
▁Head	-7563
▁जाएंगे	-7564
▁afternoon	-7565
▁सें	-7566
▁chief	-7567
▁महस	-7568
▁intended	-7569
▁caught	-7570
rim	-7571
शील	-7572
▁Maybe	-7573
▁अभियान	-7574
▁desk	-7575
▁citizens	-7576
▁internal	-7577
▁विल	-7578
which	-7579
पास	-7580
▁Through	-7581
एँ	-7582
▁लंड	-7583
▁detect	-7584
▁Network	-7585
▁removed	-7586
▁मगर	-7587
लिया	-7588
▁reference	-7589
▁courses	-7590
▁cultural	-7591
▁gall	-7592
▁Dou	-7593
▁promote	-7594
▁इलाज	-7595
िवि	-7596
▁dyn	-7597
▁van	-7598
▁हस्त	-7599
▁server	-7600
▁specifically	-7601
ola	-7602
▁purposes	-7603
▁ऐप	-7604
▁प्रभावित	-7605
▁interests	-7606
▁अंक	-7607
▁मिलेगा	-7608
▁विवाद	-7609
▁नीति	-7610
▁चि	-7611
▁दीप	-7612
▁adults	-7613
▁चाहता	-7614
▁Know	-7615
▁Secret	-7616
▁African	-7617
▁जाकर	-7618
णां	-7619
ingly	-7620
▁Nor	-7621
▁upgr	-7622
▁occup	-7623
▁failed	-7624
▁Germany	-7625
▁मार्च	-7626
list	-7627
▁उनसे	-7628
oses	-7629
▁ब्राह्म	-7630
▁standing	-7631
▁Watch	-7632
▁dur	-7633
▁bond	-7634
▁landsc	-7635
▁contem	-7636
खे	-7637
▁तदा	-7638
▁arrange	-7639
▁ran	-7640
▁recip	-7641
prise	-7642
▁Vict	-7643
▁locations	-7644
ums	-7645
▁Set	-7646
▁Human	-7647
▁शेष	-7648
▁circumst	-7649
▁भर्	-7650
▁Minister	-7651
▁ath	-7652
▁academic	-7653
▁proposed	-7654
▁Cy	-7655
▁combined	-7656
▁महसूस	-7657
▁forced	-7658
▁मुश्किल	-7659
bu	-7660
29	-7661
ulty	-7662
▁uns	-7663
ायी	-7664
dden	-7665
्याम	-7666
ट्स	-7667
umin	-7668
▁accommod	-7669
▁कॉलेज	-7670
▁भूमिका	-7671
rag	-7672
▁भारी	-7673
▁editor	-7674
▁यून	-7675
▁बनी	-7676
▁detailed	-7677
▁राजा	-7678
▁Support	-7679
▁researc	-7680
▁Jose	-7681
दिन	-7682
MP	-7683
arsh	-7684
▁जून	-7685
rehensive	-7686
▁rapid	-7687
▁apps	-7688
▁लेना	-7689
▁poly	-7690
लू	-7691
▁बत	-7692
37	-7693
▁Ill	-7694
▁बेच	-7695
▁quiet	-7696
▁भुगतान	-7697
▁Author	-7698
idden	-7699
▁Award	-7700
▁volume	-7701
▁Bob	-7702
काब	-7703
▁पूजा	-7704
mes	-7705
▁अन्त	-7706
▁shipping	-7707
▁command	-7708
र्तन	-7709
▁signs	-7710
▁स्मार्ट	-7711
▁consequ	-7712
UT	-7713
हरी	-7714
▁amb	-7715
▁एयर	-7716
▁Prov	-7717
ht	-7718
▁बनने	-7719
▁fruit	-7720
47	-7721
ाब	-7722
BI	-7723
मह	-7724
▁निर्णय	-7725
▁executive	-7726
aser	-7727
fection	-7728
धारण	-7729
bour	-7730
▁introduced	-7731
▁religious	-7732
▁instance	-7733
▁recipe	-7734
nergy	-7735
▁नागरिक	-7736
▁सुधार	-7737
▁realize	-7738
▁trading	-7739
▁phil	-7740
साम	-7741
▁Fund	-7742
▁Canad	-7743
▁छात्रों	-7744
क्सर	-7745
▁discovered	-7746
▁consumer	-7747
▁CH	-7748
▁strategies	-7749
▁approximately	-7750
▁भ्र	-7751
▁9.	-7752
▁मात्रा	-7753
सित	-7754
▁freedom	-7755
??	-7756
ूक	-7757
▁roof	-7758
▁Does	-7759
▁bound	-7760
▁supported	-7761
iat	-7762
▁Bas	-7763
▁राजनीतिक	-7764
ध्व	-7765
▁failure	-7766
48	-7767
▁maximum	-7768
Sh	-7769
फे	-7770
▁Gar	-7771
▁बिजली	-7772
जल	-7773
घा	-7774
▁YOU	-7775
▁advertising	-7776
▁dollars	-7777
▁prison	-7778
▁sudden	-7779
▁Dev	-7780
aks	-7781
▁factor	-7782
▁aspects	-7783
met	-7784
▁rom	-7785
▁emergency	-7786
▁सुना	-7787
OC	-7788
▁dance	-7789
uts	-7790
/201	-7791
▁समिति	-7792
▁defend	-7793
cean	-7794
▁mir	-7795
▁गलत	-7796
▁arrived	-7797
lines	-7798
▁NOT	-7799
iration	-7800
▁करवा	-7801
▁therapy	-7802
▁menu	-7803
▁ON	-7804
▁·	-7805
cles	-7806
▁फोटो	-7807
▁approved	-7808
▁employee	-7809
▁bringing	-7810
ician	-7811
▁न्याया	-7812
avig	-7813
38	-7814
▁liber	-7815
▁Kore	-7816
kins	-7817
▁hyd	-7818
▁नरेंद्र	-7819
▁ring	-7820
▁assum	-7821
▁(200	-7822
▁rub	-7823
▁revenue	-7824
▁प्रवेश	-7825
▁साव	-7826
▁processing	-7827
▁dogs	-7828
▁gather	-7829
po	-7830
ifications	-7831
▁दिस	-7832
▁विश्वास	-7833
▁Adv	-7834
▁गाय	-7835
▁burn	-7836
▁Johnson	-7837
च्छा	-7838
▁Inte	-7839
▁sides	-7840
There	-7841
▁witness	-7842
▁बेटी	-7843
▁library	-7844
▁accounts	-7845
▁swim	-7846
▁delivered	-7847
▁Pan	-7848
▁Den	-7849
▁prop	-7850
▁सामाजिक	-7851
▁विज्ञ	-7852
▁determined	-7853
▁butter	-7854
!"	-7855
ब्ल	-7856
▁causes	-7857
▁chat	-7858
▁extensive	-7859
ॉर्ड	-7860
खन	-7861
▁element	-7862
▁Lead	-7863
झा	-7864
ario	-7865
▁yes	-7866
▁stopped	-7867
▁appearance	-7868
▁बाध	-7869
▁बां	-7870
orry	-7871
▁instit	-7872
urban	-7873
▁तेजी	-7874
▁worse	-7875
elines	-7876
▁Prote	-7877
kin	-7878
▁favour	-7879
इन	-7880
▁sam	-7881
▁incorpor	-7882
▁drugs	-7883
▁Cre	-7884
▁संचाल	-7885
▁decades	-7886
▁डाय	-7887
▁concerned	-7888
▁युक्त	-7889
▁CA	-7890
▁fantastic	-7891
▁updated	-7892
▁kill	-7893
▁यूपी	-7894
▁fold	-7895
▁terror	-7896
▁Master	-7897
▁गोल	-7898
▁मुह	-7899
▁university	-7900
सिक	-7901
▁milk	-7902
▁पैदा	-7903
▁Museum	-7904
▁Jeff	-7905
▁तकनी	-7906
pected	-7907
▁राजस्थान	-7908
49	-7909
▁begins	-7910
▁depending	-7911
शय	-7912
▁Dan	-7913
ensions	-7914
▁improved	-7915
▁greatest	-7916
स्ल	-7917
▁suit	-7918
▁tests	-7919
▁कर्त	-7920
▁tun	-7921
32	-7922
▁participants	-7923
▁calcul	-7924
▁Oper	-7925
!)	-7926
▁aid	-7927
▁संभावना	-7928
erg	-7929
related	-7930
▁Men	-7931
मित	-7932
ुत्प	-7933
▁sister	-7934
▁दिखा	-7935
▁draft	-7936
rastructure	-7937
CE	-7938
ञ्ज	-7939
erry	-7940
▁anywhere	-7941
▁कठ	-7942
▁आरोपी	-7943
चक	-7944
▁awesome	-7945
▁housing	-7946
▁डर	-7947
▁shock	-7948
ायण	-7949
।’	-7950
▁तभी	-7951
iveness	-7952
▁mine	-7953
▁तुर	-7954
▁lunch	-7955
▁स्थानीय	-7956
▁Sar	-7957
▁boost	-7958
▁weak	-7959
ems	-7960
▁जेल	-7961
ulations	-7962
तिक	-7963
नः	-7964
-9	-7965
burg	-7966
ठी	-7967
▁आयु	-7968
▁4,	-7969
▁hero	-7970
▁Cup	-7971
▁2005	-7972
▁नौकरी	-7973
ादा	-7974
▁pure	-7975
▁cop	-7976
▁शान	-7977
▁flight	-7978
▁Series	-7979
▁Video	-7980
▁prepare	-7981
▁pm	-7982
▁शक्ति	-7983
▁hundreds	-7984
▁Aud	-7985
▁provider	-7986
▁judge	-7987
▁जमीन	-7988
▁रखें	-7989
▁Chief	-7990
eper	-7991
▁decre	-7992
▁components	-7993
▁सहायता	-7994
सो	-7995
्रोल	-7996
▁कराने	-7997
▁अने	-7998
ossible	-7999
दिति	-8000
▁clinical	-8001
▁bask	-8002
▁Rev	-8003
▁vehicles	-8004
IF	-8005
100	-8006
▁Page	-8007
वान्	-8008
▁Posted	-8009
▁<	-8010
्रीन	-8011
▁75	-8012
▁occasion	-8013
▁square	-8014
▁Lab	-8015
▁technologies	-8016
▁orders	-8017
▁yesterday	-8018
▁faster	-8019
appy	-8020
▁belief	-8021
xy	-8022
▁भगव	-8023
िना	-8024
▁paying	-8025
▁सचिव	-8026
▁sac	-8027
▁surgery	-8028
▁अंतिम	-8029
बाजी	-8030
iest	-8031
▁stars	-8032
▁Corpor	-8033
▁sad	-8034
्यव	-8035
▁educational	-8036
▁commitment	-8037
▁लड़की	-8038
46	-8039
▁मं	-8040
▁broken	-8041
याः	-8042
▁turns	-8043
reens	-8044
hors	-8045
▁सफ	-8046
▁launched	-8047
ownt	-8048
्रिय	-8049
oti	-8050
▁remark	-8051
▁agreed	-8052
▁officer	-8053
▁MS	-8054
▁speech	-8055
▁Cath	-8056
lets	-8057
▁perspective	-8058
▁kinds	-8059
▁मुक्त	-8060
▁bigger	-8061
▁तं	-8062
ोलन	-8063
▁विप	-8064
encing	-8065
▁ang	-8066
▁अतिरिक्त	-8067
ान्व	-8068
▁dial	-8069
▁inspired	-8070
▁tro	-8071
▁complic	-8072
▁resol	-8073
▁Mo	-8074
याम	-8075
▁liqu	-8076
णो	-8077
▁Aff	-8078
▁चाहे	-8079
lastname	-8080
दं	-8081
een	-8082
▁सुरक्षित	-8083
▁अनुमति	-8084
▁परेशान	-8085
▁सुनिश्चित	-8086
ria	-8087
▁Ext	-8088
▁television	-8089
▁Jun	-8090
▁supporting	-8091
▁Global	-8092
▁symb	-8093
▁बावजूद	-8094
▁प्रश्न	-8095
1)	-8096
▁बॉलीवुड	-8097
▁बदलाव	-8098
▁उपाय	-8099
▁सारी	-8100
▁telling	-8101
▁carried	-8102
▁दिशा	-8103
▁सोमवार	-8104
▁MP	-8105
▁फेस	-8106
▁Econom	-8107
्योति	-8108
▁आयोग	-8109
▁fle	-8110
▁explained	-8111
▁teen	-8112
▁मजबूत	-8113
ेष्ठ	-8114
azz	-8115
▁उद्देश	-8116
▁Town	-8117
kes	-8118
▁inn	-8119
▁सफलता	-8120
▁choices	-8121
नम	-8122
▁tables	-8123
▁herself	-8124
▁सर्वे	-8125
▁Ver	-8126
ैनिक	-8127
▁कराया	-8128
II	-8129
▁category	-8130
▁belong	-8131
हम	-8132
▁functions	-8133
road	-8134
▁Angeles	-8135
’,	-8136
▁pu	-8137
▁concern	-8138
▁खोज	-8139
▁देवी	-8140
▁crisis	-8141
hetic	-8142
▁Gal	-8143
▁mode	-8144
▁reduced	-8145
ef	-8146
rome	-8147
▁lux	-8148
▁अभिने	-8149
▁प्रती	-8150
्टर	-8151
▁feedback	-8152
:||	-8153
▁elimin	-8154
ters	-8155
▁Way	-8156
irmed	-8157
▁agent	-8158
काउंट	-8159
▁breast	-8160
▁Week	-8161
▁Indust	-8162
▁designs	-8163
▁twice	-8164
▁Mur	-8165
स्तुत	-8166
▁coast	-8167
▁अक्सर	-8168
सूर	-8169
▁Martin	-8170
▁प्रय	-8171
▁Lim	-8172
▁films	-8173
ogue	-8174
▁highlight	-8175
लय	-8176
शनल	-8177
TH	-8178
▁wearing	-8179
ष्ट्र	-8180
itionally	-8181
▁worksh	-8182
▁Using	-8183
▁भोजन	-8184
▁neck	-8185
▁Plus	-8186
▁समु	-8187
oration	-8188
परि	-8189
▁समाप्त	-8190
col	-8191
▁बातें	-8192
▁emphas	-8193
gage	-8194
ultural	-8195
▁Mic	-8196
▁टिक	-8197
oga	-8198
▁कृष्ण	-8199
irty	-8200
▁tast	-8201
▁veter	-8202
▁brown	-8203
जु	-8204
alled	-8205
luding	-8206
▁Max	-8207
▁HD	-8208
▁fly	-8209
▁meat	-8210
▁पंजा	-8211
▁Cas	-8212
▁Federal	-8213
▁History	-8214
▁भेद	-8215
म्स	-8216
▁Cir	-8217
▁Log	-8218
▁ends	-8219
estyle	-8220
As	-8221
ibilities	-8222
▁bike	-8223
▁vary	-8224
ंदा	-8225
ांश	-8226
▁speaking	-8227
▁केंद	-8228
▁राष्ट्रपति	-8229
▁Live	-8230
▁Further	-8231
ua	-8232
िटल	-8233
eah	-8234
▁वोट	-8235
▁मरीज	-8236
▁considering	-8237
▁identified	-8238
न्या	-8239
▁trouble	-8240
तों	-8241
▁crime	-8242
alian	-8243
▁recovery	-8244
▁आयोजन	-8245
▁joy	-8246
▁examples	-8247
oston	-8248
ौल	-8249
कुल	-8250
▁closer	-8251
PR	-8252
फोन	-8253
▁follows	-8254
▁practical	-8255
▁foods	-8256
▁Date	-8257
▁goods	-8258
▁Key	-8259
▁लक्ष्य	-8260
टिंग	-8261
रिया	-8262
▁theory	-8263
▁समुद	-8264
▁मुकाब	-8265
▁१०	-8266
▁label	-8267
▁episode	-8268
▁entirely	-8269
बुक	-8270
▁उत्स	-8271
▁Er	-8272
▁धीरे	-8273
ष्ट्रीय	-8274
▁commission	-8275
▁तत	-8276
▁चैन	-8277
aren	-8278
▁treated	-8279
▁distribution	-8280
▁नियंत्र	-8281
▁effectively	-8282
▁चूत	-8283
▁रखते	-8284
▁Tem	-8285
िरी	-8286
ात्प	-8287
ॉय	-8288
▁48	-8289
▁Did	-8290
▁mere	-8291
ासा	-8292
▁प्रस्ताव	-8293
▁समूह	-8294
▁remote	-8295
aped	-8296
hew	-8297
विड	-8298
SE	-8299
▁संयुक्त	-8300
ुव	-8301
▁इतिहास	-8302
▁affected	-8303
▁भावना	-8304
▁industrial	-8305
▁इतनी	-8306
▁1/2	-8307
▁इन्ह	-8308
▁rot	-8309
▁Japanese	-8310
▁tea	-8311
▁1:	-8312
▁Ul	-8313
▁register	-8314
▁समाध	-8315
▁इंस	-8316
▁Creat	-8317
▁emotional	-8318
ादे	-8319
▁meal	-8320
▁तत्प	-8321
▁parking	-8322
ighter	-8323
तार	-8324
orough	-8325
▁Hen	-8326
▁matters	-8327
▁Contin	-8328
▁battery	-8329
लेट	-8330
ड़ियों	-8331
tr	-8332
▁scr	-8333
uality	-8334
▁photograph	-8335
ilit	-8336
▁केंद्रीय	-8337
असल	-8338
▁Haw	-8339
▁डाउनलोड	-8340
▁महाम	-8341
▁af	-8342
FL	-8343
▁Wal	-8344
इस	-8345
arian	-8346
paper	-8347
▁advoc	-8348
▁पीड़	-8349
▁creation	-8350
▁magn	-8351
-201	-8352
▁ec	-8353
▁univers	-8354
▁Arts	-8355
▁authority	-8356
▁remaining	-8357
▁advis	-8358
▁lit	-8359
▁Children	-8360
▁हट	-8361
/4	-8362
ानाम	-8363
77	-8364
▁निजी	-8365
’.	-8366
▁oblig	-8367
क्ष्य	-8368
▁जल्दी	-8369
▁मूल्य	-8370
▁Lee	-8371
▁Wel	-8372
▁Wild	-8373
▁वस्तु	-8374
प्रस	-8375
merce	-8376
▁issued	-8377
▁AT	-8378
▁sole	-8379
▁significantly	-8380
दात	-8381
▁construct	-8382
ुओं	-8383
▁अश	-8384
prene	-8385
▁updates	-8386
▁truck	-8387
▁मुद्	-8388
ora	-8389
▁ननु	-8390
erves	-8391
▁Hand	-8392
▁Though	-8393
under	-8394
▁Search	-8395
▁Ira	-8396
real	-8397
▁राव	-8398
65	-8399
कर्ताओं	-8400
▁boys	-8401
▁तू	-8402
▁involve	-8403
▁enem	-8404
▁भर्ती	-8405
▁agencies	-8406
अलग	-8407
▁mut	-8408
राम	-8409
▁नित्य	-8410
▁उसमें	-8411
▁competitive	-8412
▁Bow	-8413
उट	-8414
▁nucle	-8415
▁Energy	-8416
osoph	-8417
▁buildings	-8418
har	-8419
▁Jon	-8420
▁victory	-8421
▁audio	-8422
▁investigation	-8423
▁chart	-8424
▁king	-8425
▁Hotel	-8426
▁fields	-8427
▁$2	-8428
tters	-8429
▁relatively	-8430
▁colour	-8431
▁नेताओं	-8432
ध्या	-8433
▁administr	-8434
▁odd	-8435
▁wal	-8436
▁centre	-8437
▁massive	-8438
चीत	-8439
▁Pack	-8440
▁Wr	-8441
2)	-8442
▁Squ	-8443
cknow	-8444
▁Despite	-8445
▁anx	-8446
▁संगठन	-8447
▁Mov	-8448
▁protein	-8449
▁rough	-8450
▁Pac	-8451
▁revealed	-8452
▁तद्व	-8453
39	-8454
▁Isl	-8455
▁Brand	-8456
ॉग	-8457
▁Jones	-8458
▁error	-8459
▁planned	-8460
▁शन	-8461
▁forest	-8462
▁पूछा	-8463
▁निवासी	-8464
▁crew	-8465
▁Charl	-8466
ulous	-8467
▁cro	-8468
MA	-8469
ias	-8470
▁सामना	-8471
▁खर्च	-8472
reprene	-8473
▁knowing	-8474
▁circumstances	-8475
▁Price	-8476
ूँ	-8477
▁आँ	-8478
igration	-8479
mond	-8480
▁जनवरी	-8481
▁identity	-8482
▁officers	-8483
▁providers	-8484
▁comprehensive	-8485
▁दावा	-8486
bur	-8487
▁candidates	-8488
▁severe	-8489
atre	-8490
▁Right	-8491
never	-8492
▁installed	-8493
▁Administ	-8494
wing	-8495
▁critic	-8496
▁अगस्त	-8497
▁End	-8498
▁खाते	-8499
प्	-8500
▁scientific	-8501
▁shares	-8502
▁मई	-8503
▁Access	-8504
▁imagine	-8505
▁moments	-8506
ंतु	-8507
▁फीसदी	-8508
▁fort	-8509
▁मुद्रा	-8510
▁Penn	-8511
▁neighborhood	-8512
▁जिसकी	-8513
▁Richard	-8514
▁soul	-8515
▁रक्त	-8516
▁dangerous	-8517
▁सांसद	-8518
▁थोड़ा	-8519
gas	-8520
▁दरअसल	-8521
▁विदेशी	-8522
▁वायरस	-8523
▁substant	-8524
▁usual	-8525
▁Trust	-8526
▁plate	-8527
▁स्थापित	-8528
pot	-8529
▁chain	-8530
▁charged	-8531
aded	-8532
र्गत	-8533
▁Quest	-8534
▁registered	-8535
▁valuable	-8536
west	-8537
jo	-8538
▁Russia	-8539
सन	-8540
▁मंत्रालय	-8541
▁सिस्ट	-8542
▁iron	-8543
▁participate	-8544
iams	-8545
▁Centre	-8546
▁excess	-8547
▁picked	-8548
▁topics	-8549
▁voc	-8550
▁करनी	-8551
▁expertise	-8552
नियों	-8553
▁Conference	-8554
▁none	-8555
▁पुनः	-8556
▁Sometimes	-8557
▁Yet	-8558
▁Russian	-8559
No	-8560
loc	-8561
▁पदार्थ	-8562
▁देखकर	-8563
▁साबित	-8564
▁Copy	-8565
▁Steve	-8566
▁guest	-8567
▁resource	-8568
rics	-8569
▁देकर	-8570
▁brands	-8571
▁सत	-8572
▁criminal	-8573
▁प्रिय	-8574
▁san	-8575
▁electronic	-8576
▁investors	-8577
▁क्षमता	-8578
▁बातचीत	-8579
!!!	-8580
▁hur	-8581
iors	-8582
▁संस्क	-8583
▁(201	-8584
edia	-8585
▁perman	-8586
▁हल्	-8587
▁क्षेत्रों	-8588
्ला	-8589
▁AR	-8590
▁automatically	-8591
्द	-8592
ien	-8593
▁surprise	-8594
▁Mat	-8595
▁Young	-8596
▁Cat	-8597
कत्व	-8598
▁नेट	-8599
▁Finally	-8600
▁accepted	-8601
▁stone	-8602
unting	-8603
comm	-8604
▁Land	-8605
स्ती	-8606
▁protected	-8607
pat	-8608
▁ok	-8609
▁script	-8610
▁cutting	-8611
rate	-8612
▁receiving	-8613
▁बल्ले	-8614
▁unf	-8615
▁Mexico	-8616
▁उम्मीदवार	-8617
▁रै	-8618
ंडल	-8619
▁Boston	-8620
▁confirm	-8621
▁perfectly	-8622
And	-8623
▁rand	-8624
▁ven	-8625
▁nurs	-8626
▁chicken	-8627
▁arms	-8628
▁जरिए	-8629
▁taught	-8630
▁मल	-8631
▁SP	-8632
▁alcohol	-8633
▁innovative	-8634
▁sample	-8635
▁संपर्क	-8636
▁मित्र	-8637
▁trib	-8638
▁cheese	-8639
▁wealth	-8640
▁MA	-8641
▁gro	-8642
▁इंत	-8643
▁mel	-8644
inch	-8645
▁bread	-8646
▁tickets	-8647
▁windows	-8648
▁बुद्ध	-8649
ताः	-8650
▁चै	-8651
▁missed	-8652
▁diss	-8653
▁इंस्ट	-8654
irms	-8655
▁Learn	-8656
cuit	-8657
ाइड	-8658
mosp	-8659
▁Soft	-8660
ेदारी	-8661
▁Cook	-8662
▁firstname	-8663
▁Dani	-8664
▁Opt	-8665
िरूप	-8666
भाल	-8667
▁procedure	-8668
▁purchased	-8669
▁दूसरा	-8670
▁अथवा	-8671
क्षक	-8672
uated	-8673
▁भीतर	-8674
लक्षण	-8675
▁chosen	-8676
▁Cost	-8677
▁installation	-8678
घट	-8679
▁बढ़ाने	-8680
▁अदाल	-8681
▁contro	-8682
▁motion	-8683
बि	-8684
sembly	-8685
▁क़	-8686
वर्ण	-8687
▁Which	-8688
▁household	-8689
▁5,	-8690
▁boat	-8691
▁सीएम	-8692
▁Virginia	-8693
▁lovely	-8694
▁fixed	-8695
▁historical	-8696
पत्त	-8697
▁Iran	-8698
▁answers	-8699
▁equal	-8700
▁institutions	-8701
▁enable	-8702
▁channel	-8703
▁restrict	-8704
abet	-8705
cribe	-8706
▁obvious	-8707
▁फी	-8708
▁unlike	-8709
gers	-8710
▁Rest	-8711
▁बुधवार	-8712
▁recorded	-8713
▁वरि	-8714
▁Digital	-8715
hus	-8716
▁happening	-8717
▁keeps	-8718
hent	-8719
anged	-8720
▁Iraq	-8721
tw	-8722
ta	-8723
▁pump	-8724
▁राज्यों	-8725
▁विष	-8726
▁grown	-8727
▁Walk	-8728
▁Four	-8729
▁प्लेट	-8730
▁Spring	-8731
▁illustr	-8732
▁frequently	-8733
34	-8734
▁Stat	-8735
▁conducted	-8736
▁सां	-8737
▁टीवी	-8738
▁तुलना	-8739
▁Manager	-8740
▁worldwide	-8741
▁mal	-8742
pret	-8743
▁regularly	-8744
SC	-8745
osite	-8746
▁जोर	-8747
्ह	-8748
icit	-8749
▁accurate	-8750
apes	-8751
▁Sports	-8752
▁island	-8753
▁positions	-8754
▁bless	-8755
▁Applic	-8756
▁सामग्री	-8757
▁assets	-8758
▁Hospital	-8759
त्क	-8760
ावर	-8761
▁Australian	-8762
▁employment	-8763
ाइक	-8764
क्ता	-8765
मुप	-8766
ौती	-8767
▁suitable	-8768
ऽऽ	-8769
▁config	-8770
▁acknow	-8771
▁विशिष्ट	-8772
ati	-8773
▁क्रम	-8774
respond	-8775
▁incredible	-8776
ज्य	-8777
िकी	-8778
rete	-8779
▁पाने	-8780
▁laugh	-8781
▁dim	-8782
▁Three	-8783
▁breakfast	-8784
▁Tit	-8785
▁Middle	-8786
▁रहेगा	-8787
▁disappoint	-8788
78	-8789
वो	-8790
▁SU	-8791
▁स्वीकार	-8792
▁Library	-8793
▁messages	-8794
▁तह	-8795
lymp	-8796
▁Asia	-8797
▁fulf	-8798
▁constantly	-8799
▁(@	-8800
▁grew	-8801
▁doors	-8802
inder	-8803
▁खराब	-8804
▁इंटरनेट	-8805
येत्	-8806
▁random	-8807
▁Def	-8808
▁simpl	-8809
▁campus	-8810
▁मंगलवार	-8811
▁Canadian	-8812
▁150	-8813
▁2004	-8814
▁Fair	-8815
▁व्यवहार	-8816
▁furniture	-8817
न्च	-8818
▁reput	-8819
weight	-8820
▁रखना	-8821
धानी	-8822
▁Du	-8823
▁ben	-8824
▁chocolate	-8825
▁guard	-8826
▁टिप	-8827
ैया	-8828
ाभाव	-8829
achel	-8830
▁रेलवे	-8831
▁grade	-8832
▁Therefore	-8833
▁सप्ताह	-8834
योर	-8835
▁WH	-8836
▁सूची	-8837
▁honor	-8838
िक्	-8839
▁monthly	-8840
म्य	-8841
▁Pass	-8842
▁FOR	-8843
▁Code	-8844
▁license	-8845
▁route	-8846
▁lights	-8847
▁Carolina	-8848
▁medicine	-8849
▁infrastructure	-8850
▁पढ़ें	-8851
ूड	-8852
pes	-8853
▁स्वरूप	-8854
▁AD	-8855
oster	-8856
▁cooking	-8857
▁portion	-8858
▁warrant	-8859
▁कार्यालय	-8860
▁कब	-8861
acks	-8862
म्बर	-8863
▁trend	-8864
▁deals	-8865
▁Equ	-8866
▁शानदार	-8867
▁forth	-8868
▁outdoor	-8869
▁वरिष्ठ	-8870
▁Tru	-8871
▁tail	-8872
▁database	-8873
▁talent	-8874
illy	-8875
▁Girl	-8876
▁रिली	-8877
▁छोटी	-8878
▁400	-8879
▁abuse	-8880
▁दूध	-8881
▁holds	-8882
▁उनको	-8883
▁settings	-8884
▁studio	-8885
▁उदाहरण	-8886
anish	-8887
▁Academy	-8888
▁engineering	-8889
▁county	-8890
▁winner	-8891
क्षम	-8892
▁OR	-8893
▁basket	-8894
ca	-8895
▁समेत	-8896
लोक	-8897
▁turning	-8898
sm	-8899
▁तारी	-8900
▁चित्र	-8901
▁sick	-8902
न्तर	-8903
▁contrast	-8904
▁procedures	-8905
ugh	-8906
vy	-8907
▁Ra	-8908
▁श्रे	-8909
▁सेवन	-8910
वें	-8911
▁dram	-8912
eration	-8913
▁शराब	-8914
olar	-8915
▁shoes	-8916
▁fellow	-8917
बद्ध	-8918
31	-8919
▁खाना	-8920
▁covers	-8921
▁destroy	-8922
▁affili	-8923
▁अकाउंट	-8924
inet	-8925
▁appeal	-8926
pass	-8927
▁entertainment	-8928
▁Victor	-8929
▁आंद	-8930
▁attacks	-8931
▁degrees	-8932
▁houses	-8933
▁affordable	-8934
Cl	-8935
gend	-8936
▁पालन	-8937
erts	-8938
▁सीख	-8939
▁shooting	-8940
▁expression	-8941
▁manufacturing	-8942
▁कथं	-8943
▁worst	-8944
▁restaurants	-8945
नर	-8946
▁वीर	-8947
▁renew	-8948
▁losing	-8949
▁wid	-8950
▁elig	-8951
▁Still	-8952
ितम्	-8953
▁Gall	-8954
▁संके	-8955
55	-8956
▁रहें	-8957
▁मेड	-8958
ट्र	-8959
▁info	-8960
▁meetings	-8961
▁Bal	-8962
▁प्रसिद्ध	-8963
▁dish	-8964
▁दिवस	-8965
▁vital	-8966
▁सिस्टम	-8967
▁committee	-8968
eries	-8969
्याव	-8970
▁Tour	-8971
▁Williams	-8972
luded	-8973
▁folks	-8974
▁ट्वी	-8975
▁Having	-8976
ेऽ	-8977
ॉर्म	-8978
▁मौका	-8979
▁Ari	-8980
▁spr	-8981
▁मार्केट	-8982
▁तैयारी	-8983
▁चयन	-8984
लेक्ट	-8985
▁मामलों	-8986
▁believed	-8987
स्वरूप	-8988
▁Little	-8989
▁risks	-8990
va	-8991
▁Orig	-8992
िको	-8993
▁Account	-8994
race	-8995
▁featured	-8996
▁बिक	-8997
धिकरण	-8998
ollywood	-8999
▁horse	-9000
▁walked	-9001
▁noticed	-9002
▁storm	-9003
थी	-9004
▁justice	-9005
▁सम्बन्ध	-9006
▁appreciate	-9007
TC	-9008
▁domestic	-9009
ansion	-9010
▁बैठे	-9011
▁Place	-9012
▁cycle	-9013
eline	-9014
▁यत्र	-9015
▁reform	-9016
विद्यालय	-9017
▁virtual	-9018
▁organic	-9019
anges	-9020
▁guarantee	-9021
▁plug	-9022
▁अग्र	-9023
▁researchers	-9024
▁ped	-9025
----	-9026
भिर	-9027
ployment	-9028
▁संस्थान	-9029
▁नेत	-9030
EE	-9031
arrow	-9032
cking	-9033
▁upper	-9034
▁attorney	-9035
▁Hard	-9036
▁walls	-9037
▁reliable	-9038
abled	-9039
▁fighting	-9040
▁id	-9041
▁birthday	-9042
▁extended	-9043
▁carbon	-9044
ुल्क	-9045
▁Lt	-9046
▁hurt	-9047
▁कितना	-9048
▁regional	-9049
▁grab	-9050
▁clothes	-9051
omy	-9052
▁village	-9053
▁Jackson	-9054
oking	-9055
िटर	-9056
▁Ep	-9057
प्रत्य	-9058
▁recognized	-9059
▁आनंद	-9060
▁Ce	-9061
▁candidate	-9062
orders	-9063
▁पंचायत	-9064
▁owned	-9065
उस	-9066
▁गुप	-9067
▁चम	-9068
हं	-9069
▁chapter	-9070
▁typical	-9071
▁entered	-9072
▁शुक्रवार	-9073
▁indeed	-9074
▁बताते	-9075
चार्य	-9076
▁acid	-9077
▁kne	-9078
▁vacc	-9079
ेंज	-9080
▁विभ	-9081
▁विकेट	-9082
▁league	-9083
▁फ्ल	-9084
▁output	-9085
▁Again	-9086
▁पॉ	-9087
▁ताव	-9088
▁Mid	-9089
▁वर्ण	-9090
▁facts	-9091
oosing	-9092
▁केस	-9093
▁वित	-9094
▁मात	-9095
▁Olymp	-9096
▁inches	-9097
▁debate	-9098
▁facing	-9099
वाही	-9100
▁pil	-9101
▁hook	-9102
▁Current	-9103
ात्मा	-9104
you	-9105
▁पंजाब	-9106
▁ille	-9107
▁Son	-9108
▁tack	-9109
▁अनुर	-9110
▁Paris	-9111
▁input	-9112
तेन	-9113
emic	-9114
▁atmosp	-9115
▁दस	-9116
icial	-9117
▁उद्योग	-9118
▁स्त्री	-9119
▁Mean	-9120
VD	-9121
▁Arab	-9122
▁किलो	-9123
▁शै	-9124
▁सुप्रीम	-9125
▁reasonable	-9126
▁earned	-9127
comes	-9128
▁profit	-9129
▁अप्रैल	-9130
▁carefully	-9131
Pro	-9132
▁delay	-9133
नाय	-9134
▁presentation	-9135
▁awareness	-9136
▁impossible	-9137
▁visiting	-9138
▁Saf	-9139
nic	-9140
hered	-9141
▁रिश्त	-9142
▁34	-9143
▁engage	-9144
bi	-9145
▁Hon	-9146
▁situations	-9147
▁Senate	-9148
▁Webs	-9149
ार्म	-9150
▁Prem	-9151
▁drivers	-9152
ाले	-9153
▁Michigan	-9154
rick	-9155
anger	-9156
rum	-9157
▁bear	-9158
▁payments	-9159
host	-9160
▁असर	-9161
▁politics	-9162
5%	-9163
▁efficiency	-9164
▁suggested	-9165
writ	-9166
▁Blo	-9167
▁बंग	-9168
▁पर्य	-9169
एक	-9170
▁इत्यर्थः	-9171
ियत	-9172
▁उद्देश्य	-9173
icing	-9174
▁Columb	-9175
▁हल	-9176
▁10,	-9177
.|	-9178
▁Thus	-9179
▁तस्या	-9180
▁climb	-9181
▁Meet	-9182
मेल	-9183
▁जात	-9184
ache	-9185
▁प्रार	-9186
▁खत	-9187
▁Buy	-9188
▁fuck	-9189
▁sin	-9190
TA	-9191
can	-9192
▁COVID	-9193
▁fro	-9194
▁publish	-9195
ampionship	-9196
▁compens	-9197
▁syn	-9198
▁enforce	-9199
▁Italian	-9200
▁Coll	-9201
▁यत्	-9202
ATION	-9203
ensity	-9204
▁Mult	-9205
▁root	-9206
▁Help	-9207
▁ast	-9208
▁routine	-9209
माने	-9210
astern	-9211
inations	-9212
▁जहाँ	-9213
▁अपराध	-9214
▁चर	-9215
ानों	-9216
▁distinct	-9217
▁retire	-9218
▁विश्वविद्यालय	-9219
धारित	-9220
▁upcoming	-9221
▁stands	-9222
▁मानव	-9223
▁Control	-9224
▁38	-9225
▁मैने	-9226
▁Ohio	-9227
वाच	-9228
▁शि	-9229
▁Ken	-9230
uting	-9231
▁Never	-9232
66	-9233
▁लोन	-9234
▁पश्चिम	-9235
ागत	-9236
▁चिंता	-9237
▁layer	-9238
▁navig	-9239
▁Friend	-9240
▁stim	-9241
▁पुस्त	-9242
▁magazine	-9243
▁त्वचा	-9244
▁contest	-9245
▁Instagram	-9246
▁बेटे	-9247
▁defined	-9248
एच	-9249
प्रिय	-9250
▁scheduled	-9251
▁रक्षा	-9252
▁athlet	-9253
alse	-9254
▁Cross	-9255
▁33	-9256
▁Hor	-9257
▁realized	-9258
▁sessions	-9259
ास्ट	-9260
▁Students	-9261
▁व्यवसाय	-9262
Tube	-9263
▁Republican	-9264
▁row	-9265
▁rein	-9266
▁surf	-9267
▁native	-9268
▁Georg	-9269
▁slowly	-9270
ूबर	-9271
▁विस्तार	-9272
▁increases	-9273
agon	-9274
▁conclus	-9275
▁younger	-9276
RI	-9277
▁रविवार	-9278
4)	-9279
हान	-9280
▁हेल	-9281
rency	-9282
▁तुरंत	-9283
▁formed	-9284
▁Festival	-9285
▁ताद	-9286
▁depth	-9287
▁supports	-9288
▁returns	-9289
▁resolution	-9290
▁surrounding	-9291
▁spoke	-9292
▁challenging	-9293
▁pulled	-9294
▁teeth	-9295
▁देंगे	-9296
▁delight	-9297
▁पित	-9298
▁instructions	-9299
मित्य	-9300
▁वृद्धि	-9301
▁loans	-9302
▁river	-9303
▁god	-9304
▁shel	-9305
ित्वा	-9306
▁लै	-9307
▁आखिर	-9308
worth	-9309
▁registration	-9310
▁confirmed	-9311
▁Fun	-9312
▁negoti	-9313
वाने	-9314
GE	-9315
▁सूर्य	-9316
▁unable	-9317
▁yards	-9318
▁ज्योति	-9319
जीव	-9320
▁incl	-9321
▁प्रसाद	-9322
▁susp	-9323
ml	-9324
▁6,	-9325
निर्	-9326
▁Hope	-9327
▁regulations	-9328
oman	-9329
▁symbol	-9330
itutional	-9331
▁expectations	-9332
▁अदालत	-9333
▁prompt	-9334
▁musical	-9335
▁figures	-9336
▁कुर	-9337
▁Mobile	-9338
▁counsel	-9339
▁Non	-9340
्वे	-9341
▁blogg	-9342
▁गाँ	-9343
▁delicious	-9344
▁खिलाड़ी	-9345
पो	-9346
▁vul	-9347
ंकर	-9348
▁decade	-9349
केश	-9350
aturally	-9351
▁Supp	-9352
▁AC	-9353
▁vit	-9354
▁cock	-9355
भाष	-9356
सह	-9357
ban	-9358
▁आये	-9359
▁कृषि	-9360
My	-9361
ingu	-9362
▁Army	-9363
▁Andrew	-9364
▁Cast	-9365
owing	-9366
They	-9367
▁याच	-9368
▁Term	-9369
▁adm	-9370
▁Night	-9371
▁अक्ष	-9372
▁crazy	-9373
▁assessment	-9374
▁CB	-9375
iner	-9376
▁patterns	-9377
cers	-9378
▁possibility	-9379
▁improvement	-9380
▁millions	-9381
lights	-9382
▁tiss	-9383
▁capable	-9384
▁scored	-9385
iety	-9386
▁किर	-9387
▁authorities	-9388
▁Van	-9389
▁Chair	-9390
▁Royal	-9391
▁prove	-9392
earing	-9393
▁‘‘	-9394
EST	-9395
▁edition	-9396
car	-9397
▁Fre	-9398
▁twe	-9399
▁flowers	-9400
▁युद्ध	-9401
▁smile	-9402
law	-9403
▁Muslim	-9404
▁healthcare	-9405
▁ऊर्	-9406
▁यस्य	-9407
▁discussed	-9408
▁description	-9409
▁hate	-9410
▁vast	-9411
person	-9412
▁spiritual	-9413
New	-9414
▁mixed	-9415
▁Rights	-9416
▁Point	-9417
ोपाल	-9418
▁incident	-9419
डेट	-9420
▁Sup	-9421
▁आंख	-9422
▁serves	-9423
▁संक्रमण	-9424
▁प्रत्यक्ष	-9425
▁ongoing	-9426
▁premium	-9427
redit	-9428
▁प्रतियोग	-9429
▁seriously	-9430
िकता	-9431
▁banks	-9432
▁surprised	-9433
▁जिन्हें	-9434
▁त्य	-9435
▁beer	-9436
▁external	-9437
▁(5	-9438
▁sou	-9439
चारी	-9440
▁कही	-9441
otal	-9442
▁कंपनियों	-9443
▁skill	-9444
▁जुलाई	-9445
▁reward	-9446
▁impressive	-9447
र्ति	-9448
agues	-9449
▁Farm	-9450
▁शक्त	-9451
▁Pot	-9452
3)	-9453
ansas	-9454
▁घु	-9455
▁नेतृत्व	-9456
▁सिल	-9457
rible	-9458
▁nom	-9459
▁महान	-9460
▁Bible	-9461
▁छह	-9462
▁वर	-9463
▁adds	-9464
▁icon	-9465
▁ट्वीट	-9466
▁विज्ञान	-9467
्मी	-9468
▁Francisco	-9469
away	-9470
ppers	-9471
▁मिलती	-9472
elly	-9473
isters	-9474
गण	-9475
▁अपि	-9476
▁इलाके	-9477
▁funny	-9478
▁वर्षों	-9479
eding	-9480
▁Box	-9481
ixture	-9482
▁fo	-9483
स्लिम	-9484
▁cooper	-9485
▁साक्ष	-9486
▁Low	-9487
▁tomorrow	-9488
▁Site	-9489
▁DC	-9490
inding	-9491
▁prepar	-9492
▁Ut	-9493
▁mountain	-9494
▁Kn	-9495
▁scholars	-9496
माग	-9497
▁jack	-9498
▁संर	-9499
▁sight	-9500
▁अय	-9501
थे	-9502
फ्र	-9503
▁2:	-9504
lete	-9505
▁taxes	-9506
▁तत्व	-9507
mar	-9508
▁Charles	-9509
▁reporting	-9510
▁37	-9511
ras	-9512
ournament	-9513
▁Join	-9514
▁यद	-9515
▁Ell	-9516
▁tasks	-9517
▁networks	-9518
▁मम	-9519
▁successfully	-9520
▁fairly	-9521
▁लौट	-9522
▁विजय	-9523
▁AS	-9524
▁बारिश	-9525
greg	-9526
▁युवक	-9527
▁planet	-9528
▁rail	-9529
▁foundation	-9530
▁Ire	-9531
▁आकर्ष	-9532
▁निश्चित	-9533
ांक	-9534
▁’	-9535
▁height	-9536
▁पार्ट	-9537
▁authors	-9538
▁Unfortunately	-9539
▁trig	-9540
▁machines	-9541
inem	-9542
AY	-9543
▁wheel	-9544
▁silver	-9545
▁conver	-9546
ints	-9547
▁प्रशिक्ष	-9548
▁phase	-9549
▁sauce	-9550
▁शनिवार	-9551
▁प्रद	-9552
▁Inf	-9553
OV	-9554
▁करेगी	-9555
▁व्र	-9556
▁dropped	-9557
ृतिक	-9558
नाश	-9559
▁bodies	-9560
▁कंट	-9561
▁Ash	-9562
ष्टि	-9563
▁shift	-9564
▁diverse	-9565
▁लोकसभा	-9566
▁देखें	-9567
▁Jewish	-9568
REE	-9569
▁जिंदगी	-9570
liance	-9571
▁7,	-9572
▁Job	-9573
▁कॉल	-9574
▁उपकरण	-9575
▁invent	-9576
▁Cra	-9577
▁originally	-9578
▁stretch	-9579
▁EU	-9580
DS	-9581
ाहा	-9582
▁लखन	-9583
▁गू	-9584
▁अमेरिक	-9585
▁empt	-9586
▁relief	-9587
▁feelings	-9588
▁innovation	-9589
▁चेहरे	-9590
दो	-9591
▁recognize	-9592
▁exclusive	-9593
▁Sel	-9594
▁Assist	-9595
Is	-9596
▁आंदोलन	-9597
▁Marketing	-9598
▁Writ	-9599
▁दृश्य	-9600
▁पकड़	-9601
▁समुदाय	-9602
▁YouTube	-9603
▁मृत	-9604
▁सुपर	-9605
▁submit	-9606
▁tur	-9607
▁bowl	-9608
ूर्ण	-9609
PM	-9610
uls	-9611
An	-9612
▁संव	-9613
oty	-9614
long	-9615
oral	-9616
ether	-9617
ामि	-9618
▁Comple	-9619
▁enthus	-9620
▁कैम	-9621
PC	-9622
भय	-9623
▁Justice	-9624
▁partnership	-9625
▁SH	-9626
▁solar	-9627
▁Cert	-9628
▁ticket	-9629
▁Expl	-9630
▁loves	-9631
लं	-9632
▁ages	-9633
ष्म	-9634
बीआई	-9635
▁legislation	-9636
▁यद्य	-9637
ailability	-9638
▁differences	-9639
▁likes	-9640
▁ultimately	-9641
▁इव	-9642
▁filed	-9643
▁consistent	-9644
▁अर्	-9645
▁arts	-9646
▁injuries	-9647
tle	-9648
▁tiny	-9649
▁agents	-9650
▁muscle	-9651
▁हृद	-9652
▁liked	-9653
्यूटर	-9654
▁correspond	-9655
यते	-9656
▁भक्त	-9657
▁sky	-9658
▁ancient	-9659
▁Try	-9660
▁शव	-9661
▁diam	-9662
▁Share	-9663
▁क्रिया	-9664
▁guitar	-9665
▁confident	-9666
▁Kim	-9667
▁thin	-9668
uling	-9669
▁signal	-9670
▁transition	-9671
▁Ryan	-9672
▁tested	-9673
ाजी	-9674
▁Disc	-9675
▁suggests	-9676
▁तरीका	-9677
▁काट	-9678
UN	-9679
▁रिकॉर्ड	-9680
▁Sn	-9681
▁suc	-9682
▁statements	-9683
▁सार्व	-9684
▁श्रद्ध	-9685
ेः	-9686
▁cake	-9687
▁ब्राह्मण	-9688
▁believes	-9689
▁bes	-9690
▁wet	-9691
berry	-9692
▁yellow	-9693
▁Professor	-9694
▁गेम	-9695
▁domain	-9696
▁Executive	-9697
▁प्री	-9698
▁dates	-9699
ographic	-9700
▁legs	-9701
▁ordered	-9702
▁conflict	-9703
........	-9704
▁त्या	-9705
dy	-9706
▁Table	-9707
▁कश्मीर	-9708
।।	-9709
ayer	-9710
▁इनके	-9711
▁closely	-9712
▁bare	-9713
▁entr	-9714
▁शीर्ष	-9715
▁licens	-9716
▁नदी	-9717
uction	-9718
चारियों	-9719
▁lad	-9720
दारी	-9721
स्थाप	-9722
▁Coast	-9723
▁रिज	-9724
▁urban	-9725
▁इनमें	-9726
▁personally	-9727
▁exposure	-9728
▁$3	-9729
yard	-9730
▁instruct	-9731
UL	-9732
ERS	-9733
▁डिस	-9734
▁Southern	-9735
▁basically	-9736
रीन	-9737
▁mand	-9738
▁रोड	-9739
▁talked	-9740
entle	-9741
▁Spanish	-9742
▁hang	-9743
▁उत्तरा	-9744
▁graduate	-9745
85	-9746
साइ	-9747
▁Oil	-9748
▁फेसबुक	-9749
iverse	-9750
▁convenient	-9751
▁Sher	-9752
▁प्राथम	-9753
▁objects	-9754
▁Lin	-9755
secut	-9756
▁interior	-9757
▁hall	-9758
पत्र	-9759
▁लंबे	-9760
▁Spirit	-9761
▁Guide	-9762
zil	-9763
▁normally	-9764
stone	-9765
▁breath	-9766
▁liquid	-9767
▁operate	-9768
born	-9769
▁bonus	-9770
▁तद्	-9771
डर	-9772
टो	-9773
▁इंग	-9774
▁साइट	-9775
owntown	-9776
▁Games	-9777
▁immediate	-9778
▁photograp	-9779
▁2003	-9780
▁alleged	-9781
वं	-9782
▁Conf	-9783
▁हिन्द	-9784
▁मनो	-9785
▁nearby	-9786
कॉ	-9787
त्न	-9788
lements	-9789
▁बीमारी	-9790
▁फायदे	-9791
कत	-9792
▁Daniel	-9793
▁कपूर	-9794
▁painting	-9795
▁Pak	-9796
▁निर्म	-9797
▁Ca	-9798
▁technique	-9799
rid	-9800
▁Bush	-9801
▁बर्	-9802
▁dealing	-9803
▁pharm	-9804
▁११	-9805
▁Perhaps	-9806
▁Daily	-9807
▁describe	-9808
▁गुजरात	-9809
▁apartment	-9810
▁लॉन्च	-9811
▁streets	-9812
▁Priv	-9813
nam	-9814
्यादा	-9815
▁papers	-9816
▁Es	-9817
ियार	-9818
▁lifestyle	-9819
▁खड़े	-9820
▁कप्त	-9821
profit	-9822
जात	-9823
दूर	-9824
▁वास	-9825
▁anticip	-9826
▁passing	-9827
For	-9828
▁privacy	-9829
10.	-9830
▁जवान	-9831
▁obtained	-9832
▁sufficient	-9833
▁trained	-9834
▁Fed	-9835
Don	-9836
aints	-9837
▁ततः	-9838
▁Far	-9839
न्दर	-9840
▁दर्शन	-9841
▁featuring	-9842
यित	-9843
▁vi	-9844
▁मृत्य	-9845
▁hell	-9846
▁विधि	-9847
▁letters	-9848
▁संश	-9849
That	-9850
▁Should	-9851
▁दम	-9852
▁बाकी	-9853
stream	-9854
uine	-9855
▁री	-9856
▁Environment	-9857
▁Financial	-9858
',	-9859
▁listening	-9860
भास	-9861
cover	-9862
▁heav	-9863
▁everyday	-9864
▁Ray	-9865
pel	-9866
itage	-9867
▁अध्ययन	-9868
बु	-9869
utch	-9870
▁warn	-9871
▁FA	-9872
▁proof	-9873
▁compr	-9874
▁tag	-9875
▁जोड़	-9876
▁Kar	-9877
▁flood	-9878
igned	-9879
▁CR	-9880
sell	-9881
etime	-9882
▁अंग्रे	-9883
cue	-9884
▁धर	-9885
▁shots	-9886
▁informed	-9887
awn	-9888
ग्ग	-9889
▁भूल	-9890
▁prospect	-9891
▁appointment	-9892
ेन्द्र	-9893
alle	-9894
weet	-9895
▁narr	-9896
▁moves	-9897
▁हरिया	-9898
▁लखनऊ	-9899
▁वायरल	-9900
▁Dar	-9901
▁ब्लॉग	-9902
▁glad	-9903
But	-9904
▁entreprene	-9905
▁discipl	-9906
▁rear	-9907
▁बचा	-9908
ificate	-9909
bing	-9910
▁मौसम	-9911
▁योगी	-9912
▁thorough	-9913
▁attrib	-9914
▁hoping	-9915
▁pleased	-9916
▁celebrate	-9917
▁struggle	-9918
▁जायेगा	-9919
▁सति	-9920
▁supplies	-9921
▁पव	-9922
▁hasn	-9923
iser	-9924
▁Secretary	-9925
▁कर्मचारियों	-9926
she	-9927
▁tall	-9928
▁west	-9929
▁browser	-9930
ज्ञा	-9931
aze	-9932
ादश	-9933
Ex	-9934
▁भवे	-9935
▁Scot	-9936
▁Die	-9937
ogen	-9938
▁चाहती	-9939
▁succeed	-9940
▁somewhat	-9941
स्यैव	-9942
▁thread	-9943
▁मुस्लिम	-9944
endar	-9945
▁विकसित	-9946
▁Bon	-9947
ba	-9948
रेण	-9949
▁Tay	-9950
विधान	-9951
▁pod	-9952
▁जागर	-9953
▁Sky	-9954
▁talks	-9955
▁उसको	-9956
▁Phys	-9957
▁aside	-9958
▁वृत्त	-9959
ican	-9960
▁गरीब	-9961
▁contemporary	-9962
▁वाक्य	-9963
FC	-9964
▁smell	-9965
▁bedroom	-9966
▁reaction	-9967
▁obviously	-9968
▁प्रतिनि	-9969
▁अली	-9970
▁55	-9971
anna	-9972
▁trick	-9973
▁Turn	-9974
▁persons	-9975
▁phen	-9976
▁Catholic	-9977
▁एफ	-9978
▁हित	-9979
▁Think	-9980
resents	-9981
▁dining	-9982
▁Ltd	-9983
▁necessarily	-9984
ran	-9985
▁rose	-9986
▁auto	-9987
▁विवाह	-9988
LY	-9989
त्तम	-9990
▁सत्र	-9991
▁शोध	-9992
▁प्रवृत्त	-9993
▁ऑफिस	-9994
▁आठ	-9995
▁Mach	-9996
▁promise	-9997
▁~	-9998
मैं	-9999
gypt	-10000
्यम्	-10001
▁intent	-10002
▁guidance	-10003
▁सामान	-10004
▁collected	-10005
▁महारा	-10006
▁hits	-10007
षेध	-10008
▁argument	-10009
विक	-10010
▁absor	-10011
▁nuclear	-10012
▁mainly	-10013
▁लोगो	-10014
▁weekly	-10015
▁constant	-10016
that	-10017
▁spaces	-10018
भ्यां	-10019
▁अत्य	-10020
▁index	-10021
▁प्रत्या	-10022
▁Mrs	-10023
▁execut	-10024
▁द्वितीय	-10025
ाणि	-10026
▁authent	-10027
नाद	-10028
▁कारो	-10029
▁subsequ	-10030
▁लाइन	-10031
▁grass	-10032
स्र	-10033
▁estimated	-10034
▁Small	-10035
ava	-10036
grad	-10037
▁vend	-10038
भु	-10039
coin	-10040
▁adventure	-10041
▁Copyright	-10042
▁somewhere	-10043
oned	-10044
▁accessible	-10045
whel	-10046
sters	-10047
▁ease	-10048
▁तलाश	-10049
▁वहाँ	-10050
▁दिसंबर	-10051
▁Ms	-10052
▁पहन	-10053
▁mini	-10054
▁writers	-10055
▁Po	-10056
▁withd	-10057
▁शुद्ध	-10058
▁crucial	-10059
42	-10060
देशक	-10061
enger	-10062
▁फिल्मों	-10063
▁golf	-10064
▁चन्द्र	-10065
▁expressed	-10066
▁sizes	-10067
▁Ram	-10068
celer	-10069
▁Requ	-10070
▁bathroom	-10071
▁linked	-10072
▁council	-10073
▁dump	-10074
ellect	-10075
▁सीधे	-10076
▁principles	-10077
▁आंक	-10078
cling	-10079
▁Hell	-10080
्रेट	-10081
लाक	-10082
▁zone	-10083
▁सीरीज	-10084
▁elev	-10085
▁Travel	-10086
▁philosoph	-10087
▁Division	-10088
bles	-10089
▁reader	-10090
▁Policy	-10091
▁Such	-10092
▁explains	-10093
▁ads	-10094
▁Connect	-10095
▁Ba	-10096
▁दुः	-10097
▁pra	-10098
▁suffering	-10099
▁sustainable	-10100
ashed	-10101
ennis	-10102
rition	-10103
▁vulner	-10104
▁pitch	-10105
▁bottle	-10106
्ण	-10107
▁इन्	-10108
▁improving	-10109
▁tab	-10110
Com	-10111
rage	-10112
▁डेटा	-10113
▁पाद	-10114
▁bat	-10115
▁$5	-10116
▁बोध	-10117
▁फरवरी	-10118
▁monitoring	-10119
lyn	-10120
▁lie	-10121
▁Photo	-10122
ura	-10123
▁facilit	-10124
▁pounds	-10125
App	-10126
▁मशीन	-10127
▁8,	-10128
▁resulting	-10129
▁Ha	-10130
▁Local	-10131
▁religion	-10132
▁recording	-10133
साधन	-10134
▁ओवर	-10135
▁creates	-10136
▁increasingly	-10137
▁ट्रेडिंग	-10138
▁Rose	-10139
umes	-10140
▁museum	-10141
भे	-10142
्कुल	-10143
uter	-10144
▁सॉ	-10145
raid	-10146
▁acts	-10147
▁clar	-10148
▁hardware	-10149
▁Est	-10150
▁भूत	-10151
86	-10152
▁collaboration	-10153
inos	-10154
▁soil	-10155
▁organized	-10156
▁सच्च	-10157
▁विपक्ष	-10158
▁याचिका	-10159
▁मिथ	-10160
▁Jac	-10161
▁landscape	-10162
मास	-10163
rip	-10164
folio	-10165
inton	-10166
▁referred	-10167
▁व्	-10168
onym	-10169
▁इतने	-10170
umps	-10171
▁tut	-10172
asters	-10173
▁थोड़ी	-10174
▁विद्या	-10175
▁Need	-10176
▁resistance	-10177
▁महार	-10178
▁chose	-10179
▁परिय	-10180
▁precise	-10181
▁intelligence	-10182
rich	-10183
▁Website	-10184
त्यादि	-10185
स्ते	-10186
▁illness	-10187
▁represents	-10188
▁15,	-10189
▁आर्ट	-10190
▁नज़र	-10191
▁ट्व	-10192
▁स्वतंत्र	-10193
▁flour	-10194
्लो	-10195
▁चढ़	-10196
HS	-10197
▁विष्ण	-10198
▁भूमि	-10199
▁Being	-10200
▁membership	-10201
lv	-10202
▁spin	-10203
▁instrument	-10204
bel	-10205
▁Pop	-10206
▁कोविड	-10207
isms	-10208
▁Ent	-10209
▁pleasure	-10210
▁lighting	-10211
front	-10212
▁evol	-10213
▁conserv	-10214
▁attended	-10215
धिकारी	-10216
▁finds	-10217
▁Colorado	-10218
▁Leg	-10219
स्त्व	-10220
▁बोली	-10221
▁suspect	-10222
गन	-10223
.....	-10224
▁Type	-10225
▁border	-10226
▁ma	-10227
▁प्लान	-10228
▁domin	-10229
▁Ireland	-10230
atoes	-10231
▁Ol	-10232
So	-10233
▁err	-10234
asant	-10235
▁heads	-10236
▁Pacific	-10237
▁amend	-10238
▁नास्त	-10239
▁बजट	-10240
▁अनेक	-10241
▁mic	-10242
orable	-10243
▁integrated	-10244
▁approval	-10245
▁cable	-10246
▁humans	-10247
▁strategic	-10248
sue	-10249
▁anyway	-10250
rm	-10251
रीय	-10252
▁Put	-10253
▁3-	-10254
ouch	-10255
▁Ess	-10256
िफ	-10257
▁attached	-10258
▁11,	-10259
▁Mah	-10260
▁extent	-10261
▁OS	-10262
iana	-10263
▁65	-10264
▁उत्पादन	-10265
▁gay	-10266
पान	-10267
▁favourite	-10268
▁राहत	-10269
abetes	-10270
How	-10271
▁outstanding	-10272
▁फ्री	-10273
▁jun	-10274
▁आईपी	-10275
▁directed	-10276
▁गैर	-10277
▁duty	-10278
▁pursu	-10279
▁habit	-10280
▁platforms	-10281
▁atmosphere	-10282
वण	-10283
कारात्मक	-10284
▁interpret	-10285
चानक	-10286
▁exec	-10287
िन्त	-10288
▁moist	-10289
तिः	-10290
▁फैसले	-10291
▁Him	-10292
ग्ध	-10293
▁१२	-10294
▁repeated	-10295
▁Sat	-10296
▁Santa	-10297
▁contribute	-10298
▁लगाए	-10299
▁प्राइ	-10300
मुक्त	-10301
▁Resp	-10302
▁Italy	-10303
▁Prin	-10304
▁forever	-10305
जो	-10306
▁dip	-10307
▁guidelines	-10308
क्टूबर	-10309
▁watched	-10310
made	-10311
स्ट्रे	-10312
▁widely	-10313
▁underst	-10314
▁Remember	-10315
▁लिंक	-10316
bar	-10317
ults	-10318
▁12,	-10319
्याण	-10320
▁संस्था	-10321
▁बिल्कुल	-10322
▁ऽ	-10323
cons	-10324
class	-10325
ब्रह्म	-10326
▁धारा	-10327
वः	-10328
▁बनाकर	-10329
▁gender	-10330
▁बोला	-10331
▁स्टेशन	-10332
idays	-10333
▁Joseph	-10334
▁false	-10335
alog	-10336
▁lessons	-10337
▁qualified	-10338
▁hosting	-10339
▁hat	-10340
ih	-10341
▁faces	-10342
िकं	-10343
▁managing	-10344
▁सकें	-10345
urse	-10346
▁Article	-10347
▁चली	-10348
रेट	-10349
obby	-10350
yers	-10351
▁Order	-10352
▁हमला	-10353
▁Father	-10354
▁discl	-10355
▁साहित्य	-10356
▁शौ	-10357
uster	-10358
▁खड़ा	-10359
izz	-10360
▁strange	-10361
▁SC	-10362
ादिति	-10363
▁communications	-10364
▁मालिक	-10365
▁engagement	-10366
▁उपचार	-10367
▁surprising	-10368
▁किताब	-10369
▁achieved	-10370
▁अचानक	-10371
▁निर्धारित	-10372
cked	-10373
▁acting	-10374
▁visited	-10375
ument	-10376
▁Cond	-10377
▁रिस	-10378
ोः	-10379
▁Egypt	-10380
▁isol	-10381
▁पहुंचा	-10382
▁दस्ताव	-10383
िष	-10384
▁hire	-10385
▁generate	-10386
ghan	-10387
▁pin	-10388
ali	-10389
▁Clean	-10390
▁saved	-10391
▁फायदा	-10392
▁शांति	-10393
▁experiment	-10394
▁tonight	-10395
ilst	-10396
▁पर्व	-10397
▁sheet	-10398
▁broadcast	-10399
▁रणनीति	-10400
▁Tele	-10401
▁sharp	-10402
▁narrow	-10403
▁interface	-10404
▁आश	-10405
ucky	-10406
▁pic	-10407
▁Bh	-10408
▁Very	-10409
▁faculty	-10410
त्मक	-10411
▁Perform	-10412
▁Fact	-10413
▁LA	-10414
▁रेड	-10415
▁Number	-10416
▁»	-10417
▁Kenn	-10418
▁Ron	-10419
▁Georgia	-10420
▁Looking	-10421
▁Jenn	-10422
▁vacation	-10423
teen	-10424
▁९	-10425
▁घा	-10426
▁काले	-10427
▁Heart	-10428
▁fasc	-10429
▁मन्त्र	-10430
▁विर	-10431
▁PDF	-10432
▁tech	-10433
▁Store	-10434
▁stood	-10435
▁Pract	-10436
▁परियोजना	-10437
▁तमाम	-10438
स्मिन्	-10439
▁Tax	-10440
▁Space	-10441
ampion	-10442
▁trends	-10443
▁invited	-10444
▁निगम	-10445
▁drinking	-10446
▁बालों	-10447
▁capture	-10448
▁विज	-10449
arters	-10450
Americ	-10451
▁Works	-10452
esh	-10453
▁किन	-10454
On	-10455
▁Stock	-10456
▁firms	-10457
▁1000	-10458
▁अक्टूबर	-10459
▁claimed	-10460
zer	-10461
▁manual	-10462
▁searching	-10463
▁स्टार	-10464
्यः	-10465
्से	-10466
विष	-10467
▁tradition	-10468
▁pit	-10469
▁फूल	-10470
▁replacement	-10471
lly	-10472
▁aggress	-10473
िनि	-10474
▁फ़िल	-10475
▁proven	-10476
▁doctors	-10477
▁Ref	-10478
▁Mill	-10479
▁प्रबंधन	-10480
बो	-10481
▁प्राप	-10482
▁designer	-10483
▁transportation	-10484
▁रहना	-10485
▁slot	-10486
▁agric	-10487
▁primarily	-10488
▁Welcome	-10489
▁engaged	-10490
▁clothing	-10491
▁घायल	-10492
▁entit	-10493
ार्थी	-10494
▁हॉ	-10495
vi	-10496
▁हमले	-10497
▁समार	-10498
▁reputation	-10499
▁आराम	-10500
▁weapons	-10501
▁je	-10502
▁tank	-10503
▁तत्काल	-10504
onna	-10505
▁gear	-10506
▁बनाई	-10507
▁filter	-10508
________	-10509
कारण	-10510
▁implementation	-10511
ंघ	-10512
lder	-10513
▁Name	-10514
▁murder	-10515
▁Pen	-10516
▁Supreme	-10517
▁inspiration	-10518
▁होम	-10519
otton	-10520
यव	-10521
▁लु	-10522
▁submitted	-10523
41	-10524
▁conscious	-10525
liament	-10526
adium	-10527
cipal	-10528
▁exceed	-10529
▁destination	-10530
▁noise	-10531
▁percentage	-10532
cia	-10533
▁programme	-10534
▁pipe	-10535
▁प्रचार	-10536
▁39	-10537
▁knock	-10538
▁hopes	-10539
▁सन्	-10540
ifies	-10541
▁मिलकर	-10542
stein	-10543
▁broke	-10544
चु	-10545
▁rental	-10546
▁amounts	-10547
▁रखी	-10548
शिष्ट	-10549
▁मंच	-10550
case	-10551
▁neither	-10552
ातु	-10553
▁Vill	-10554
▁फिलहाल	-10555
न्दी	-10556
▁roles	-10557
▁savings	-10558
▁Personal	-10559
ione	-10560
▁Kat	-10561
43	-10562
ताप	-10563
▁Zeal	-10564
▁हिर	-10565
ादेश	-10566
शक्त	-10567
▁lucky	-10568
▁Training	-10569
▁overwhel	-10570
▁अके	-10571
▁gifts	-10572
etry	-10573
▁11.	-10574
holders	-10575
▁वाहन	-10576
▁professor	-10577
▁performing	-10578
कद	-10579
क्ल	-10580
▁Lind	-10581
▁सितंबर	-10582
amber	-10583
▁airport	-10584
्याज	-10585
▁Rod	-10586
plate	-10587
सों	-10588
षद	-10589
▁Ask	-10590
▁12.	-10591
▁weren	-10592
▁strike	-10593
▁Building	-10594
▁गठ	-10595
▁डिजिटल	-10596
Con	-10597
▁brill	-10598
▁अवधि	-10599
othe	-10600
▁समाचार	-10601
raction	-10602
▁Field	-10603
amental	-10604
▁मिट	-10605
inent	-10606
level	-10607
▁चैनल	-10608
▁permanent	-10609
▁श्रम	-10610
▁Smart	-10611
▁remained	-10612
▁बू	-10613
quir	-10614
annels	-10615
▁मिलेगी	-10616
▁drawing	-10617
oes	-10618
▁opposite	-10619
▁magic	-10620
uration	-10621
lessly	-10622
neys	-10623
page	-10624
▁Holy	-10625
athy	-10626
▁revolution	-10627
▁Fox	-10628
स्ट्रेलिया	-10629
▁apparently	-10630
▁victims	-10631
▁उल	-10632
erate	-10633
▁बीमार	-10634
▁तनाव	-10635
▁rig	-10636
▁Liber	-10637
▁अमेरिकी	-10638
▁वित्तीय	-10639
▁Sus	-10640
▁formal	-10641
ATE	-10642
rated	-10643
▁reduction	-10644
adow	-10645
▁Ball	-10646
▁choosing	-10647
▁विशेषज्ञ	-10648
▁coc	-10649
▁डॉलर	-10650
नात	-10651
▁fitness	-10652
Al	-10653
▁Without	-10654
▁प्रकृति	-10655
iece	-10656
aping	-10657
▁protest	-10658
iano	-10659
▁extract	-10660
▁alive	-10661
▁genuine	-10662
ाइट	-10663
ोड	-10664
▁छुट	-10665
लु	-10666
▁Brazil	-10667
कीय	-10668
▁stuck	-10669
▁soph	-10670
▁territ	-10671
ventional	-10672
▁Ap	-10673
▁Jersey	-10674
▁largely	-10675
कूल	-10676
▁Ford	-10677
iti	-10678
inte	-10679
▁उनमें	-10680
▁Members	-10681
▁महाराष्ट्र	-10682
▁hole	-10683
▁ध्व	-10684
▁Area	-10685
▁अनुप	-10686
▁causing	-10687
▁scheme	-10688
▁component	-10689
▁Ter	-10690
▁Story	-10691
-12	-10692
▁fing	-10693
▁वजन	-10694
▁रिलीज	-10695
iversary	-10696
▁cos	-10697
▁साझा	-10698
▁इन्द्र	-10699
▁Harr	-10700
▁sending	-10701
Pl	-10702
▁definition	-10703
ान्न	-10704
▁shouldn	-10705
▁proposal	-10706
▁afraid	-10707
▁historic	-10708
▁chances	-10709
ूनी	-10710
▁जता	-10711
▁oven	-10712
▁Ly	-10713
▁wra	-10714
▁दान	-10715
▁Roll	-10716
▁rating	-10717
▁incredibly	-10718
▁offices	-10719
जिए	-10720
▁pace	-10721
▁division	-10722
यत	-10723
▁twenty	-10724
▁Asian	-10725
asts	-10726
▁देगा	-10727
▁2002	-10728
▁Labor	-10729
▁suffe	-10730
▁styles	-10731
▁yield	-10732
foot	-10733
▁fishing	-10734
▁Brad	-10735
▁पीड़ित	-10736
▁occurred	-10737
▁बाबा	-10738
ौन	-10739
▁परीक्षण	-10740
▁pill	-10741
▁continuing	-10742
Ar	-10743
▁बनाना	-10744
▁Section	-10745
जीत	-10746
▁1990	-10747
▁possess	-10748
ांव	-10749
न्थ	-10750
▁bab	-10751
▁Run	-10752
▁accomplish	-10753
When	-10754
▁seed	-10755
▁Disney	-10756
▁versions	-10757
▁Prom	-10758
oured	-10759
▁आवाज	-10760
zing	-10761
▁luxury	-10762
acle	-10763
▁Bit	-10764
▁plot	-10765
▁tracks	-10766
▁finance	-10767
▁replaced	-10768
ja	-10769
▁Stan	-10770
▁consideration	-10771
▁Systems	-10772
▁eggs	-10773
▁illegal	-10774
▁Zealand	-10775
EA	-10776
शिप	-10777
▁पुराने	-10778
izer	-10779
▁default	-10780
▁scientists	-10781
खों	-10782
nda	-10783
▁Studies	-10784
▁Taylor	-10785
नगर	-10786
▁भेजा	-10787
▁खी	-10788
▁founded	-10789
▁suddenly	-10790
ureau	-10791
वर्क	-10792
▁mortgage	-10793
▁dust	-10794
▁eligible	-10795
▁ण	-10796
▁flash	-10797
▁hidden	-10798
▁expenses	-10799
▁potentially	-10800
isa	-10801
▁Dog	-10802
▁Summer	-10803
des	-10804
▁phr	-10805
ogether	-10806
▁नवंबर	-10807
▁recommendations	-10808
▁नियुक्त	-10809
▁divid	-10810
▁empty	-10811
▁tip	-10812
▁Nick	-10813
▁Source	-10814
▁मेडिकल	-10815
CD	-10816
▁unw	-10817
▁evil	-10818
▁powder	-10819
▁cuts	-10820
गति	-10821
स्यापि	-10822
▁Select	-10823
▁observed	-10824
▁सजा	-10825
▁सव	-10826
▁तोड़	-10827
▁Senior	-10828
▁transp	-10829
▁east	-10830
▁कमरे	-10831
▁अतः	-10832
essel	-10833
▁involves	-10834
▁permission	-10835
▁लाने	-10836
TV	-10837
lled	-10838
iform	-10839
▁UP	-10840
▁20,	-10841
▁breaking	-10842
▁exception	-10843
नियर	-10844
AA	-10845
▁आधारित	-10846
▁रखे	-10847
त्वम्	-10848
▁Kent	-10849
▁unus	-10850
==	-10851
▁सत्ता	-10852
▁हाथों	-10853
▁रम	-10854
anned	-10855
▁शासन	-10856
icket	-10857
▁bridge	-10858
▁समाधान	-10859
▁soci	-10860
▁किन्तु	-10861
▁festival	-10862
जनिक	-10863
पेक्ष	-10864
ologist	-10865
▁controlled	-10866
▁lapt	-10867
▁फॉर्म	-10868
▁marked	-10869
▁Mir	-10870
adel	-10871
▁इलेक्ट	-10872
▁Ariz	-10873
▁उचित	-10874
▁इंग्ल	-10875
▁categories	-10876
▁Nic	-10877
ारण	-10878
▁era	-10879
्यात्	-10880
ख्त	-10881
▁SEO	-10882
▁dreams	-10883
▁solve	-10884
▁DVD	-10885
गीत	-10886
▁shower	-10887
▁सन	-10888
▁flexible	-10889
▁Case	-10890
iami	-10891
▁मिस	-10892
▁अपडेट	-10893
▁आसपास	-10894
▁42	-10895
racy	-10896
aper	-10897
▁चुना	-10898
▁Govern	-10899
शो	-10900
inson	-10901
▁Happy	-10902
िक्र	-10903
▁attractive	-10904
▁bags	-10905
▁reject	-10906
ikes	-10907
▁limits	-10908
▁Fig	-10909
▁Northern	-10910
▁Prime	-10911
▁involving	-10912
ounter	-10913
▁Credit	-10914
▁reducing	-10915
▁प्रस्तुत	-10916
▁Clin	-10917
▁manufacturer	-10918
▁Medicine	-10919
दाय	-10920
ग्रहण	-10921
▁यज्ञ	-10922
▁Produ	-10923
▁ultimate	-10924
67	-10925
aine	-10926
▁PS	-10927
▁alongside	-10928
ितो	-10929
▁उपस्थित	-10930
cific	-10931
सेना	-10932
▁Hou	-10933
्याः	-10934
▁मनुष्य	-10935
▁Henry	-10936
▁Event	-10937
▁developers	-10938
▁everywhere	-10939
पिता	-10940
▁debut	-10941
▁column	-10942
▁deposit	-10943
▁meals	-10944
▁जुड़ी	-10945
▁lies	-10946
▁regions	-10947
क्कर	-10948
▁120	-10949
▁tum	-10950
▁flavor	-10951
▁3:	-10952
▁Kh	-10953
▁Room	-10954
▁priority	-10955
▁संबोध	-10956
▁सेट	-10957
athan	-10958
pir	-10959
▁producing	-10960
▁सलमान	-10961
▁existence	-10962
▁हवा	-10963
▁quote	-10964
▁ऊर्जा	-10965
phy	-10966
▁desired	-10967
▁स्मार्टफोन	-10968
▁30,	-10969
▁जिन्होंने	-10970
▁PA	-10971
ressed	-10972
▁naturally	-10973
star	-10974
▁मॉडल	-10975
▁देखना	-10976
▁आकर	-10977
ाओं	-10978
▁कितने	-10979
▁हरियाणा	-10980
▁14,	-10981
▁Adam	-10982
▁Nig	-10983
▁depends	-10984
▁capabilities	-10985
▁mile	-10986
▁इच्छा	-10987
anes	-10988
त्तीस	-10989
▁split	-10990
▁Beaut	-10991
निक	-10992
मस	-10993
▁Fred	-10994
▁कितनी	-10995
▁गुरुवार	-10996
Be	-10997
▁पात्र	-10998
▁ग्राहकों	-10999
▁संजय	-11000
ystem	-11001
▁Corporation	-11002
▁inner	-11003
▁mixture	-11004
▁whenever	-11005
itals	-11006
▁findings	-11007
▁पर्याप्त	-11008
▁dad	-11009
▁कविता	-11010
▁anymore	-11011
Un	-11012
▁dynamic	-11013
MC	-11014
▁interact	-11015
uct	-11016
▁CN	-11017
▁धम	-11018
▁controls	-11019
▁इन्हें	-11020
▁Dub	-11021
▁Updated	-11022
▁stake	-11023
EP	-11024
].	-11025
itis	-11026
▁virus	-11027
▁Brian	-11028
▁literally	-11029
▁awards	-11030
▁Additionally	-11031
▁Among	-11032
▁250	-11033
▁सक्षम	-11034
roke	-11035
▁चाय	-11036
▁arrive	-11037
▁बिग	-11038
िव्य	-11039
▁Carl	-11040
ंदन	-11041
▁Sea	-11042
▁forum	-11043
rog	-11044
▁सभा	-11045
issions	-11046
▁comparison	-11047
ेक्ट	-11048
▁stead	-11049
ppy	-11050
then	-11051
▁टिकट	-11052
▁anxiety	-11053
▁Ka	-11054
्ग	-11055
bell	-11056
▁Sav	-11057
▁पेज	-11058
▁preferred	-11059
▁spark	-11060
▁arrested	-11061
▁param	-11062
▁ड्राइ	-11063
▁Treat	-11064
▁spokes	-11065
▁Sep	-11066
▁Force	-11067
ोति	-11068
▁चलता	-11069
▁memories	-11070
HA	-11071
▁भीड़	-11072
▁Broad	-11073
▁18,	-11074
▁Mess	-11075
▁जाएं	-11076
▁oppon	-11077
▁प्लेटफ	-11078
्मिक	-11079
ोषण	-11080
▁श्रीम	-11081
रुण	-11082
▁lawyer	-11083
friendly	-11084
▁coordin	-11085
▁49	-11086
▁Shop	-11087
▁हिस्से	-11088
▁raw	-11089
▁होटल	-11090
देह	-11091
▁Britain	-11092
वद	-11093
leep	-11094
riers	-11095
▁requests	-11096
unn	-11097
amps	-11098
▁fraud	-11099
मीटर	-11100
▁सेल	-11101
▁सेक्स	-11102
▁जम्म	-11103
▁सर्वा	-11104
▁coal	-11105
making	-11106
RS	-11107
▁Boy	-11108
▁सर्	-11109
bridge	-11110
▁Harry	-11111
▁introduction	-11112
▁recognition	-11113
▁photography	-11114
iki	-11115
anny	-11116
▁चिकित्सा	-11117
▁falling	-11118
▁expansion	-11119
▁Would	-11120
▁ततो	-11121
89	-11122
▁SS	-11123
▁carrying	-11124
▁industries	-11125
lers	-11126
▁16,	-11127
▁cookies	-11128
icted	-11129
.;	-11130
निव	-11131
▁आवास	-11132
▁लोकप्रिय	-11133
▁CON	-11134
▁treatments	-11135
▁फैल	-11136
▁कहने	-11137
▁अज	-11138
pack	-11139
▁alt	-11140
▁FREE	-11141
▁Ide	-11142
▁Avenue	-11143
▁13,	-11144
▁कमज	-11145
▁vo	-11146
▁consumption	-11147
▁preparation	-11148
letter	-11149
▁हाद	-11150
▁बिजनेस	-11151
▁newly	-11152
ंडा	-11153
▁Sales	-11154
▁Kevin	-11155
▁wash	-11156
▁recon	-11157
▁Administration	-11158
भिम	-11159
ila	-11160
▁supplement	-11161
▁9,	-11162
▁sees	-11163
▁पढ़ाई	-11164
▁driven	-11165
▁saving	-11166
bury	-11167
▁प्राय	-11168
▁presents	-11169
वाले	-11170
▁merch	-11171
▁mm	-11172
▁२०	-11173
olit	-11174
▁diseases	-11175
▁सार्वजनिक	-11176
▁publication	-11177
▁माया	-11178
onto	-11179
▁इलेक्ट्र	-11180
क्क	-11181
▁हथ	-11182
चय	-11183
िग	-11184
▁आउट	-11185
▁कोल	-11186
▁concrete	-11187
▁मृ	-11188
वाय	-11189
▁परिवर्तन	-11190
▁पहुँच	-11191
भ्यः	-11192
▁wins	-11193
▁बहन	-11194
ुण	-11195
war	-11196
▁gentle	-11197
▁neighb	-11198
▁structures	-11199
RL	-11200
रान	-11201
▁ending	-11202
▁होनी	-11203
▁literature	-11204
स्थिति	-11205
▁दोप	-11206
anted	-11207
▁outcome	-11208
Fi	-11209
stery	-11210
िते	-11211
▁experim	-11212
▁matches	-11213
ruption	-11214
▁Ros	-11215
▁परेशानी	-11216
▁nic	-11217
words	-11218
▁printed	-11219
▁सुनवाई	-11220
विव	-11221
VER	-11222
irus	-11223
▁समीक्षा	-11224
acc	-11225
alty	-11226
▁रोकने	-11227
▁Exam	-11228
bits	-11229
▁फाइन	-11230
▁sensitive	-11231
ावट	-11232
▁नियमित	-11233
▁छूट	-11234
▁अंतर्गत	-11235
▁OK	-11236
▁Tech	-11237
▁Bru	-11238
▁drawn	-11239
uous	-11240
▁portfolio	-11241
▁connections	-11242
▁tone	-11243
All	-11244
▁stronger	-11245
▁रिट	-11246
▁mood	-11247
श्रय	-11248
▁सारा	-11249
▁everybody	-11250
▁बंगाल	-11251
▁प्रतिष्ठ	-11252
''	-11253
haust	-11254
▁समस्याओं	-11255
▁recover	-11256
▁विद्यालय	-11257
▁संकेत	-11258
▁gaming	-11259
▁recy	-11260
▁headed	-11261
▁(6	-11262
▁charm	-11263
▁रोजगार	-11264
बाल	-11265
▁निम	-11266
▁explan	-11267
▁स्र	-11268
▁कंप्यूटर	-11269
▁पांड	-11270
▁उड़	-11271
▁Everyone	-11272
▁availability	-11273
EG	-11274
▁Silver	-11275
▁careful	-11276
▁ru	-11277
bration	-11278
▁Hollywood	-11279
▁Dam	-11280
▁wave	-11281
▁butt	-11282
▁मानसिक	-11283
▁चक्र	-11284
▁trave	-11285
▁architecture	-11286
cular	-11287
▁bars	-11288
▁प्राक	-11289
▁Country	-11290
▁rising	-11291
▁संघर्ष	-11292
▁पहल	-11293
पोर्ट	-11294
izza	-11295
सेस	-11296
▁मेहन	-11297
▁रवि	-11298
▁बुला	-11299
400	-11300
▁publ	-11301
▁रजिस्ट	-11302
ब्ब	-11303
▁mob	-11304
▁अक	-11305
▁react	-11306
▁enforcement	-11307
▁पैर	-11308
▁बातों	-11309
etary	-11310
▁stunning	-11311
▁harder	-11312
Press	-11313
वाला	-11314
▁Common	-11315
▁scenes	-11316
ESS	-11317
▁km	-11318
▁commonly	-11319
▁रचना	-11320
▁latter	-11321
▁Mountain	-11322
▁reserved	-11323
OO	-11324
ूठ	-11325
▁सदस्यों	-11326
▁ताल	-11327
▁2001	-11328
▁खुशी	-11329
प्रकाश	-11330
▁$10	-11331
▁Fall	-11332
▁copyright	-11333
▁तार	-11334
▁blind	-11335
टरी	-11336
▁||	-11337
htt	-11338
▁strict	-11339
remony	-11340
▁Psych	-11341
▁शास्त्र	-11342
▁scan	-11343
▁behalf	-11344
▁मैदान	-11345
सत	-11346
▁encouraged	-11347
▁regardless	-11348
▁गुणव	-11349
▁Drive	-11350
▁स्वस्थ	-11351
uing	-11352
▁tor	-11353
ज्ञानिक	-11354
▁गे	-11355
▁चंद्र	-11356
▁संवाद	-11357
▁Sir	-11358
▁leather	-11359
▁enterprise	-11360
▁Phone	-11361
▁decent	-11362
▁jew	-11363
inity	-11364
▁residential	-11365
▁Ur	-11366
▁tired	-11367
▁स्क्रीन	-11368
▁न्यायालय	-11369
▁Cab	-11370
▁Proper	-11371
वेयर	-11372
▁बेहत	-11373
▁प्रोड	-11374
म्बन्ध	-11375
नाक	-11376
▁Safety	-11377
▁Recent	-11378
दाता	-11379
▁shops	-11380
▁bench	-11381
▁Insurance	-11382
▁सुंदर	-11383
▁Garden	-11384
दर	-11385
द्भ	-11386
▁seats	-11387
lose	-11388
प्रदेश	-11389
▁titles	-11390
▁visible	-11391
▁birds	-11392
▁thinks	-11393
▁channels	-11394
%.	-11395
▁17,	-11396
▁juice	-11397
▁बीज	-11398
▁laid	-11399
▁ताक	-11400
▁bunch	-11401
sts	-11402
▁ज़रूर	-11403
imize	-11404
claim	-11405
▁Enjoy	-11406
▁personality	-11407
▁consequences	-11408
▁Civil	-11409
▁giant	-11410
▁tub	-11411
▁understood	-11412
▁intellect	-11413
▁Pow	-11414
▁Capt	-11415
▁unex	-11416
missions	-11417
▁awarded	-11418
ceived	-11419
▁Miami	-11420
राष्ट्रीय	-11421
och	-11422
▁Arizona	-11423
▁CP	-11424
▁मज़	-11425
rieved	-11426
▁Queen	-11427
▁भरो	-11428
▁forgot	-11429
भावे	-11430
साध	-11431
▁Cru	-11432
ambling	-11433
▁exposed	-11434
▁WW	-11435
▁Meanwhile	-11436
oken	-11437
▁19,	-11438
season	-11439
▁महास	-11440
▁गाड़ी	-11441
▁upload	-11442
▁190	-11443
जरी	-11444
▁intense	-11445
iac	-11446
▁undert	-11447
▁escape	-11448
▁कम्प	-11449
मल	-11450
कता	-11451
▁Eth	-11452
aug	-11453
▁Has	-11454
▁Irish	-11455
▁assume	-11456
▁Line	-11457
▁seasons	-11458
▁managers	-11459
▁MD	-11460
▁Jr	-11461
ho	-11462
ाश	-11463
swe	-11464
▁जू	-11465
▁सालों	-11466
भूम	-11467
▁कैंसर	-11468
▁equival	-11469
रद	-11470
oto	-11471
▁निर्व	-11472
▁तत्त	-11473
▁मुंह	-11474
▁subjects	-11475
▁infection	-11476
▁dispos	-11477
▁merely	-11478
▁controvers	-11479
acter	-11480
stra	-11481
▁fundamental	-11482
▁batt	-11483
तियों	-11484
cm	-11485
▁गार	-11486
▁phones	-11487
including	-11488
▁extension	-11489
▁rice	-11490
▁pand	-11491
रस	-11492
▁fifth	-11493
त्तीसगढ़	-11494
▁colleagues	-11495
वेति	-11496
▁कर्मचारी	-11497
▁lets	-11498
▁borrow	-11499
▁finger	-11500
▁भले	-11501
aska	-11502
▁Software	-11503
▁समारोह	-11504
▁healing	-11505
▁CC	-11506
▁vent	-11507
▁joining	-11508
▁elected	-11509
▁bull	-11510
▁राजधानी	-11511
▁manufacturers	-11512
▁Pur	-11513
▁टूट	-11514
▁पोर्ट	-11515
द्दी	-11516
ादेव	-11517
ार्थः	-11518
ेंशन	-11519
icide	-11520
▁नु	-11521
▁Learning	-11522
▁compliance	-11523
▁जम्मू	-11524
▁व्यक्तिगत	-11525
stal	-11526
▁shoulder	-11527
▁Visit	-11528
▁जिनमें	-11529
▁(199	-11530
▁writes	-11531
▁करण	-11532
▁मृत्यु	-11533
epend	-11534
87	-11535
lude	-11536
दौ	-11537
▁DO	-11538
▁hung	-11539
▁लिस्ट	-11540
▁Foot	-11541
▁केन्द्र	-11542
▁Bell	-11543
▁cute	-11544
quality	-11545
▁नियंत्रण	-11546
▁बंध	-11547
▁relative	-11548
क्ष्म	-11549
▁Short	-11550
gor	-11551
▁घोषित	-11552
▁चलने	-11553
▁विवे	-11554
▁mac	-11555
▁opinions	-11556
यम्	-11557
▁recipes	-11558
▁Comments	-11559
▁communicate	-11560
▁Wi	-11561
▁कब्	-11562
▁Email	-11563
▁blocks	-11564
▁कोह	-11565
chester	-11566
FA	-11567
▁ज़्यादा	-11568
▁Available	-11569
तीश	-11570
▁granted	-11571
▁Bad	-11572
▁faced	-11573
▁accord	-11574
ाध्य	-11575
▁uncom	-11576
▁lists	-11577
▁Tal	-11578
▁insight	-11579
ंजी	-11580
▁loud	-11581
▁हफ्त	-11582
▁sacr	-11583
▁concerning	-11584
हिता	-11585
▁staying	-11586
alysis	-11587
र्भ	-11588
xic	-11589
▁tact	-11590
▁certified	-11591
-200	-11592
ात्कार	-11593
▁Fa	-11594
▁outcomes	-11595
▁Hi	-11596
▁पड़ी	-11597
▁सक्रिय	-11598
▁covering	-11599
▁कड़ी	-11600
▁injured	-11601
ds	-11602
▁pink	-11603
▁concert	-11604
wart	-11605
▁marks	-11606
▁बाइक	-11607
▁Engineering	-11608
िनो	-11609
▁तिव	-11610
▁कपड़े	-11611
▁Things	-11612
▁compare	-11613
▁Eric	-11614
inois	-11615
▁III	-11616
▁ham	-11617
▁लॉक	-11618
▁puts	-11619
▁उतार	-11620
▁demands	-11621
▁Radio	-11622
▁association	-11623
▁मुद्दे	-11624
▁ol	-11625
ardens	-11626
▁Lew	-11627
▁ED	-11628
▁obst	-11629
▁convin	-11630
▁दाम	-11631
erman	-11632
▁lady	-11633
vas	-11634
शिया	-11635
▁initiative	-11636
▁तिर	-11637
श्त	-11638
▁boss	-11639
char	-11640
▁suffered	-11641
▁कृत्वा	-11642
▁पूछता	-11643
▁मिश्र	-11644
▁चेक	-11645
▁पहुंची	-11646
▁logo	-11647
▁hydro	-11648
▁Natural	-11649
▁spots	-11650
▁Made	-11651
▁electrical	-11652
▁कप्तान	-11653
्यु	-11654
▁भवन	-11655
atics	-11656
ाहित	-11657
aka	-11658
वाली	-11659
▁वैश्व	-11660
▁tournament	-11661
▁union	-11662
fall	-11663
▁Awards	-11664
▁zero	-11665
▁Eastern	-11666
▁घरे	-11667
▁stable	-11668
▁अमित	-11669
र्घ	-11670
▁tissue	-11671
▁>>	-11672
▁retirement	-11673
iler	-11674
abeth	-11675
aron	-11676
म्मद	-11677
rive	-11678
ught	-11679
क्का	-11680
लाकात	-11681
▁enjoying	-11682
ानुप	-11683
▁returning	-11684
्नि	-11685
▁synt	-11686
▁handling	-11687
▁fru	-11688
▁pp	-11689
▁samples	-11690
▁Capital	-11691
▁Tony	-11692
ढ़ी	-11693
▁माइ	-11694
▁blank	-11695
TER	-11696
▁powers	-11697
▁consists	-11698
▁criteria	-11699
▁USB	-11700
▁Professional	-11701
▁DNA	-11702
atell	-11703
▁basketball	-11704
सिंह	-11705
▁यूर	-11706
uties	-11707
▁sought	-11708
▁स्वागत	-11709
▁heaven	-11710
▁pepper	-11711
▁प्रशिक्षण	-11712
icious	-11713
df	-11714
▁removal	-11715
▁Age	-11716
यह	-11717
ulating	-11718
▁pointed	-11719
run	-11720
िब	-11721
▁दबाव	-11722
ilty	-11723
▁बढ़ने	-11724
▁खाता	-11725
▁contained	-11726
hire	-11727
▁eleg	-11728
▁centers	-11729
▁अंद	-11730
▁programming	-11731
ulum	-11732
eling	-11733
▁Dark	-11734
▁निष्क	-11735
▁rely	-11736
▁functional	-11737
▁धन्य	-11738
▁Miller	-11739
)|	-11740
ाद्व	-11741
▁inch	-11742
▁boxes	-11743
▁21,	-11744
▁हिसाब	-11745
uma	-11746
िप्ट	-11747
▁NEW	-11748
▁Davis	-11749
दश	-11750
▁CL	-11751
▁रोम	-11752
▁Agency	-11753
iking	-11754
intage	-11755
▁instant	-11756
▁Living	-11757
व्यं	-11758
▁46	-11759
▁kit	-11760
▁कने	-11761
▁मुलाकात	-11762
▁requirement	-11763
.2	-11764
Le	-11765
▁सदा	-11766
▁2-	-11767
ership	-11768
▁generated	-11769
eras	-11770
▁संदेश	-11771
GA	-11772
▁25,	-11773
▁हटा	-11774
tics	-11775
ensus	-11776
वती	-11777
▁($	-11778
isdom	-11779
▁rural	-11780
una	-11781
▁Rand	-11782
zed	-11783
oted	-11784
▁acceler	-11785
▁Spain	-11786
व्यम्	-11787
▁रास्ते	-11788
▁hel	-11789
▁Process	-11790
▁Mother	-11791
मय	-11792
▁Come	-11793
ials	-11794
▁forecast	-11795
▁suggestions	-11796
कारों	-11797
▁Houston	-11798
▁vice	-11799
▁Chapter	-11800
▁framework	-11801
त्प्र	-11802
▁Cro	-11803
▁हिंदू	-11804
▁तव	-11805
▁gotten	-11806
▁लड़क	-11807
▁adequ	-11808
▁deeply	-11809
▁assistant	-11810
▁Sex	-11811
▁sections	-11812
रुद्ध	-11813
▁superior	-11814
)||	-11815
▁पत	-11816
▁पंजी	-11817
▁minister	-11818
inter	-11819
▁vibr	-11820
▁vessel	-11821
▁Cut	-11822
▁खूबसूर	-11823
▁छत्तीसगढ़	-11824
nce	-11825
▁एच	-11826
800	-11827
▁password	-11828
▁strongly	-11829
क्ख	-11830
▁मुकाबले	-11831
▁NFL	-11832
▁इम	-11833
▁complicated	-11834
aya	-11835
tes	-11836
नुमान	-11837
भ्यो	-11838
▁प्रणाली	-11839
▁Emer	-11840
▁Korea	-11841
▁हालत	-11842
▁GM	-11843
▁प्रज	-11844
▁विमान	-11845
▁till	-11846
orgeous	-11847
▁बेहतरीन	-11848
▁yard	-11849
ashes	-11850
▁Tool	-11851
▁अपील	-11852
▁यः	-11853
क्षेप	-11854
▁aband	-11855
▁घूम	-11856
▁रहेंगे	-11857
▁aircraft	-11858
orous	-11859
▁संकट	-11860
▁योग्य	-11861
▁indicate	-11862
▁व्याख्या	-11863
▁पढ़ने	-11864
▁Interest	-11865
▁newspaper	-11866
▁wake	-11867
alo	-11868
▁Action	-11869
arks	-11870
▁Blog	-11871
▁बजाय	-11872
▁closing	-11873
▁देह	-11874
usive	-11875
▁lect	-11876
▁हिंसा	-11877
▁Hold	-11878
▁Express	-11879
न्ती	-11880
▁suffer	-11881
▁LED	-11882
▁Oak	-11883
▁Kingdom	-11884
ERE	-11885
▁विद	-11886
ल्लेख	-11887
▁ग्रुप	-11888
▁childhood	-11889
विश्व	-11890
▁नमः	-11891
▁Bang	-11892
CO	-11893
▁Student	-11894
irts	-11895
कम्	-11896
▁farmers	-11897
▁Steel	-11898
▁कक्षा	-11899
▁approaches	-11900
प्शन	-11901
▁voters	-11902
▁१५	-11903
De	-11904
▁इंसान	-11905
igation	-11906
▁अवै	-11907
▁bills	-11908
▁Democratic	-11909
▁uncertain	-11910
print	-11911
wan	-11912
▁SA	-11913
▁गाँव	-11914
▁सुनी	-11915
▁plain	-11916
▁अखिल	-11917
▁Standard	-11918
phones	-11919
▁ट्विटर	-11920
▁enables	-11921
'.	-11922
▁evolution	-11923
▁prohib	-11924
ped	-11925
▁hyper	-11926
rug	-11927
▁lesson	-11928
▁Following	-11929
▁Norm	-11930
▁stored	-11931
▁wanting	-11932
ington	-11933
▁refund	-11934
nesota	-11935
nell	-11936
▁improvements	-11937
ador	-11938
▁drag	-11939
▁casual	-11940
▁gained	-11941
▁nights	-11942
खण्ड	-11943
▁Uk	-11944
ाकर	-11945
da	-11946
▁equally	-11947
burgh	-11948
धरी	-11949
▁१३	-11950
▁LLC	-11951
▁सोने	-11952
▁stir	-11953
▁chest	-11954
▁maintaining	-11955
being	-11956
days	-11957
▁sentence	-11958
▁NAS	-11959
ateful	-11960
LS	-11961
vard	-11962
▁दुःख	-11963
▁लगती	-11964
▁Mos	-11965
▁मेहनत	-11966
▁पुरस्कार	-11967
▁flying	-11968
▁नेटवर्क	-11969
xx	-11970
।"	-11971
ंजन	-11972
▁Regist	-11973
▁entering	-11974
▁personnel	-11975
णु	-11976
▁mistake	-11977
▁दस्तावेज	-11978
AND	-11979
▁अस्म	-11980
▁हां	-11981
जनक	-11982
76	-11983
brid	-11984
▁attitude	-11985
▁Want	-11986
▁2012.	-11987
books	-11988
iders	-11989
▁गूगल	-11990
▁Content	-11991
▁initially	-11992
▁पुस्तक	-11993
▁उतर	-11994
▁drinks	-11995
▁preparing	-11996
▁divor	-11997
▁stayed	-11998
खिल	-11999
▁killing	-12000
▁vegetables	-12001
▁22,	-12002
▁Li	-12003
enth	-12004
▁Change	-12005
▁कार्यों	-12006
8)	-12007
ैंस	-12008
▁dollar	-12009
▁Officer	-12010
िनः	-12011
▁TR	-12012
▁तप	-12013
▁24,	-12014
▁attempts	-12015
▁compensation	-12016
▁posting	-12017
▁observ	-12018
▁bomb	-12019
▁प्रतिक्रिया	-12020
िष्य	-12021
amsung	-12022
▁Las	-12023
▁Size	-12024
ko	-12025
▁संस्कार	-12026
▁Doc	-12027
▁represented	-12028
▁Anth	-12029
▁withdraw	-12030
दातर	-12031
▁शे	-12032
▁classroom	-12033
▁64	-12034
▁Easy	-12035
▁मिति	-12036
▁Quality	-12037
▁ऑस्ट्रेलिया	-12038
ilton	-12039
▁Dream	-12040
▁phenomen	-12041
ounded	-12042
▁plane	-12043
▁thousand	-12044
▁आध	-12045
▁जिनके	-12046
▁युवाओं	-12047
cut	-12048
▁applicable	-12049
ेत्य	-12050
▁essentially	-12051
▁assault	-12052
▁evaluation	-12053
ूर्व	-12054
▁Illinois	-12055
▁objective	-12056
79	-12057
rection	-12058
▁unknown	-12059
cker	-12060
▁(1)	-12061
▁smoke	-12062
▁पृष्ठ	-12063
▁Sarah	-12064
▁चिकित्स	-12065
▁entitled	-12066
▁टिप्प	-12067
▁deeper	-12068
▁characteristics	-12069
भावः	-12070
ाप्र	-12071
▁Film	-12072
▁डिव	-12073
▁शिक्षक	-12074
▁depression	-12075
▁Member	-12076
▁उल्लेख	-12077
▁sorry	-12078
▁कल्याण	-12079
▁चीनी	-12080
▁Brook	-12081
iot	-12082
regon	-12083
je	-12084
▁Cub	-12085
ilipp	-12086
▁asks	-12087
▁प्रभारी	-12088
adelph	-12089
▁ज्यादातर	-12090
खिम	-12091
▁loose	-12092
▁usage	-12093
▁traveling	-12094
▁electricity	-12095
▁participation	-12096
usal	-12097
▁दलित	-12098
▁लागत	-12099
▁seeds	-12100
aters	-12101
▁वाय	-12102
▁Bes	-12103
▁rum	-12104
▁Ah	-12105
▁Eliz	-12106
▁मिलते	-12107
▁adopted	-12108
वेद	-12109
्थिति	-12110
▁बोले	-12111
▁अन्यथा	-12112
oked	-12113
▁मुझसे	-12114
▁Comment	-12115
▁jur	-12116
ordan	-12117
▁lin	-12118
▁Based	-12119
ांट	-12120
pson	-12121
▁transaction	-12122
▁''	-12123
न्तः	-12124
▁निम्	-12125
मः	-12126
▁फंड	-12127
▁गुप्ता	-12128
▁equipped	-12129
iah	-12130
▁containing	-12131
▁opposition	-12132
▁gym	-12133
▁colon	-12134
▁baseball	-12135
तेः	-12136
▁Viet	-12137
▁शुल्क	-12138
▁अरब	-12139
from	-12140
▁ट्रै	-12141
▁वायु	-12142
▁emails	-12143
▁rapidly	-12144
झे	-12145
ocracy	-12146
▁इंतजार	-12147
पात	-12148
▁calm	-12149
▁Golden	-12150
▁Pakistan	-12151
▁roads	-12152
▁श्रु	-12153
▁मुफ्त	-12154
▁riding	-12155
▁calendar	-12156
ाइस	-12157
link	-12158
bow	-12159
▁lift	-12160
▁legit	-12161
▁frustr	-12162
▁Customer	-12163
▁Ox	-12164
▁28,	-12165
▁meets	-12166
▁crypt	-12167
▁..	-12168
▁1980	-12169
▁आदित्य	-12170
▁Guard	-12171
▁जानने	-12172
▁scores	-12173
bered	-12174
▁अनुमान	-12175
)।	-12176
वचन	-12177
▁tie	-12178
ावे	-12179
▁exhaust	-12180
▁acquis	-12181
▁reveal	-12182
▁volunteers	-12183
▁Give	-12184
▁army	-12185
भावात्	-12186
ira	-12187
▁चोट	-12188
acher	-12189
▁exhibition	-12190
▁स्न	-12191
▁franch	-12192
olis	-12193
▁computers	-12194
व्र	-12195
▁compat	-12196
▁lip	-12197
ृता	-12198
श्री	-12199
▁Ten	-12200
▁Stephen	-12201
▁सुझ	-12202
allas	-12203
acon	-12204
▁Money	-12205
▁downtown	-12206
ुरी	-12207
▁pregnancy	-12208
वीर	-12209
तल	-12210
iary	-12211
▁दरव	-12212
▁ocean	-12213
▁गीत	-12214
▁purchasing	-12215
ृही	-12216
▁जिल	-12217
र्हि	-12218
▁Band	-12219
▁minimal	-12220
िणी	-12221
pending	-12222
eness	-12223
▁चेत्	-12224
▁छोटा	-12225
▁occurs	-12226
▁resort	-12227
iour	-12228
▁massage	-12229
sen	-12230
▁महामारी	-12231
▁Rog	-12232
▁courts	-12233
▁instruction	-12234
डाउन	-12235
▁जितना	-12236
adelphia	-12237
सूत्र	-12238
▁stages	-12239
▁Minnesota	-12240
▁pocket	-12241
▁ग्राहक	-12242
▁EX	-12243
CS	-12244
usher	-12245
▁करियर	-12246
▁2023	-12247
heast	-12248
▁विरा	-12249
ात्स	-12250
▁judgment	-12251
▁2012,	-12252
▁legend	-12253
▁representative	-12254
मनु	-12255
▁Cry	-12256
▁न्यूज	-12257
▁Palest	-12258
▁येन	-12259
sect	-12260
▁workshop	-12261
...]	-12262
▁स्वामी	-12263
▁pig	-12264
gent	-12265
सीसी	-12266
charge	-12267
▁interviews	-12268
▁respectively	-12269
▁23,	-12270
▁Bed	-12271
▁जोखिम	-12272
▁Dave	-12273
▁27,	-12274
ccer	-12275
isted	-12276
▁ratio	-12277
▁Pu	-12278
▁Greek	-12279
व्यवस्था	-12280
▁Gro	-12281
▁बीते	-12282
िशेष	-12283
liers	-12284
month	-12285
▁Roman	-12286
▁Afghan	-12287
▁offensive	-12288
UD	-12289
▁Bern	-12290
▁greatly	-12291
▁ceremony	-12292
▁applying	-12293
यात्	-12294
▁Cloud	-12295
▁Wilson	-12296
▁Effect	-12297
▁loyal	-12298
▁conclusion	-12299
▁gap	-12300
▁Cand	-12301
bro	-12302
▁26,	-12303
,’	-12304
gov	-12305
▁gate	-12306
▁पशु	-12307
▁alarm	-12308
site	-12309
▁offense	-12310
▁Own	-12311
▁okay	-12312
▁tracking	-12313
ुनिक	-12314
▁बिक्री	-12315
▁enemy	-12316
▁Talk	-12317
▁heading	-12318
▁mole	-12319
▁displ	-12320
▁Everything	-12321
कोर	-12322
▁actor	-12323
▁Ang	-12324
▁Staff	-12325
▁opens	-12326
▁सेंटर	-12327
▁loving	-12328
▁Columbia	-12329
▁युग	-12330
yes	-12331
केशन	-12332
▁Sche	-12333
ोग्राम	-12334
नम्	-12335
▁उत्पन्न	-12336
▁intention	-12337
रित	-12338
▁diversity	-12339
▁ट्रांस	-12340
▁खिलाड़ियों	-12341
▁तीनों	-12342
▁Working	-12343
▁Grow	-12344
▁स्त्र	-12345
▁bone	-12346
′′	-12347
▁stom	-12348
▁लगने	-12349
▁tape	-12350
▁प्रकाशित	-12351
umer	-12352
▁tied	-12353
▁buyers	-12354
▁Democrats	-12355
ैट	-12356
axy	-12357
▁BE	-12358
▁iPad	-12359
▁थाने	-12360
▁Polit	-12361
▁निदेशक	-12362
▁जिम्मेदारी	-12363
▁कारोबार	-12364
घ्र	-12365
gged	-12366
▁क्रिय	-12367
▁पड़ेगा	-12368
▁Toronto	-12369
ulpt	-12370
▁उत्तराखंड	-12371
▁संसद	-12372
▁44	-12373
▁racing	-12374
जब	-12375
▁प्रतिबंध	-12376
olt	-12377
▁Fac	-12378
▁Latin	-12379
▁Vegas	-12380
▁खरीदने	-12381
र्डर	-12382
▁prayer	-12383
▁array	-12384
▁Level	-12385
▁ensuring	-12386
▁जिसने	-12387
▁$100	-12388
▁languages	-12389
▁substantial	-12390
▁सौंप	-12391
lections	-12392
▁employer	-12393
▁Dom	-12394
sex	-12395
▁unusual	-12396
▁Cou	-12397
▁falls	-12398
▁Greg	-12399
▁भ्रष्ट	-12400
▁nations	-12401
सौ	-12402
▁baking	-12403
▁Josh	-12404
▁संगीत	-12405
पत	-12406
दोष	-12407
▁swimming	-12408
Bl	-12409
ortion	-12410
▁Clinton	-12411
▁Collection	-12412
aza	-12413
▁AB	-12414
ifting	-12415
▁Books	-12416
▁maintained	-12417
▁pricing	-12418
▁blend	-12419
ैंप	-12420
▁Jason	-12421
▁dismiss	-12422
▁स्थापना	-12423
▁moral	-12424
ashing	-12425
▁indicated	-12426
▁porn	-12427
▁imper	-12428
लम	-12429
▁आना	-12430
▁raising	-12431
▁upgrade	-12432
▁NO	-12433
िक्क	-12434
▁Autom	-12435
पथ	-12436
▁वैक्सी	-12437
▁string	-12438
▁orient	-12439
▁warning	-12440
▁coup	-12441
▁पारी	-12442
looking	-12443
▁धूम	-12444
▁गोली	-12445
▁opposed	-12446
▁Swed	-12447
▁अवैध	-12448
▁Mom	-12449
ाँ	-12450
zes	-12451
प्राप्त	-12452
▁dental	-12453
▁pul	-12454
▁Trade	-12455
▁spray	-12456
िताः	-12457
▁चुनौती	-12458
▁admit	-12459
▁drama	-12460
▁fewer	-12461
▁engaging	-12462
rer	-12463
▁शक	-12464
▁विश्ले	-12465
▁attach	-12466
IST	-12467
otes	-12468
▁requested	-12469
▁Print	-12470
▁Dun	-12471
RC	-12472
sylv	-12473
▁Stone	-12474
▁hosted	-12475
▁lifetime	-12476
odge	-12477
▁किम	-12478
▁Steven	-12479
▁equivalent	-12480
ji	-12481
▁admitted	-12482
▁reaching	-12483
▁अट	-12484
ग्राम	-12485
▁टीका	-12486
icking	-12487
▁secondary	-12488
awa	-12489
▁सफाई	-12490
▁ग़	-12491
कार्य	-12492
▁कहां	-12493
▁सुल	-12494
▁Create	-12495
▁somehow	-12496
▁survive	-12497
intend	-12498
▁फ़िल्म	-12499
jection	-12500
ifer	-12501
▁मनी	-12502
,000.	-12503
▁integration	-12504
▁grace	-12505
▁trips	-12506
market	-12507
▁Sem	-12508
fa	-12509
▁blow	-12510
▁अना	-12511
▁कैसी	-12512
onic	-12513
wear	-12514
▁gene	-12515
mates	-12516
▁accused	-12517
▁माय	-12518
▁resident	-12519
▁800	-12520
▁wireless	-12521
inating	-12522
▁concepts	-12523
▁Seattle	-12524
UM	-12525
▁आकार	-12526
▁अमर	-12527
▁गैस	-12528
▁Oregon	-12529
▁clock	-12530
ंतर	-12531
▁segment	-12532
▁चोरी	-12533
▁therap	-12534
बीर	-12535
▁कमाई	-12536
▁struggling	-12537
▁शूट	-12538
eties	-12539
ीव	-12540
▁ly	-12541
▁अंज	-12542
▁Budd	-12543
▁flower	-12544
▁pushed	-12545
▁व्यापक	-12546
▁pandemic	-12547
▁corn	-12548
▁printing	-12549
▁hadn	-12550
▁CS	-12551
▁antib	-12552
िपा	-12553
▁weird	-12554
▁circuit	-12555
▁Material	-12556
▁danger	-12557
▁रेट	-12558
▁spa	-12559
▁इनकी	-12560
▁घरेलू	-12561
▁stations	-12562
uten	-12563
▁चेत	-12564
AB	-12565
▁Matthew	-12566
▁तुम्हें	-12567
जों	-12568
▁2013.	-12569
माश	-12570
▁heavily	-12571
▁Continue	-12572
ाहिर	-12573
▁बढ़ती	-12574
स्ता	-12575
Ad	-12576
▁remem	-12577
ockey	-12578
ART	-12579
▁मेह	-12580
वृ	-12581
▁emotions	-12582
▁ताप	-12583
▁exists	-12584
▁organis	-12585
▁FL	-12586
▁एंटी	-12587
▁आत्मा	-12588
▁Raj	-12589
theless	-12590
▁worried	-12591
▁pride	-12592
▁पार्क	-12593
▁garage	-12594
▁संस्कृति	-12595
▁authentic	-12596
▁श्व	-12597
▁accessories	-12598
ावल	-12599
▁Jay	-12600
roller	-12601
ोने	-12602
▁consent	-12603
▁diabetes	-12604
▁Hun	-12605
▁Jam	-12606
▁Ven	-12607
ckets	-12608
▁पेट्रोल	-12609
▁orange	-12610
▁:-	-12611
▁flag	-12612
▁defensive	-12613
▁Paper	-12614
▁singles	-12615
▁wise	-12616
▁displayed	-12617
▁सरल	-12618
▁डिजाइन	-12619
power	-12620
▁packed	-12621
केन	-12622
▁खाली	-12623
जूदा	-12624
भिप्र	-12625
▁1)	-12626
▁tooth	-12627
swered	-12628
▁governments	-12629
▁Chall	-12630
▁losses	-12631
▁institution	-12632
eb	-12633
▁nose	-12634
▁soldiers	-12635
▁वॉ	-12636
न्तं	-12637
्रेण	-12638
▁tap	-12639
▁पाते	-12640
▁WordPress	-12641
69	-12642
▁जॉ	-12643
▁Ice	-12644
▁Vers	-12645
ार्थियों	-12646
▁filling	-12647
▁Philadelphia	-12648
onder	-12649
▁prime	-12650
▁600	-12651
शास्त्र	-12652
▁focusing	-12653
▁graphics	-12654
▁कोहली	-12655
▁Tam	-12656
▁chronic	-12657
▁ske	-12658
▁combat	-12659
ller	-12660
▁studying	-12661
igen	-12662
▁founder	-12663
िड	-12664
द्यते	-12665
▁तीसरे	-12666
नात्	-12667
▁satisfaction	-12668
ख़	-12669
कुमार	-12670
▁bid	-12671
▁surve	-12672
▁साध्य	-12673
orses	-12674
▁लड़ाई	-12675
घु	-12676
oir	-12677
sylvania	-12678
सिटी	-12679
▁alter	-12680
▁accuracy	-12681
आप	-12682
apore	-12683
▁checking	-12684
▁ज्व	-12685
▁lean	-12686
▁संसार	-12687
▁तुम्हारे	-12688
▁पाई	-12689
▁Diego	-12690
▁investments	-12691
▁बल्लेबाज	-12692
▁brilliant	-12693
▁Barb	-12694
▁Sure	-12695
▁Rs	-12696
▁दूरी	-12697
▁१४	-12698
▁struck	-12699
पूर	-12700
ेंडर	-12701
ोत्प	-12702
▁1970	-12703
भोग	-12704
hour	-12705
▁Rub	-12706
ludes	-12707
wich	-12708
▁बचाने	-12709
▁सुझाव	-12710
▁Season	-12711
ास्य	-12712
iley	-12713
▁Lady	-12714
▁checked	-12715
िवर्	-12716
▁भाभी	-12717
kel	-12718
▁वस	-12719
▁शिकार	-12720
athered	-12721
▁dishes	-12722
▁gorgeous	-12723
पञ्च	-12724
▁contribution	-12725
▁deploy	-12726
▁Samsung	-12727
▁Study	-12728
▁दिमाग	-12729
▁performances	-12730
▁Histor	-12731
▁southern	-12732
नव	-12733
tery	-12734
gorith	-12735
▁टैक्स	-12736
▁Method	-12737
▁प्रेर	-12738
▁contributions	-12739
▁एजेंसी	-12740
▁permit	-12741
▁speaker	-12742
ानेन	-12743
▁deck	-12744
▁temporary	-12745
esy	-12746
quis	-12747
ामिन	-12748
▁contracts	-12749
ंडर	-12750
▁neut	-12751
ainless	-12752
▁errors	-12753
▁hosp	-12754
▁fits	-12755
▁decline	-12756
dis	-12757
▁HIV	-12758
▁Base	-12759
vals	-12760
lee	-12761
▁SM	-12762
▁शारी	-12763
▁Moreover	-12764
▁specialist	-12765
विंद	-12766
▁ज्ञात	-12767
▁waters	-12768
▁Lar	-12769
▁Airport	-12770
र्ह	-12771
▁पूछताछ	-12772
▁29,	-12773
▁Bull	-12774
▁listing	-12775
▁introduce	-12776
▁स्टेट	-12777
▁मौजूदा	-12778
▁1.5	-12779
▁निरी	-12780
▁announcement	-12781
मेत	-12782
▁kiss	-12783
▁ॐ	-12784
रत	-12785
दिव	-12786
▁proved	-12787
▁विज्ञापन	-12788
▁$1.	-12789
▁studied	-12790
▁Republicans	-12791
▁combine	-12792
▁wondering	-12793
▁सहायक	-12794
owa	-12795
▁Stay	-12796
▁volunteer	-12797
▁योगदान	-12798
▁सूत्रों	-12799
iffe	-12800
भवति	-12801
▁पीठ	-12802
▁मजदूर	-12803
▁compete	-12804
angers	-12805
प्रकार	-12806
▁shell	-12807
7)	-12808
▁संस	-12809
▁toler	-12810
▁guilty	-12811
▁कोच	-12812
▁inspe	-12813
▁शह	-12814
▁Elizabeth	-12815
वाक्य	-12816
यात	-12817
गाह	-12818
eters	-12819
ञ्	-12820
mble	-12821
▁Austin	-12822
stract	-12823
▁धार्मिक	-12824
▁entrance	-12825
upid	-12826
▁गच्छ	-12827
▁उद्य	-12828
step	-12829
एंगे	-12830
गृह	-12831
▁Brother	-12832
▁comprom	-12833
संस	-12834
▁ब्रिट	-12835
▁highlights	-12836
etch	-12837
▁चौधरी	-12838
▁damaged	-12839
▁anniversary	-12840
▁41	-12841
▁producer	-12842
She	-12843
obe	-12844
▁2)	-12845
▁Due	-12846
▁scope	-12847
िमा	-12848
ुख	-12849
child	-12850
▁clubs	-12851
▁परिषद	-12852
makers	-12853
riculum	-12854
▁Image	-12855
▁philosophy	-12856
▁Analy	-12857
▁Bry	-12858
▁perm	-12859
▁transactions	-12860
▁IST	-12861
▁demonstrate	-12862
▁डिप	-12863
च्छिन्न	-12864
▁pregnant	-12865
▁advent	-12866
▁describes	-12867
माद	-12868
▁परमेश्वर	-12869
▁PH	-12870
ायां	-12871
wa	-12872
▁celebration	-12873
anguage	-12874
हु	-12875
▁साहब	-12876
▁employed	-12877
▁responses	-12878
▁encounter	-12879
▁47	-12880
▁cm	-12881
▁द्वि	-12882
▁Model	-12883
▁addresses	-12884
▁provision	-12885
▁Mu	-12886
▁minds	-12887
rets	-12888
▁rarely	-12889
बुद्ध	-12890
▁Tenn	-12891
▁asset	-12892
▁appointed	-12893
▁4:	-12894
aret	-12895
proof	-12896
rat	-12897
▁(4	-12898
▁गुल	-12899
▁cups	-12900
▁मुसल	-12901
िशन	-12902
viously	-12903
▁छाप	-12904
▁Square	-12905
▁hotels	-12906
▁visits	-12907
▁enthusi	-12908
▁interaction	-12909
गंज	-12910
▁01	-12911
स्सा	-12912
▁यदा	-12913
▁Furthermore	-12914
DP	-12915
▁sed	-12916
anth	-12917
▁गुर	-12918
▁इंग्लैंड	-12919
नेति	-12920
▁boards	-12921
▁Protection	-12922
▁focuses	-12923
▁NC	-12924
roit	-12925
▁Dead	-12926
▁crash	-12927
▁solo	-12928
▁muscles	-12929
वां	-12930
▁iOS	-12931
Our	-12932
▁Vice	-12933
▁किरदार	-12934
▁restrictions	-12935
▁विवरण	-12936
▁mistakes	-12937
▁whilst	-12938
▁1999	-12939
oding	-12940
▁हृदय	-12941
▁Motor	-12942
▁advantages	-12943
▁recre	-12944
▁factory	-12945
▁jewel	-12946
▁Modern	-12947
▁medication	-12948
ज़ार	-12949
300	-12950
▁चीजों	-12951
%,	-12952
nders	-12953
▁answered	-12954
▁laptop	-12955
▁singing	-12956
ापर	-12957
ificial	-12958
Se	-12959
दाई	-12960
▁डिग्री	-12961
▁fingers	-12962
▁ownership	-12963
निर	-12964
▁coat	-12965
▁Kansas	-12966
▁Pennsylvania	-12967
्यूब	-12968
▁unexpected	-12969
▁discussions	-12970
▁Jordan	-12971
ipt	-12972
▁पटेल	-12973
▁Dallas	-12974
▁Experience	-12975
▁Ministry	-12976
▁निभा	-12977
▁acquired	-12978
▁EN	-12979
▁periods	-12980
▁वाक	-12981
▁तेषां	-12982
▁lens	-12983
▁Partners	-12984
wr	-12985
ासत	-12986
▁अंतरराष्ट्रीय	-12987
visor	-12988
pay	-12989
▁Consult	-12990
ika	-12991
▁यानि	-12992
िकार	-12993
▁भ्रम	-12994
▁electron	-12995
▁हेत	-12996
rowse	-12997
fers	-12998
▁emotion	-12999
▁fur	-13000
unicip	-13001
▁चू	-13002
▁नती	-13003
ित्यादि	-13004
▁मधु	-13005
काः	-13006
▁Bat	-13007
▁cul	-13008
▁दृष्टि	-13009
▁Several	-13010
▁constit	-13011
▁subsid	-13012
▁हिन्दी	-13013
▁packages	-13014
▁conventional	-13015
लेन	-13016
▁आखिरी	-13017
▁पुनर	-13018
American	-13019
दल	-13020
ाफ	-13021
▁टॉप	-13022
cribed	-13023
▁Sound	-13024
▁Products	-13025
▁Fast	-13026
▁दोपहर	-13027
world	-13028
▁desper	-13029
▁बढ़ावा	-13030
▁वर्षीय	-13031
▁telephone	-13032
▁ग्रहण	-13033
▁Forest	-13034
▁liability	-13035
▁flexibility	-13036
▁किलोमीटर	-13037
▁invention	-13038
▁nerv	-13039
▁hearts	-13040
▁privile	-13041
gel	-13042
▁cameras	-13043
▁Kids	-13044
विरोध	-13045
▁Impro	-13046
▁holidays	-13047
Ph	-13048
▁buff	-13049
▁Magazine	-13050
▁Six	-13051
▁द्रव्य	-13052
▁Retrieved	-13053
चीन	-13054
▁Hay	-13055
शः	-13056
▁attending	-13057
▁Subs	-13058
/20	-13059
ela	-13060
धिकारिक	-13061
▁uniform	-13062
▁SE	-13063
▁परिज	-13064
▁Donald	-13065
▁arrival	-13066
ूद	-13067
▁photographs	-13068
-15	-13069
ucks	-13070
▁testim	-13071
▁participating	-13072
▁मरीजों	-13073
▁Sab	-13074
▁principal	-13075
▁प्रतियोगिता	-13076
▁फुट	-13077
urities	-13078
▁targeted	-13079
aid	-13080
▁Clear	-13081
▁ऋण	-13082
▁Deb	-13083
▁रास्ता	-13084
▁formula	-13085
unes	-13086
▁पटना	-13087
▁गुणवत्ता	-13088
▁Bridge	-13089
▁haz	-13090
ाप्य	-13091
▁fest	-13092
▁Bud	-13093
▁cann	-13094
▁talented	-13095
agan	-13096
▁transmission	-13097
▁hide	-13098
▁निर्भर	-13099
▁Lic	-13100
utter	-13101
limited	-13102
यल	-13103
?)	-13104
▁McG	-13105
▁western	-13106
▁emerging	-13107
sis	-13108
तलब	-13109
▁इस्ल	-13110
▁trim	-13111
▁ब्रे	-13112
▁hip	-13113
▁dent	-13114
▁यूज	-13115
▁Host	-13116
▁कमजोर	-13117
▁Auto	-13118
▁Ever	-13119
▁संपत्ति	-13120
ami	-13121
ounce	-13122
▁HP	-13123
▁branch	-13124
▁somebody	-13125
▁कां	-13126
▁बताने	-13127
▁satisfied	-13128
▁:)	-13129
प्रेस	-13130
▁assigned	-13131
rape	-13132
style	-13133
▁झट	-13134
▁Quick	-13135
iscal	-13136
▁Rick	-13137
ुष	-13138
agra	-13139
istent	-13140
▁Theatre	-13141
▁exceptional	-13142
Read	-13143
▁trem	-13144
▁Station	-13145
▁Five	-13146
▁outs	-13147
▁mining	-13148
▁गतिविध	-13149
▁bold	-13150
▁विट	-13151
▁Arm	-13152
▁Independ	-13153
ियं	-13154
▁adj	-13155
▁Editor	-13156
▁residence	-13157
▁resulted	-13158
▁कव	-13159
▁Cancer	-13160
▁dil	-13161
▁Application	-13162
▁sink	-13163
▁frequency	-13164
रीत	-13165
▁lake	-13166
▁Major	-13167
▁universe	-13168
▁4-	-13169
▁मिलाकर	-13170
▁employers	-13171
MM	-13172
पं	-13173
▁Save	-13174
▁hanging	-13175
▁export	-13176
▁प्रसार	-13177
▁Bul	-13178
▁प्रार्थ	-13179
▁Resources	-13180
oom	-13181
▁आकाश	-13182
▁FR	-13183
▁मतदान	-13184
IE	-13185
▁2011.	-13186
▁प्रेस	-13187
▁नियमों	-13188
▁पच	-13189
▁define	-13190
ामद	-13191
▁१६	-13192
▁सिव	-13193
▁[...]	-13194
▁साथी	-13195
▁passes	-13196
▁tort	-13197
▁brothers	-13198
▁guaranteed	-13199
ित्	-13200
▁jail	-13201
▁56	-13202
udes	-13203
▁Kelly	-13204
▁correctly	-13205
/1	-13206
iences	-13207
▁रहेगी	-13208
▁दिखाया	-13209
▁venue	-13210
▁protocol	-13211
▁beneficial	-13212
ंडे	-13213
▁promoting	-13214
ामाण	-13215
व्याप	-13216
▁Early	-13217
tail	-13218
कारा	-13219
▁Marc	-13220
▁चीज़	-13221
▁lawsu	-13222
▁acknowled	-13223
low	-13224
▁CBD	-13225
ेक्षा	-13226
▁grateful	-13227
ूंगा	-13228
▁43	-13229
▁Gi	-13230
▁automatic	-13231
▁Past	-13232
ima	-13233
▁interactive	-13234
▁उन्	-13235
▁नींद	-13236
engers	-13237
▁क्षण	-13238
▁infect	-13239
▁इसको	-13240
heim	-13241
▁चार्ज	-13242
▁cow	-13243
▁proport	-13244
To	-13245
▁Weight	-13246
▁delivering	-13247
▁खेत	-13248
▁शिर	-13249
माता	-13250
▁yoga	-13251
▁Philipp	-13252
▁उल्ल	-13253
▁(“	-13254
▁breaks	-13255
▁AI	-13256
▁मानना	-13257
▁que	-13258
▁recru	-13259
▁विराट	-13260
:-	-13261
जान	-13262
▁bands	-13263
▁speakers	-13264
और	-13265
▁singer	-13266
▁roots	-13267
▁Annual	-13268
▁हफ्ते	-13269
▁कथा	-13270
▁लेता	-13271
▁दिला	-13272
▁2013,	-13273
▁prize	-13274
▁statistics	-13275
flow	-13276
▁honey	-13277
▁विरुद्ध	-13278
▁elections	-13279
▁पीने	-13280
▁targets	-13281
▁भरा	-13282
▁myth	-13283
▁pilot	-13284
▁temperatures	-13285
▁Ak	-13286
क्षर	-13287
▁देवता	-13288
▁intellectual	-13289
eping	-13290
▁Benef	-13291
▁Choose	-13292
▁प्रकरण	-13293
ILL	-13294
▁Computer	-13295
▁संय	-13296
▁वैज्ञानिक	-13297
▁गईं	-13298
तिर	-13299
▁estimate	-13300
ourse	-13301
▁Creek	-13302
▁letting	-13303
▁Pict	-13304
▁स्फ	-13305
दृष्ट	-13306
ादिव	-13307
▁50%	-13308
▁packaging	-13309
▁बध	-13310
mo	-13311
▁प्रदर्श	-13312
▁disaster	-13313
▁समझौ	-13314
▁Lewis	-13315
▁screw	-13316
criptions	-13317
▁officially	-13318
abil	-13319
▁Imm	-13320
▁खतरा	-13321
▁fiction	-13322
▁votes	-13323
▁Atlanta	-13324
▁Front	-13325
▁पठ	-13326
▁complaint	-13327
कथ	-13328
▁Cell	-13329
▁प्राव	-13330
▁screens	-13331
▁Delhi	-13332
विद्या	-13333
▁horiz	-13334
▁श्रुति	-13335
▁2011,	-13336
▁धन्यवाद	-13337
▁gig	-13338
▁horm	-13339
▁Tell	-13340
▁09	-13341
▁लगते	-13342
▁दिये	-13343
▁swing	-13344
▁वचन	-13345
.||	-13346
Book	-13347
▁dose	-13348
▁Scotland	-13349
▁sevent	-13350
▁addressed	-13351
▁ALL	-13352
▁1,000	-13353
▁किञ्च	-13354
▁drives	-13355
▁promotion	-13356
▁पहा	-13357
▁aims	-13358
▁जरुर	-13359
▁gallery	-13360
isd	-13361
▁Singapore	-13362
मं	-13363
etts	-13364
▁रुक	-13365
▁Memorial	-13366
▁recruit	-13367
onymous	-13368
▁hes	-13369
▁fiber	-13370
▁hun	-13371
▁टाइम	-13372
onsin	-13373
▁hitting	-13374
▁Third	-13375
▁लेखक	-13376
▁Limited	-13377
▁Similar	-13378
▁mg	-13379
▁Tig	-13380
▁vert	-13381
▁layers	-13382
▁overse	-13383
▁champion	-13384
▁coaching	-13385
▁जैन	-13386
▁स्वच्छ	-13387
▁licensed	-13388
िरिति	-13389
ugs	-13390
pton	-13391
ियोग	-13392
▁elsewhere	-13393
ibl	-13394
▁5-	-13395
▁चो	-13396
gging	-13397
▁टेक्	-13398
▁mild	-13399
▁peak	-13400
▁ought	-13401
isconsin	-13402
oda	-13403
एसपी	-13404
Man	-13405
▁tons	-13406
▁वकी	-13407
▁divided	-13408
▁creativity	-13409
▁घरों	-13410
▁principle	-13411
▁कले	-13412
▁yours	-13413
▁दाय	-13414
▁मजा	-13415
▁spir	-13416
▁manif	-13417
▁signing	-13418
dney	-13419
▁stability	-13420
▁regulation	-13421
pled	-13422
▁शर्त	-13423
घर	-13424
ECT	-13425
ront	-13426
cope	-13427
▁एक्ट्रेस	-13428
▁Lyn	-13429
▁sleeping	-13430
vironments	-13431
▁terrible	-13432
्यस्य	-13433
▁Core	-13434
▁neuro	-13435
▁स्मृति	-13436
इति	-13437
▁Self	-13438
▁blogs	-13439
▁circle	-13440
िमित्त	-13441
▁northern	-13442
▁पुष्प	-13443
▁52	-13444
umm	-13445
BM	-13446
▁Ali	-13447
▁romantic	-13448
▁आधिकारिक	-13449
▁कृप	-13450
▁resid	-13451
▁बुल	-13452
▁shirt	-13453
▁अधिकांश	-13454
▁Islam	-13455
हीन	-13456
▁यज	-13457
▁Nob	-13458
▁wisdom	-13459
▁convert	-13460
▁लं	-13461
▁चुप	-13462
▁शब्दों	-13463
▁pushing	-13464
▁declared	-13465
▁वाम	-13466
▁(20	-13467
▁Nut	-13468
▁golden	-13469
asted	-13470
शाला	-13471
▁१८	-13472
▁चतुर्थ	-13473
IGH	-13474
▁kil	-13475
▁Body	-13476
▁DI	-13477
arma	-13478
▁expanded	-13479
ंधे	-13480
▁हालात	-13481
▁परिस्थिति	-13482
▁वद	-13483
▁Write	-13484
▁मिश्रा	-13485
high	-13486
ifted	-13487
organ	-13488
जरीवाल	-13489
▁नेशनल	-13490
▁खींच	-13491
▁Employ	-13492
▁आब	-13493
▁किश	-13494
inth	-13495
▁मुल	-13496
▁Prior	-13497
▁Nation	-13498
▁लगाई	-13499
▁स्ट्र	-13500
▁distributed	-13501
▁ye	-13502
▁Total	-13503
ाहि	-13504
olds	-13505
▁ladies	-13506
▁परन्तु	-13507
opher	-13508
▁terr	-13509
▁31,	-13510
▁fib	-13511
▁explo	-13512
aha	-13513
▁fluid	-13514
ractions	-13515
▁Casino	-13516
बारा	-13517
▁User	-13518
▁पुरानी	-13519
▁complim	-13520
▁Transport	-13521
600	-13522
▁oral	-13523
▁charity	-13524
▁13.	-13525
uating	-13526
imp	-13527
लिंग	-13528
chers	-13529
▁भिन्न	-13530
▁crack	-13531
▁Published	-13532
through	-13533
▁immune	-13534
▁viewing	-13535
roduction	-13536
ospel	-13537
▁Pitt	-13538
▁Ast	-13539
▁वाच	-13540
▁Much	-13541
▁लगाकर	-13542
▁अर्ज	-13543
▁संबंधी	-13544
▁पश्य	-13545
▁ho	-13546
▁कथित	-13547
▁organisation	-13548
ORE	-13549
र्वि	-13550
▁ऊंच	-13551
सुर	-13552
▁वर्ल्ड	-13553
Ind	-13554
aval	-13555
▁mad	-13556
▁Patrick	-13557
क्व	-13558
▁explos	-13559
▁लेन	-13560
▁copies	-13561
achus	-13562
▁बीमा	-13563
▁cabin	-13564
▁repeat	-13565
▁प्रबंध	-13566
भ्या	-13567
▁Kind	-13568
▁decrease	-13569
▁खेलने	-13570
मात	-13571
▁Estate	-13572
▁तत्त्व	-13573
▁virtually	-13574
▁difficulty	-13575
▁importantly	-13576
▁designers	-13577
68	-13578
▁Ban	-13579
▁Below	-13580
▁certificate	-13581
▁Bab	-13582
▁settlement	-13583
▁कठिन	-13584
▁तिवारी	-13585
▁overcome	-13586
▁स्थल	-13587
terior	-13588
नुप	-13589
▁#1	-13590
▁tube	-13591
▁Kong	-13592
▁relation	-13593
▁स्टोर	-13594
owed	-13595
▁engines	-13596
▁abilities	-13597
▁diagnosis	-13598
▁Hawai	-13599
▁burning	-13600
▁द्विती	-13601
▁Os	-13602
acular	-13603
▁Month	-13604
▁holes	-13605
▁directions	-13606
64	-13607
▁les	-13608
▁माहौल	-13609
▁passionate	-13610
▁हाउस	-13611
▁Doctor	-13612
▁resume	-13613
▁कौशल	-13614
▁केजरीवाल	-13615
▁Beh	-13616
▁Moo	-13617
ज्ञात	-13618
▁grounds	-13619
▁योजनाओं	-13620
ल्ट	-13621
▁Tel	-13622
▁immun	-13623
▁heating	-13624
▁implemented	-13625
▁summary	-13626
unate	-13627
▁mask	-13628
▁Update	-13629
▁stomach	-13630
▁Finance	-13631
▁scoring	-13632
▁surge	-13633
▁वास्तविक	-13634
▁consultation	-13635
▁compe	-13636
▁semi	-13637
ordinary	-13638
▁insights	-13639
▁सिने	-13640
ासु	-13641
▁Break	-13642
▁developer	-13643
▁चोद	-13644
▁जाव	-13645
त्तेः	-13646
िकेशन	-13647
▁चेन्न	-13648
ustration	-13649
▁कहती	-13650
▁weigh	-13651
सः	-13652
avor	-13653
▁नान	-13654
▁Nothing	-13655
raine	-13656
▁Winter	-13657
▁याव	-13658
▁equity	-13659
▁Attorney	-13660
gments	-13661
▁stocks	-13662
novation	-13663
▁conversations	-13664
बंदी	-13665
▁१९	-13666
▁हाँ	-13667
▁exploring	-13668
%)	-13669
▁Less	-13670
▁सेवाओं	-13671
▁consistently	-13672
▁SD	-13673
▁boot	-13674
ाउंड	-13675
▁ईश्वर	-13676
▁Prince	-13677
▁pursue	-13678
▁फिट	-13679
▁Chem	-13680
▁algorith	-13681
▁respective	-13682
▁Pers	-13683
▁प्रथ	-13684
▁समस्त	-13685
त्रियों	-13686
▁nursing	-13687
mic	-13688
▁toile	-13689
▁accompan	-13690
▁responded	-13691
▁ski	-13692
▁themes	-13693
▁वाच्य	-13694
vation	-13695
▁currency	-13696
▁आशा	-13697
▁विना	-13698
▁regulatory	-13699
लान	-13700
ेऽपि	-13701
▁180	-13702
भ्युप	-13703
▁voting	-13704
▁Rus	-13705
▁99	-13706
माल	-13707
▁क्यू	-13708
▁2010,	-13709
▁happiness	-13710
▁Gallery	-13711
agers	-13712
▁math	-13713
▁कहता	-13714
▁नवीन	-13715
rary	-13716
TP	-13717
after	-13718
Oh	-13719
▁impression	-13720
omed	-13721
▁align	-13722
▁सैनिक	-13723
▁scream	-13724
▁distingu	-13725
▁vulnerable	-13726
▁amongst	-13727
▁poker	-13728
▁गौरतलब	-13729
elve	-13730
▁substance	-13731
/10	-13732
▁moon	-13733
▁Anderson	-13734
▁setup	-13735
cho	-13736
▁साधन	-13737
ishment	-13738
▁85	-13739
▁flaw	-13740
▁Unt	-13741
▁indu	-13742
zzle	-13743
▁जुड़	-13744
reement	-13745
▁codes	-13746
arents	-13747
▁Ult	-13748
▁versus	-13749
ोकर	-13750
▁recall	-13751
edge	-13752
ुक्तं	-13753
▁मुसलमान	-13754
OG	-13755
▁परिजनों	-13756
▁movements	-13757
▁podcast	-13758
▁accordance	-13759
▁रोल	-13760
▁पत्त	-13761
oln	-13762
चरण	-13763
▁cha	-13764
▁व्रत	-13765
▁refused	-13766
▁संगठ	-13767
▁aimed	-13768
tical	-13769
▁स्वर	-13770
iy	-13771
दिश	-13772
▁स्कूलों	-13773
▁चित्त	-13774
▁gam	-13775
gener	-13776
▁bass	-13777
▁निपट	-13778
▁लाइफ	-13779
hop	-13780
देन	-13781
▁08	-13782
▁(2)	-13783
▁खुलासा	-13784
▁Wisconsin	-13785
mod	-13786
▁जिलों	-13787
▁Origin	-13788
▁Studio	-13789
achusetts	-13790
uana	-13791
▁dramatic	-13792
▁कार्यवाही	-13793
cor	-13794
▁Sant	-13795
ieve	-13796
▁surely	-13797
चित्र	-13798
न्यास	-13799
cycle	-13800
▁पुष्टि	-13801
▁functionality	-13802
▁2010.	-13803
▁Eag	-13804
atile	-13805
iatric	-13806
ALL	-13807
▁Mix	-13808
▁ग्ल	-13809
▁तकनीक	-13810
▁गम	-13811
▁mountains	-13812
▁hub	-13813
verty	-13814
▁strengthen	-13815
▁DJ	-13816
▁reviewed	-13817
▁Iowa	-13818
▁हथियार	-13819
▁survival	-13820
uis	-13821
▁insert	-13822
emed	-13823
▁Judge	-13824
▁10-	-13825
▁Cli	-13826
▁cotton	-13827
MI	-13828
▁Hom	-13829
▁enorm	-13830
▁Comb	-13831
▁Nature	-13832
▁तस्वीरें	-13833
oen	-13834
▁रोहित	-13835
Hz	-13836
▁BB	-13837
▁डायरे	-13838
हल	-13839
▁experiencing	-13840
इड	-13841
rous	-13842
▁reven	-13843
▁Exchange	-13844
▁Final	-13845
लैंड	-13846
▁जमकर	-13847
▁banking	-13848
▁editing	-13849
ास्	-13850
▁ax	-13851
▁न्यूज़	-13852
▁absence	-13853
▁environments	-13854
▁bub	-13855
▁immigr	-13856
▁nervous	-13857
▁subscription	-13858
IVE	-13859
core	-13860
aintiff	-13861
▁narrative	-13862
6)	-13863
तोऽ	-13864
shire	-13865
▁छे	-13866
▁sculpt	-13867
▁Univers	-13868
▁investing	-13869
▁Jane	-13870
▁Reading	-13871
▁poverty	-13872
भोक्त	-13873
▁divide	-13874
▁viewed	-13875
hyth	-13876
▁campaigns	-13877
▁accounting	-13878
lined	-13879
▁worship	-13880
▁Jews	-13881
▁wooden	-13882
▁विशाल	-13883
▁lowest	-13884
▁Detroit	-13885
▁Overall	-13886
cend	-13887
▁Cooper	-13888
▁argue	-13889
▁खाद्य	-13890
▁Moon	-13891
assion	-13892
रक	-13893
▁पहुंचने	-13894
▁Christians	-13895
▁व्हा	-13896
स्टर	-13897
▁evaluate	-13898
स्फ	-13899
herent	-13900
▁लाखों	-13901
▁earnings	-13902
▁walks	-13903
▁Return	-13904
▁Private	-13905
agen	-13906
giving	-13907
▁aged	-13908
▁actors	-13909
▁छोड़कर	-13910
्ब	-13911
▁2017.	-13912
▁Blu	-13913
HL	-13914
▁brush	-13915
▁defect	-13916
▁Appro	-13917
▁gonna	-13918
▁Hong	-13919
▁disorder	-13920
▁completion	-13921
धारा	-13922
▁Map	-13923
achelor	-13924
रेज	-13925
▁भय	-13926
▁Conc	-13927
▁आर्टिकल	-13928
▁incent	-13929
ista	-13930
pers	-13931
मूल	-13932
ouses	-13933
संह	-13934
ुस्त	-13935
ao	-13936
▁Hur	-13937
ishop	-13938
▁जागरूक	-13939
ाजन	-13940
▁194	-13941
▁तादृश	-13942
र्पित	-13943
▁abroad	-13944
▁निर्वा	-13945
▁knee	-13946
▁Village	-13947
▁Environmental	-13948
ैंक	-13949
▁प्रोज	-13950
▁measured	-13951
▁thro	-13952
▁अवश्य	-13953
▁ज़ि	-13954
▁Trib	-13955
▁सोचा	-13956
acteria	-13957
▁hiring	-13958
▁initiatives	-13959
oning	-13960
▁garlic	-13961
ज़ी	-13962
▁advertise	-13963
▁ET	-13964
क्रो	-13965
▁आलो	-13966
▁clicking	-13967
▁signature	-13968
▁tradem	-13969
build	-13970
▁अभिन	-13971
▁discovery	-13972
▁Ren	-13973
त्वम	-13974
▁Alp	-13975
▁संपाद	-13976
कोट	-13977
▁72	-13978
▁संशोध	-13979
्यावरण	-13980
▁comedy	-13981
▁Les	-13982
▁rolling	-13983
▁अजय	-13984
▁safely	-13985
▁utility	-13986
▁smartphone	-13987
cest	-13988
olid	-13989
icked	-13990
▁ordinary	-13991
urches	-13992
▁applies	-13993
One	-13994
किल	-13995
▁denied	-13996
▁वेतन	-13997
▁relating	-13998
▁Buff	-13999
▁Yeah	-14000
▁therm	-14001
▁भरोसा	-14002
▁क्लास	-14003
▁behaviour	-14004
मतौर	-14005
▁examine	-14006
मैन	-14007
▁sear	-14008
pire	-14009
atern	-14010
▁Ross	-14011
▁Saint	-14012
▁deaths	-14013
▁IC	-14014
erk	-14015
▁keys	-14016
▁trusted	-14017
▁generations	-14018
▁Victoria	-14019
this	-14020
▁edit	-14021
ultane	-14022
▁Jacob	-14023
▁Electric	-14024
▁कमल	-14025
▁troops	-14026
elle	-14027
▁voted	-14028
▁agenda	-14029
▁आरोपियों	-14030
▁hopefully	-14031
▁रहीं	-14032
▁Tro	-14033
▁picking	-14034
▁eliminate	-14035
▁unlikely	-14036
ंव	-14037
ुआ	-14038
▁05	-14039
▁Must	-14040
▁gathered	-14041
▁mit	-14042
▁couples	-14043
▁representatives	-14044
▁Iron	-14045
▁universities	-14046
▁€	-14047
▁सख्त	-14048
▁subsequent	-14049
▁Drag	-14050
ologists	-14051
्यूर	-14052
▁Edition	-14053
▁races	-14054
▁हरि	-14055
▁explanation	-14056
irk	-14057
▁URL	-14058
ey	-14059
oj	-14060
▁Allen	-14061
▁acquire	-14062
▁refuge	-14063
▁winners	-14064
▁Sale	-14065
▁Sydney	-14066
▁examination	-14067
▁Unlike	-14068
▁Ont	-14069
▁Reviews	-14070
▁लाइव	-14071
gi	-14072
▁tries	-14073
▁सीबीआई	-14074
▁उठाया	-14075
ito	-14076
▁पथ	-14077
्यादि	-14078
▁refe	-14079
▁sequence	-14080
▁contributed	-14081
▁व्याव	-14082
▁कमे	-14083
▁वापसी	-14084
▁संक्रमित	-14085
्प्र	-14086
▁अपर	-14087
▁मीटर	-14088
▁invite	-14089
▁आतं	-14090
▁warranty	-14091
sole	-14092
▁सेव	-14093
▁टेली	-14094
▁duties	-14095
ेलन	-14096
apse	-14097
▁पढ	-14098
▁panels	-14099
onut	-14100
▁स्वर्ग	-14101
▁Massachusetts	-14102
http	-14103
िसी	-14104
▁Economic	-14105
▁Michel	-14106
iate	-14107
निष्ठ	-14108
▁possibilities	-14109
▁Luc	-14110
▁अंग्रेजी	-14111
▁इंजी	-14112
▁Besides	-14113
AV	-14114
▁hardly	-14115
▁तृतीय	-14116
▁conservative	-14117
rix	-14118
▁महाराज	-14119
▁पद्म	-14120
▁weapon	-14121
▁वैक्सीन	-14122
▁franchise	-14123
▁शिल	-14124
▁मकान	-14125
FF	-14126
▁fert	-14127
▁demonstrated	-14128
aa	-14129
दर्भ	-14130
▁dies	-14131
▁चारों	-14132
vo	-14133
aware	-14134
▁संविधान	-14135
py	-14136
▁एक्	-14137
्यमिति	-14138
▁container	-14139
▁ministry	-14140
िद्ध	-14141
igious	-14142
▁Terms	-14143
▁manip	-14144
▁तारीख	-14145
▁Scient	-14146
▁physician	-14147
▁जिम्मेदार	-14148
▁Clark	-14149
▁abund	-14150
otion	-14151
▁शिश	-14152
▁exercises	-14153
mann	-14154
▁dipl	-14155
▁श्रृ	-14156
▁संचालन	-14157
atellite	-14158
▁Cla	-14159
nie	-14160
▁CM	-14161
▁स्वभाव	-14162
▁DE	-14163
▁नग	-14164
पुरुष	-14165
lix	-14166
Cont	-14167
▁excite	-14168
▁नारायण	-14169
▁formation	-14170
▁rac	-14171
▁booking	-14172
▁Solutions	-14173
▁productivity	-14174
▁खुले	-14175
rep	-14176
▁पंड	-14177
oli	-14178
िमिट	-14179
▁2014.	-14180
rine	-14181
▁dual	-14182
▁ताकत	-14183
▁captured	-14184
नन	-14185
itative	-14186
▁disturb	-14187
▁slic	-14188
▁destroyed	-14189
72	-14190
▁tremend	-14191
भिध	-14192
▁झूठ	-14193
▁wider	-14194
▁14.	-14195
▁मुद्द	-14196
▁Jess	-14197
▁Mind	-14198
▁Tips	-14199
orship	-14200
isan	-14201
▁chips	-14202
▁Making	-14203
▁Complete	-14204
▁Barn	-14205
▁ईमेल	-14206
▁Vin	-14207
▁Later	-14208
vol	-14209
▁हिम	-14210
pany	-14211
▁2.0	-14212
ीप	-14213
▁सेक	-14214
▁बॉक्स	-14215
▁1998	-14216
▁Death	-14217
▁objectives	-14218
तुर	-14219
तिरे	-14220
screen	-14221
▁utilize	-14222
itate	-14223
▁elder	-14224
▁खून	-14225
▁1960	-14226
▁cats	-14227
▁समझा	-14228
▁retired	-14229
▁दत्त	-14230
▁horses	-14231
सास	-14232
▁ओपन	-14233
agraph	-14234
▁quotes	-14235
arat	-14236
चित्	-14237
▁तिल	-14238
mate	-14239
▁Title	-14240
was	-14241
▁Az	-14242
▁lun	-14243
offs	-14244
▁असम	-14245
▁Text	-14246
▁बचाव	-14247
▁Rober	-14248
▁वर्मा	-14249
▁अनिवार	-14250
▁दूसरों	-14251
▁Single	-14252
ricted	-14253
▁स्थिर	-14254
game	-14255
▁fantasy	-14256
▁harvest	-14257
▁अस्थ	-14258
▁ब्याज	-14259
ष्व	-14260
▁इद	-14261
van	-14262
विधि	-14263
▁तकनीकी	-14264
▁smoking	-14265
▁Creative	-14266
पूर्वक	-14267
▁barely	-14268
्लाई	-14269
प्रयोग	-14270
▁Marsh	-14271
▁क्रेड	-14272
▁आमतौर	-14273
▁networking	-14274
▁बच्चा	-14275
▁सॉफ्ट	-14276
ंदे	-14277
▁भि	-14278
▁reply	-14279
▁Sciences	-14280
who	-14281
▁काउ	-14282
▁फें	-14283
▁Trad	-14284
▁stops	-14285
िनियम	-14286
▁Rail	-14287
▁तत्स	-14288
▁estimates	-14289
दीय	-14290
amics	-14291
▁पत्थ	-14292
▁सत्या	-14293
वेट	-14294
▁सत्त	-14295
▁Friends	-14296
▁ठाक	-14297
UST	-14298
▁actively	-14299
▁emphasis	-14300
▁Assistant	-14301
▁51	-14302
asty	-14303
▁precious	-14304
/3	-14305
▁instruments	-14306
कश	-14307
िप्त	-14308
hesis	-14309
▁ब्रांड	-14310
iden	-14311
ighth	-14312
▁अश्व	-14313
▁मंजू	-14314
▁mechanism	-14315
▁सर्वो	-14316
▁continuous	-14317
▁ranging	-14318
▁2015.	-14319
▁Hills	-14320
Ed	-14321
▁toys	-14322
ख्यान	-14323
▁penalty	-14324
▁वृद्ध	-14325
▁skilled	-14326
▁प्रभावी	-14327
▁da	-14328
▁उत्पादों	-14329
ni	-14330
ITY	-14331
▁Future	-14332
▁representing	-14333
▁remarkable	-14334
▁BBC	-14335
▁conversion	-14336
▁शारीरिक	-14337
Do	-14338
▁meaningful	-14339
-11	-14340
▁5:	-14341
ीयते	-14342
▁....	-14343
▁sorts	-14344
dri	-14345
lah	-14346
eman	-14347
▁hunt	-14348
▁मानते	-14349
▁Turkey	-14350
▁Given	-14351
▁CF	-14352
arring	-14353
गान	-14354
▁belt	-14355
▁कराई	-14356
▁grocer	-14357
▁दृ	-14358
▁मया	-14359
▁unem	-14360
▁10%	-14361
▁बदलने	-14362
▁worker	-14363
▁Prim	-14364
fire	-14365
▁सम्य	-14366
▁hospitals	-14367
▁नज	-14368
▁10:	-14369
▁tablet	-14370
▁instantly	-14371
uz	-14372
▁sli	-14373
▁अल्प	-14374
▁Grant	-14375
▁roughly	-14376
▁फे	-14377
▁laser	-14378
▁मोहम्मद	-14379
▁sexy	-14380
incoln	-14381
▁reserve	-14382
।'	-14383
▁Excell	-14384
▁graphic	-14385
▁workplace	-14386
ग्नि	-14387
▁trailer	-14388
▁प्रतिनिध	-14389
At	-14390
acles	-14391
▁Ocean	-14392
▁releases	-14393
minute	-14394
uminum	-14395
ethe	-14396
▁भौ	-14397
▁lemon	-14398
▁Baby	-14399
▁mirror	-14400
▁gambling	-14401
▁§	-14402
▁15.	-14403
▁दास	-14404
▁बरामद	-14405
▁solely	-14406
▁अनुस	-14407
▁compos	-14408
▁गाने	-14409
▁junior	-14410
▁assembly	-14411
▁UC	-14412
▁फैंस	-14413
called	-14414
▁disag	-14415
aver	-14416
लाल	-14417
▁fed	-14418
ijuana	-14419
स्ट्री	-14420
▁आईपीएल	-14421
▁convenience	-14422
▁रखता	-14423
तम्	-14424
ाग्राम	-14425
▁संयोग	-14426
▁athletes	-14427
▁बौ	-14428
▁teasp	-14429
▁desktop	-14430
aved	-14431
▁Additional	-14432
▁ब्लॉक	-14433
5)	-14434
dep	-14435
omic	-14436
ार्थं	-14437
▁खेती	-14438
▁profits	-14439
हीद	-14440
▁इंजन	-14441
▁इनका	-14442
▁Governor	-14443
onds	-14444
▁Nat	-14445
▁overnight	-14446
▁fault	-14447
▁मुकद	-14448
▁पर्यावरण	-14449
▁Nations	-14450
iva	-14451
र्त्त	-14452
▁threats	-14453
▁administrative	-14454
▁impressed	-14455
▁मनोर	-14456
Te	-14457
▁Corp	-14458
▁Sony	-14459
▁seam	-14460
▁समुद्र	-14461
▁settled	-14462
खर	-14463
arth	-14464
▁Mail	-14465
▁अभिनेता	-14466
▁certification	-14467
ादौ	-14468
डियो	-14469
▁लुक	-14470
▁concentration	-14471
rett	-14472
▁सीटों	-14473
▁territory	-14474
,'	-14475
ICE	-14476
vity	-14477
▁पॉल	-14478
▁blame	-14479
KE	-14480
essee	-14481
न्ने	-14482
द्वार	-14483
sized	-14484
▁Channel	-14485
▁supporters	-14486
TE	-14487
bourne	-14488
▁Laure	-14489
▁Indiana	-14490
oof	-14491
ाणां	-14492
uates	-14493
▁प्राकृतिक	-14494
▁विधाय	-14495
▁टू	-14496
oper	-14497
▁1/4	-14498
▁Install	-14499
▁lawyers	-14500
दृश	-14501
pool	-14502
▁Anthony	-14503
▁checks	-14504
▁Bitcoin	-14505
▁scenario	-14506
▁आतंकी	-14507
▁exch	-14508
▁आपसे	-14509
▁प्रदू	-14510
▁physically	-14511
▁scar	-14512
▁इंडियन	-14513
▁Simply	-14514
▁खूबसूरत	-14515
▁followers	-14516
▁Simon	-14517
effect	-14518
▁globe	-14519
णः	-14520
▁(9	-14521
▁Along	-14522
▁fired	-14523
▁contents	-14524
oa	-14525
▁मारे	-14526
सम्बन्ध	-14527
▁स्थानों	-14528
▁सपना	-14529
▁अभिनेत्री	-14530
ickets	-14531
wall	-14532
▁Emm	-14533
▁एष	-14534
ouri	-14535
ेवं	-14536
▁tu	-14537
▁cher	-14538
▁publishing	-14539
▁बाय	-14540
itches	-14541
▁angry	-14542
▁spell	-14543
▁कोड	-14544
▁tong	-14545
▁1-	-14546
▁curriculum	-14547
week	-14548
▁referr	-14549
▁2016.	-14550
▁Getting	-14551
▁prescription	-14552
▁IV	-14553
▁angle	-14554
▁frequent	-14555
▁Relations	-14556
▁collective	-14557
▁भोग	-14558
श्रेष्ठ	-14559
▁Da	-14560
▁जाओ	-14561
▁चलाने	-14562
aga	-14563
▁(0	-14564
▁Send	-14565
▁alloc	-14566
▁Roy	-14567
▁slots	-14568
ावत	-14569
▁Snow	-14570
▁habits	-14571
▁alleg	-14572
मंद	-14573
winning	-14574
▁Regional	-14575
▁वैश्विक	-14576
▁shortly	-14577
▁indicates	-14578
▁सकारात्मक	-14579
▁thy	-14580
▁Rome	-14581
दास	-14582
ात्रि	-14583
▁aer	-14584
▁चेति	-14585
▁beef	-14586
▁presidential	-14587
uman	-14588
icals	-14589
▁vendors	-14590
▁produces	-14591
May	-14592
▁HR	-14593
▁Song	-14594
▁gathering	-14595
▁Affairs	-14596
▁संबोधित	-14597
▁Side	-14598
▁synd	-14599
▁ट्रे	-14600
▁babies	-14601
▁पाएंगे	-14602
▁Industry	-14603
▁Hart	-14604
▁त्रि	-14605
▁uncle	-14606
ifi	-14607
section	-14608
▁Blood	-14609
▁painted	-14610
▁चीजें	-14611
▁समझने	-14612
▁servers	-14613
▁composition	-14614
even	-14615
▁sne	-14616
▁Within	-14617
▁reception	-14618
▁inhib	-14619
▁acquisition	-14620
▁पर्	-14621
Ne	-14622
▁Anton	-14623
▁Currently	-14624
▁Questions	-14625
▁drove	-14626
▁Albert	-14627
वत	-14628
ping	-14629
▁निभ	-14630
▁हरी	-14631
सप	-14632
▁कैमरा	-14633
▁finishing	-14634
▁Grad	-14635
▁aest	-14636
▁Indeed	-14637
▁roy	-14638
▁maps	-14639
▁Performance	-14640
▁por	-14641
fections	-14642
rus	-14643
▁gal	-14644
▁hal	-14645
▁Israeli	-14646
▁लंबी	-14647
▁sour	-14648
▁आएगा	-14649
▁dozen	-14650
▁Maryland	-14651
▁Mort	-14652
▁entrepreneurs	-14653
ested	-14654
▁$50	-14655
▁Manufact	-14656
▁emissions	-14657
▁stupid	-14658
▁immigration	-14659
▁involvement	-14660
भाषा	-14661
▁2.5	-14662
▁बनाते	-14663
▁$20	-14664
▁fool	-14665
▁तंत्र	-14666
▁क्रेडिट	-14667
▁trials	-14668
▁सकेंगे	-14669
▁Laur	-14670
▁nutrition	-14671
▁Gab	-14672
tains	-14673
▁complement	-14674
▁कं	-14675
▁stack	-14676
▁steam	-14677
▁tackle	-14678
▁resolve	-14679
▁dialogue	-14680
▁venture	-14681
▁aggressive	-14682
▁Lock	-14683
▁भवेत्	-14684
▁Planning	-14685
▁07	-14686
▁vine	-14687
▁बरा	-14688
▁Course	-14689
▁workout	-14690
▁(8	-14691
ांसी	-14692
ormal	-14693
▁Speed	-14694
prof	-14695
▁Var	-14696
▁accum	-14697
▁आतंकवाद	-14698
▁petition	-14699
rimination	-14700
▁suppliers	-14701
▁नीतीश	-14702
▁अभ्यास	-14703
▁Near	-14704
▁Pick	-14705
▁गंगा	-14706
▁hindi	-14707
▁ठाकुर	-14708
▁genetic	-14709
▁PL	-14710
▁बिट	-14711
▁Integr	-14712
▁purchases	-14713
sea	-14714
▁screening	-14715
▁deserve	-14716
▁Better	-14717
▁displays	-14718
▁Championship	-14719
Me	-14720
▁innoc	-14721
▁दुख	-14722
▁Linux	-14723
▁expense	-14724
▁सिक	-14725
papers	-14726
▁Altern	-14727
▁Location	-14728
▁representation	-14729
▁provisions	-14730
iox	-14731
iro	-14732
ातः	-14733
▁NS	-14734
ोत्र	-14735
piece	-14736
▁कॉन्	-14737
ाधिकरण	-14738
▁balls	-14739
▁preced	-14740
▁modified	-14741
▁intervention	-14742
▁शहरों	-14743
▁अनुकूल	-14744
▁जहा	-14745
ंखला	-14746
ारेण	-14747
▁Sym	-14748
न्तरं	-14749
▁Islamic	-14750
▁retain	-14751
▁inev	-14752
▁beans	-14753
▁Atlantic	-14754
करा	-14755
जाति	-14756
▁promised	-14757
▁chemicals	-14758
▁nobody	-14759
▁suspend	-14760
▁documentation	-14761
cop	-14762
िक्ख	-14763
चस्प	-14764
▁Dur	-14765
▁layout	-14766
▁texture	-14767
▁Plant	-14768
▁द्वार	-14769
▁प्रारंभ	-14770
कोर्ट	-14771
ात्व	-14772
▁Gre	-14773
grade	-14774
▁hosts	-14775
mat	-14776
▁१७	-14777
▁ranked	-14778
CR	-14779
▁परिसर	-14780
▁लॉकडाउन	-14781
▁nutri	-14782
▁jurisd	-14783
xygen	-14784
▁प्रि	-14785
▁pizza	-14786
▁Bureau	-14787
▁whereas	-14788
▁Analysis	-14789
▁mold	-14790
टीन	-14791
▁Edward	-14792
ori	-14793
ifully	-14794
▁सः	-14795
airy	-14796
don	-14797
date	-14798
▁दैनिक	-14799
▁विश्लेषण	-14800
TR	-14801
▁Crit	-14802
▁नाय	-14803
quarters	-14804
▁prominent	-14805
वर्ड	-14806
▁Howard	-14807
▁hunting	-14808
▁surrounded	-14809
occ	-14810
ेस्क	-14811
▁credits	-14812
▁शत्र	-14813
▁आपूर्ति	-14814
▁FIG	-14815
▁स्कोर	-14816
िवर्सिटी	-14817
NS	-14818
ृते	-14819
▁inventory	-14820
▁2009,	-14821
itarian	-14822
▁दर्शकों	-14823
▁अष्ट	-14824
▁Represent	-14825
backs	-14826
▁शांत	-14827
▁simultane	-14828
▁cooperation	-14829
▁360	-14830
▁कहाँ	-14831
found	-14832
▁newsletter	-14833
rell	-14834
▁Move	-14835
▁Fab	-14836
▁Advent	-14837
▁colours	-14838
Med	-14839
▁6-	-14840
cr	-14841
▁Morgan	-14842
▁conj	-14843
▁workshops	-14844
allel	-14845
ङ्गी	-14846
▁ox	-14847
/200	-14848
▁caps	-14849
orneys	-14850
▁enhanced	-14851
▁operational	-14852
▁उज	-14853
▁salary	-14854
▁expanding	-14855
73	-14856
▁gang	-14857
▁पवित्र	-14858
मव	-14859
▁waves	-14860
दिष्ट	-14861
▁अशोक	-14862
▁Jean	-14863
▁सवार	-14864
▁worn	-14865
▁tears	-14866
otive	-14867
▁Explore	-14868
▁सम्मेलन	-14869
▁prevention	-14870
?’	-14871
▁इंजीनियर	-14872
तें	-14873
बारी	-14874
——	-14875
!!!!	-14876
▁परं	-14877
▁तैनात	-14878
▁स्टॉक	-14879
▁Always	-14880
▁cooked	-14881
▁inquir	-14882
▁delivers	-14883
▁आंखों	-14884
▁encouraging	-14885
▁(10	-14886
▁सड़	-14887
▁matching	-14888
▁जंग	-14889
▁alert	-14890
▁beliefs	-14891
▁organisations	-14892
नू	-14893
▁signals	-14894
▁Assembly	-14895
IB	-14896
घटना	-14897
▁पेड़	-14898
▁Py	-14899
▁हंस	-14900
भिचार	-14901
▁निष्प	-14902
▁fake	-14903
▁आशी	-14904
▁developments	-14905
PN	-14906
▁Machine	-14907
udi	-14908
▁Compan	-14909
▁convey	-14910
/5	-14911
tic	-14912
▁tender	-14913
▁drum	-14914
▁संकल्प	-14915
▁Golf	-14916
▁अनिल	-14917
▁हिन्दू	-14918
▁divorce	-14919
ाद्ध	-14920
▁कल्पना	-14921
loved	-14922
▁quantity	-14923
▁overwhelming	-14924
▁Cele	-14925
▁associate	-14926
ादिक	-14927
▁चिर	-14928
▁कामया	-14929
▁इश	-14930
▁स्वीक	-14931
ाच	-14932
▁EC	-14933
▁अग्रवाल	-14934
ल्स	-14935
▁03	-14936
▁BR	-14937
lace	-14938
▁Orange	-14939
▁शत	-14940
▁Balt	-14941
▁माने	-14942
athon	-14943
▁ढंग	-14944
▁Gene	-14945
▁डाला	-14946
▁Writing	-14947
▁operated	-14948
▁खड़ी	-14949
atching	-14950
▁restore	-14951
▁यूनिवर्सिटी	-14952
▁आहार	-14953
▁fiscal	-14954
walk	-14955
▁pour	-14956
▁शहीद	-14957
iances	-14958
▁cancell	-14959
▁क्रिप्ट	-14960
▁मय	-14961
home	-14962
▁जाम	-14963
FT	-14964
▁cogn	-14965
▁inflamm	-14966
PP	-14967
▁Navy	-14968
▁प्रोजेक्ट	-14969
▁इंस्टाग्राम	-14970
▁नोटिस	-14971
▁carpet	-14972
],	-14973
▁खंड	-14974
angle	-14975
▁annoy	-14976
▁fulfill	-14977
inst	-14978
▁सिख	-14979
▁Records	-14980
▁Advanced	-14981
▁tutorial	-14982
▁बेर	-14983
▁Palestin	-14984
ध्ये	-14985
▁Server	-14986
pur	-14987
▁crimes	-14988
▁bearing	-14989
▁flights	-14990
||1	-14991
itzer	-14992
श्चर्य	-14993
▁नास्ति	-14994
▁encount	-14995
Mar	-14996
cience	-14997
▁जयपुर	-14998
▁सफर	-14999
▁ruling	-15000
▁betting	-15001
Yes	-15002
धीरे	-15003
रः	-15004
▁ta	-15005
▁Lincoln	-15006
▁अनिवार्य	-15007
QL	-15008
▁हरा	-15009
▁Consider	-15010
▁possession	-15011
▁Had	-15012
▁Dean	-15013
▁dough	-15014
▁Mand	-15015
▁Classic	-15016
▁Burn	-15017
▁सीजन	-15018
▁प्रतिभा	-15019
श्रम	-15020
▁crown	-15021
▁cyber	-15022
akh	-15023
▁lips	-15024
▁Medic	-15025
▁myster	-15026
▁thoroughly	-15027
▁Whats	-15028
▁drain	-15029
▁कमेंट	-15030
▁damages	-15031
▁removing	-15032
▁arrangements	-15033
ेगा	-15034
▁bell	-15035
▁differently	-15036
▁भ्रष्टाचार	-15037
▁कार्यकर्ताओं	-15038
▁extraordinary	-15039
▁veteran	-15040
▁Wars	-15041
▁protecting	-15042
olen	-15043
▁जानी	-15044
osit	-15045
▁खिल	-15046
▁Forum	-15047
▁toxic	-15048
▁fruits	-15049
▁मुद्दों	-15050
dr	-15051
oz	-15052
▁recept	-15053
▁Tennessee	-15054
▁occasionally	-15055
98	-15056
▁पश	-15057
▁Cool	-15058
▁migr	-15059
▁बृह	-15060
▁leaf	-15061
▁Round	-15062
▁Bowl	-15063
ANT	-15064
ेषाम	-15065
▁पावर	-15066
▁Entertain	-15067
▁इसीलिए	-15068
▁विपरीत	-15069
ez	-15070
igence	-15071
isticated	-15072
▁अखबार	-15073
▁02	-15074
▁दुर	-15075
▁phrase	-15076
▁coaches	-15077
▁metab	-15078
जिट	-15079
▁passengers	-15080
▁1⁄	-15081
▁hired	-15082
▁सिनेमा	-15083
▁references	-15084
ften	-15085
▁Manchester	-15086
्याल	-15087
covery	-15088
▁Ident	-15089
▁Pear	-15090
uh	-15091
aceut	-15092
▁BC	-15093
▁cinem	-15094
्यूट	-15095
▁मंडल	-15096
िदं	-15097
कृष्ण	-15098
▁प्रौ	-15099
▁Leon	-15100
▁बैंकों	-15101
▁processed	-15102
▁अर्थव्यवस्था	-15103
▁Imp	-15104
▁शास	-15105
प्रसङ्ग	-15106
▁विरोधी	-15107
graduate	-15108
▁adequate	-15109
ricts	-15110
▁clip	-15111
▁specified	-15112
▁अकेले	-15113
▁passage	-15114
▁producers	-15115
▁celebrated	-15116
▁पदा	-15117
ropri	-15118
uum	-15119
वह	-15120
ापे	-15121
तिरिक्त	-15122
▁खबरों	-15123
▁Gree	-15124
▁Gil	-15125
▁बढ़ते	-15126
▁sectors	-15127
addy	-15128
61	-15129
idal	-15130
▁बचने	-15131
▁excitement	-15132
व्यू	-15133
▁आतंकियों	-15134
63	-15135
▁न्यून	-15136
▁elegant	-15137
▁तर्हि	-15138
▁bacteria	-15139
▁Birth	-15140
▁Moore	-15141
▁olive	-15142
▁भोपाल	-15143
▁विद्व	-15144
asion	-15145
▁Veter	-15146
▁upset	-15147
▁Defense	-15148
▁Days	-15149
▁pets	-15150
▁stem	-15151
abling	-15152
▁$4	-15153
▁comic	-15154
▁defeat	-15155
▁Kitchen	-15156
ण्डल	-15157
▁Perfect	-15158
▁reverse	-15159
adesh	-15160
▁Poly	-15161
▁Compet	-15162
म्भव	-15163
▁नये	-15164
▁Afghanistan	-15165
▁mattress	-15166
▁95	-15167
▁कश्च	-15168
▁उपभोक्त	-15169
▁transformation	-15170
scale	-15171
ध्याय	-15172
bage	-15173
▁acres	-15174
क्या	-15175
▁Lib	-15176
▁libr	-15177
lahoma	-15178
▁जिसमे	-15179
▁integrity	-15180
▁जगत	-15181
▁श्रेणी	-15182
▁reveals	-15183
▁concluded	-15184
सेन	-15185
▁hyp	-15186
imm	-15187
▁ह्य	-15188
▁दीपक	-15189
▁कानूनी	-15190
cal	-15191
▁chef	-15192
▁balanced	-15193
▁jewelry	-15194
▁essays	-15195
ादीनां	-15196
▁vintage	-15197
हेतु	-15198
▁झार	-15199
▁दिलचस्प	-15200
▁jury	-15201
▁टिप्पणी	-15202
overs	-15203
▁legacy	-15204
▁संग्रह	-15205
▁Champions	-15206
▁Hig	-15207
▁refers	-15208
▁बुरा	-15209
interest	-15210
▁buyer	-15211
▁Lat	-15212
▁पृथिव	-15213
▁बाग	-15214
▁regime	-15215
▁rescue	-15216
▁Ave	-15217
▁2018.	-15218
▁Mayor	-15219
dro	-15220
fish	-15221
62	-15222
टिल	-15223
▁begun	-15224
य्	-15225
▁आदर्श	-15226
▁IM	-15227
▁इर	-15228
▁ships	-15229
ifier	-15230
▁anger	-15231
▁लक्ष्मी	-15232
संग	-15233
ाज्ञ	-15234
ैक्ट	-15235
ोत्तर	-15236
▁electro	-15237
▁Peace	-15238
▁shapes	-15239
▁प्रोग्राम	-15240
Sp	-15241
मेण	-15242
▁गत	-15243
▁Could	-15244
▁bene	-15245
▁robust	-15246
ingham	-15247
▁Details	-15248
▁Rh	-15249
▁बढ	-15250
▁competitors	-15251
प्ट	-15252
▁उठाने	-15253
function	-15254
▁anybody	-15255
▁accommodation	-15256
भक्त	-15257
▁rubber	-15258
71	-15259
▁accomplished	-15260
Not	-15261
▁na	-15262
▁आइए	-15263
▁आश्व	-15264
▁Sad	-15265
▁Harris	-15266
▁mathem	-15267
▁theater	-15268
ishers	-15269
▁Exp	-15270
▁गले	-15271
▁Youth	-15272
ascular	-15273
ITH	-15274
▁EP	-15275
▁EV	-15276
पुरी	-15277
न्नि	-15278
▁qualify	-15279
ायम	-15280
▁Diam	-15281
▁violent	-15282
▁लव	-15283
▁mystery	-15284
▁प्रेरित	-15285
▁championship	-15286
फ़ी	-15287
रोध	-15288
ोलॉ	-15289
ded	-15290
▁cheaper	-15291
▁Sport	-15292
▁GP	-15293
▁एग	-15294
AG	-15295
▁चम्म	-15296
▁मूर्ति	-15297
▁विटामिन	-15298
DR	-15299
▁promises	-15300
boy	-15301
email	-15302
▁2008,	-15303
▁pleasant	-15304
▁रेखा	-15305
▁सीमित	-15306
▁admission	-15307
▁राशन	-15308
त्वस्य	-15309
ाध्यक्ष	-15310
यस्य	-15311
avirus	-15312
▁attempted	-15313
▁odds	-15314
▁Wales	-15315
▁Oxford	-15316
▁thrown	-15317
▁आजकल	-15318
▁Nik	-15319
Os	-15320
▁Pain	-15321
▁भवन्ति	-15322
▁adoption	-15323
enter	-15324
येन	-15325
▁dirt	-15326
▁काली	-15327
oons	-15328
्तिक	-15329
▁grat	-15330
▁Authority	-15331
ousing	-15332
▁आधुनिक	-15333
▁हवाई	-15334
▁Flo	-15335
▁बुर	-15336
▁rehab	-15337
▁हजारों	-15338
▁CT	-15339
▁oz	-15340
कस्य	-15341
▁Glass	-15342
bound	-15343
▁2016,	-15344
mg	-15345
िस्स	-15346
itty	-15347
▁tours	-15348
OB	-15349
-18	-15350
▁backup	-15351
ादान	-15352
▁guns	-15353
▁Architect	-15354
▁occasions	-15355
abama	-15356
▁गर्भ	-15357
विशिष्ट	-15358
▁makeup	-15359
▁speaks	-15360
▁liberal	-15361
▁bankrupt	-15362
▁गोप	-15363
▁impacts	-15364
▁पदों	-15365
▁tweet	-15366
▁तदेव	-15367
▁इलाकों	-15368
▁locally	-15369
-30	-15370
▁cust	-15371
▁फार्म	-15372
otte	-15373
▁गलती	-15374
▁तथापि	-15375
asm	-15376
▁financing	-15377
ायन	-15378
▁इह	-15379
ान्ति	-15380
ervice	-15381
▁investigate	-15382
शाली	-15383
▁चां	-15384
▁स्रोत	-15385
▁इंडस्ट्री	-15386
mouth	-15387
▁नामक	-15388
▁रिश्ते	-15389
ifferent	-15390
▁कार्यकर्ता	-15391
कभी	-15392
aki	-15393
▁11:	-15394
there	-15395
▁spoken	-15396
▁महिलाएं	-15397
▁काला	-15398
▁salad	-15399
▁breathing	-15400
▁popularity	-15401
bd	-15402
▁04	-15403
▁Wy	-15404
▁Dra	-15405
▁लूट	-15406
istical	-15407
▁Gh	-15408
▁बदले	-15409
▁tempt	-15410
▁रिल	-15411
▁शिख	-15412
▁Index	-15413
▁mouse	-15414
▁productive	-15415
▁खबरें	-15416
▁fundra	-15417
▁00	-15418
▁Sac	-15419
osystem	-15420
▁fascinating	-15421
▁अफसर	-15422
▁सिटी	-15423
▁फसल	-15424
▁गहरा	-15425
▁pills	-15426
▁Ontario	-15427
▁confront	-15428
▁spectacular	-15429
▁Moh	-15430
ुक्तम्	-15431
▁सर्विस	-15432
dale	-15433
▁Andy	-15434
ारों	-15435
▁coron	-15436
▁चौहान	-15437
▁संभाल	-15438
▁Foreign	-15439
सेंस	-15440
▁Eve	-15441
heart	-15442
▁प्राग	-15443
▁constructed	-15444
▁चैव	-15445
▁Dick	-15446
▁slide	-15447
▁durable	-15448
▁enormous	-15449
▁उतना	-15450
▁Olympic	-15451
▁2014,	-15452
▁वितरण	-15453
▁Mit	-15454
▁nod	-15455
▁ethnic	-15456
▁homeown	-15457
▁350	-15458
▁Years	-15459
▁conce	-15460
डु	-15461
पुत्र	-15462
▁armed	-15463
lan	-15464
▁इंट	-15465
ictions	-15466
▁affects	-15467
▁टॉ	-15468
▁publicly	-15469
700	-15470
only	-15471
वर्ष	-15472
▁Import	-15473
▁Address	-15474
▁inex	-15475
▁दशक	-15476
▁spectrum	-15477
▁Constitution	-15478
▁photographer	-15479
rend	-15480
html	-15481
def	-15482
▁dancing	-15483
▁गेंदबाज	-15484
▁सेक्टर	-15485
्लाह	-15486
रेन्द्र	-15487
▁heritage	-15488
inar	-15489
itters	-15490
▁alike	-15491
यन्ति	-15492
▁Phill	-15493
▁Denver	-15494
▁Gas	-15495
▁नाव	-15496
▁Bird	-15497
▁disorders	-15498
74	-15499
▁54	-15500
▁Ped	-15501
▁भोज	-15502
break	-15503
▁sixth	-15504
▁प्लेटफॉर्म	-15505
cs	-15506
onda	-15507
▁बचपन	-15508
▁कुर्व	-15509
ilation	-15510
▁oh	-15511
▁greet	-15512
utor	-15513
▁12:	-15514
▁ears	-15515
▁appreciated	-15516
रणा	-15517
itivity	-15518
▁Parliament	-15519
▁Pric	-15520
▁Galaxy	-15521
▁curious	-15522
▁सर्वत्र	-15523
▁Emb	-15524
चन्द्र	-15525
िवृत्त	-15526
▁मालूम	-15527
▁Apart	-15528
▁श्रुत	-15529
▁carries	-15530
▁chairman	-15531
elson	-15532
▁तिथि	-15533
.-	-15534
mind	-15535
▁शूटिंग	-15536
▁weakness	-15537
▁mature	-15538
unicipal	-15539
▁capability	-15540
▁परंतु	-15541
rup	-15542
bean	-15543
▁मनाया	-15544
▁AG	-15545
▁Hal	-15546
▁ऑप्शन	-15547
▁हद	-15548
लक	-15549
▁नाराज	-15550
▁poetry	-15551
▁इत्यत्र	-15552
▁complaints	-15553
▁Incre	-15554
iology	-15555
▁कोर्स	-15556
▁यावत्	-15557
▁episodes	-15558
▁template	-15559
KS	-15560
hol	-15561
▁IL	-15562
वाना	-15563
▁cig	-15564
▁Chairman	-15565
▁ridic	-15566
▁Korean	-15567
▁horror	-15568
भ्र	-15569
inking	-15570
▁अधिनियम	-15571
UC	-15572
▁Fat	-15573
arrass	-15574
▁Gord	-15575
▁Legal	-15576
▁फाइनल	-15577
▁यद्यपि	-15578
▁लड़कियों	-15579
▁underlying	-15580
dog	-15581
▁उधर	-15582
▁Singh	-15583
▁squad	-15584
▁eager	-15585
▁मंजूरी	-15586
▁acknowledge	-15587
ृतं	-15588
▁module	-15589
▁मिशन	-15590
▁देखी	-15591
ापुर	-15592
gree	-15593
▁अंब	-15594
▁चंद	-15595
▁Vietnam	-15596
▁landing	-15597
▁नृ	-15598
क्के	-15599
▁बुरी	-15600
पर्य	-15601
erving	-15602
▁कमेटी	-15603
▁Regard	-15604
▁courage	-15605
▁SO	-15606
▁Cash	-15607
▁Rain	-15608
ounced	-15609
▁चम्मच	-15610
▁Success	-15611
▁deadline	-15612
gra	-15613
▁Inn	-15614
orious	-15615
▁repairs	-15616
▁सपा	-15617
▁tent	-15618
▁2009.	-15619
▁लिमिट	-15620
नाः	-15621
जन्य	-15622
▁affiliate	-15623
▁त्वं	-15624
▁sensor	-15625
▁प्रावधान	-15626
▁("	-15627
नै	-15628
fare	-15629
▁संदर्भ	-15630
▁disrupt	-15631
ching	-15632
▁पेशे	-15633
▁connecting	-15634
WS	-15635
▁पाउ	-15636
▁considerable	-15637
▁59	-15638
▁tension	-15639
▁Prep	-15640
▁%	-15641
▁58	-15642
▁Cow	-15643
▁portra	-15644
ँह	-15645
orse	-15646
श्	-15647
▁वकील	-15648
▁महीनों	-15649
▁conservation	-15650
▁Ta	-15651
▁Mexican	-15652
semble	-15653
▁देवा	-15654
▁Kentucky	-15655
ज़ा	-15656
ोगे	-15657
▁mechanical	-15658
▁fallen	-15659
▁बिंद	-15660
▁निवास	-15661
▁wheels	-15662
▁ग्रामीणों	-15663
forward	-15664
▁Deep	-15665
▁endless	-15666
▁WE	-15667
▁nail	-15668
▁अखिलेश	-15669
ग्व	-15670
▁Rap	-15671
▁bio	-15672
▁refrig	-15673
▁disappointed	-15674
पेट	-15675
▁File	-15676
▁Results	-15677
▁directors	-15678
▁Vi	-15679
▁Until	-15680
▁engineers	-15681
▁गिरावट	-15682
▁girlfriend	-15683
urer	-15684
▁pup	-15685
▁जीतने	-15686
▁खि	-15687
▁2015,	-15688
▁meters	-15689
▁musicians	-15690
ols	-15691
▁रूम	-15692
▁53	-15693
काता	-15694
▁ब्लैक	-15695
▁wishes	-15696
ादिस	-15697
▁Stra	-15698
▁aver	-15699
▁Toy	-15700
▁बधाई	-15701
▁दिक्क	-15702
▁पेंशन	-15703
▁मैचों	-15704
▁practition	-15705
राबाद	-15706
▁slee	-15707
▁भट्ट	-15708
▁ceiling	-15709
bie	-15710
▁मान्यता	-15711
▁शख	-15712
ding	-15713
▁apple	-15714
uros	-15715
▁खतर	-15716
▁फॉलो	-15717
▁establishment	-15718
▁प्रोत्स	-15719
▁inspection	-15720
Su	-15721
▁Dor	-15722
▁rib	-15723
▁Hair	-15724
▁drops	-15725
▁प्रवक्ता	-15726
▁भरी	-15727
▁configuration	-15728
▁हटाने	-15729
▁ft	-15730
lope	-15731
▁निः	-15732
▁तुम्हारी	-15733
mother	-15734
▁स्टूड	-15735
▁Ele	-15736
▁urg	-15737
▁बें	-15738
▁funded	-15739
ifice	-15740
▁ग्रे	-15741
▁stamp	-15742
▁indoor	-15743
ोत्त	-15744
▁Gary	-15745
▁गतिविधियों	-15746
azed	-15747
▁Agric	-15748
▁destruction	-15749
BN	-15750
▁पड	-15751
ounge	-15752
▁Prot	-15753
sa	-15754
INE	-15755
▁देखे	-15756
▁Craig	-15757
▁permitted	-15758
▁Lad	-15759
ended	-15760
त्कृष्ट	-15761
▁Features	-15762
▁convinced	-15763
▁deleg	-15764
ेष्व	-15765
▁सपने	-15766
▁संस्	-15767
▁Girls	-15768
▁Language	-15769
▁Tree	-15770
▁exclusively	-15771
णाम	-15772
abis	-15773
▁digest	-15774
▁Tan	-15775
▁अभ्य	-15776
▁वाहनों	-15777
stic	-15778
oween	-15779
▁Alexander	-15780
▁स्वतंत्रता	-15781
bet	-15782
bra	-15783
ाहे	-15784
twitter	-15785
▁Rather	-15786
▁finest	-15787
LD	-15788
ढ़े	-15789
inge	-15790
▁16.	-15791
▁wrap	-15792
▁semin	-15793
▁psychological	-15794
▁एसपी	-15795
▁Berlin	-15796
▁Alabama	-15797
▁सम्मानित	-15798
▁BM	-15799
esty	-15800
▁गठबंधन	-15801
▁assemb	-15802
▁patent	-15803
uan	-15804
▁wildlife	-15805
▁collections	-15806
▁शर्म	-15807
▁2017,	-15808
▁विविध	-15809
स्ट्र	-15810
▁दीर्घ	-15811
▁bran	-15812
▁bottles	-15813
▁ensures	-15814
▁translation	-15815
▁Oklahoma	-15816
attan	-15817
▁पर्स	-15818
▁genre	-15819
▁compact	-15820
▁generic	-15821
Well	-15822
plant	-15823
▁Utah	-15824
▁एकदम	-15825
▁10,000	-15826
भूमि	-15827
▁adopt	-15828
▁एक्सप्रेस	-15829
▁जला	-15830
fortable	-15831
ुना	-15832
▁मच	-15833
▁edges	-15834
▁देखभाल	-15835
▁twist	-15836
▁steady	-15837
्यात	-15838
▁advised	-15839
▁difficulties	-15840
▁२१	-15841
▁towns	-15842
संप	-15843
▁Large	-15844
हूर	-15845
▁bulk	-15846
▁identification	-15847
▁carrier	-15848
▁placing	-15849
▁Whit	-15850
▁chopped	-15851
▁limitations	-15852
▁duration	-15853
▁parks	-15854
▁साधारण	-15855
▁effectiveness	-15856
UB	-15857
plus	-15858
▁painful	-15859
▁churches	-15860
Up	-15861
▁दौड़	-15862
▁मोटर	-15863
▁Captain	-15864
▁padd	-15865
[...]
