{
  "version": "1.0",
  "truncation": null,
  "padding": null,
  "added_tokens": [
    {
      "id": 0,
      "content": "<pad>",
      "single_word": false,
      "lstrip": false,
      "rstrip": false,
      "normalized": false,
      "special": true
    },
    {
      "id": 1,
      "content": "<unk>",
      "single_word": false,
      "lstrip": false,
      "rstrip": false,
      "normalized": false,
      "special": true
    },
    {
      "id": 2,
      "content": "<s>",
      "single_word": false,
      "lstrip": false,
      "rstrip": false,
      "normalized": false,
      "special": true
    },
    {
      "id": 3,
      "content": "</s>",
      "single_word": false,
      "lstrip": false,
      "rstrip": false,
      "normalized": false,
      "special": true
    },
    {
      "id": 4,
      "content": "<en>",
      "single_word": false,
      "lstrip": false,
      "rstrip": false,
      "normalized": false,
      "special": false
    },
    {
      "id": 5,
      "content": "<hi>",
      "single_word": false,
      "lstrip": false,
      "rstrip": false,
      "normalized": false,
      "special": false
    },
    {
      "id": 6,
      "content": "<sa>",
      "single_word": false,
      "lstrip": false,
      "rstrip": false,
      "normalized": false,
      "special": false
    }
  ],
  "normalizer": {
    "type": "Sequence",
    "normalizers": [
      {
        "type": "Prepend",
        "prepend": "▁"
      },
      {
        "type": "Replace",
        "pattern": {
          "String": " "
        },
        "content": "▁"
      }
    ]
  },
  "pre_tokenizer": null,
  "post_processor": {
    "type": "TemplateProcessing",
    "single": [
      {
        "SpecialToken": {
          "id": "<s>",
          "type_id": 0
        }
      },
      {
        "Sequence": {
          "id": "A",
          "type_id": 0
        }
      }
    ],
    "pair": [
      {
        "SpecialToken": {
          "id": "<s>",
          "type_id": 0
        }
      },
      {
        "Sequence": {
          "id": "A",
          "type_id": 0
        }
      },
      {
        "SpecialToken": {
          "id": "<s>",
          "type_id": 1
        }
      },
      {
        "Sequence": {
          "id": "B",
          "type_id": 1
        }
      }
    ],
    "special_tokens": {
      "<s>": {
        "id": "<s>",
        "ids": [
          2
        ],
        "tokens": [
          "<s>"
        ]
      }
    }
  },
  "decoder": {
    "type": "Sequence",
    "decoders": [
      {
        "type": "Replace",
        "pattern": {
          "String": "▁"
        },
        "content": " "
      },
      {
        "type": "ByteFallback"
      },
      {
        "type": "Fuse"
      },
      {
        "type": "Strip",
        "content": " ",
        "start": 1,
        "stop": 0
      }
    ]
  },
  "model": {
    "type": "BPE",
    "dropout": null,
    "unk_token": "<unk>",
    "continuing_subword_prefix": null,
    "end_of_word_suffix": null,
    "fuse_unk": true,
    "byte_fallback": true,
    "ignore_merges": false,
    "vocab": {
      "<pad>": 0,
      "<unk>": 1,
      "<s>": 2,
      "</s>": 3,
      "<en>": 4,
      "<hi>": 5,
      "<sa>": 6,
      "▁t": 7,
      "▁a": 8,
      "in": 9,
      "he": 10,
      "re": 11,
      "on": 12,
      "▁क": 13,
      "▁the": 14,
      "er": 15,
      "▁s": 16,
      "▁w": 17,
      "at": 18,
      "▁o": 19,
      "nd": 20,
      "▁c": 21,
      "it": 22,
      "or": 23,
      "es": 24,
      "is": 25,
      "en": 26,
      "ou": 27,
      "▁f": 28,
      "▁b": 29,
      "ing": 30,
      "▁p": 31,
      "an": 32,
      "ed": 33,
      "al": 34,
      "▁to": 35,
      "▁m": 36,
      "▁स": 37,
      "ar": 38,
      "▁and": 39,
      "▁of": 40,
      "▁in": 41,
      "▁ह": 42,
      "▁d": 43,
      "ic": 44,
      "le": 45,
      "▁h": 46,
      "▁म": 47,
      "as": 48,
      "▁प": 49,
      "om": 50,
      "ion": 51,
      "▁th": 52,
      "्र": 53,
      "ll": 54,
      "ent": 55,
      "्य": 56,
      "▁T": 57,
      "▁l": 58,
      "▁I": 59,
      "ve": 60,
      "▁e": 61,
      "st": 62,
      "▁re": 63,
      "ro": 64,
      "▁n": 65,
      "▁y": 66,
      "ार": 67,
      "▁g": 68,
      "ly": 69,
      "▁S": 70,
      "ct": 71,
      "et": 72,
      "ें": 73,
      "▁है": 74,
      "▁न": 75,
      "▁ब": 76,
      "▁A": 77,
      "▁के": 78,
      "▁ज": 79,
      "▁be": 80,
      "ut": 81,
      "▁व": 82,
      "▁you": 83,
      "▁is": 84,
      "ot": 85,
      "id": 86,
      "▁C": 87,
      "▁on": 88,
      "ay": 89,
      "▁for": 90,
      "▁अ": 91,
      "ान": 92,
      "▁द": 93,
      "ow": 94,
      "ur": 95,
      "us": 96,
      "im": 97,
      "ce": 98,
      "ad": 99,
      "am": 100,
      "ig": 101,
      "▁ल": 102,
      "▁त": 103,
      "ver": 104,
      "▁that": 105,
      "ch": 106,
      "र्": 107,
      "il": 108,
      "▁M": 109,
      "ith": 110,
      "या": 111,
      "▁र": 112,
      "ation": 113,
      "▁st": 114,
      "ol": 115,
      "▁में": 116,
      "्त": 117,
      "ir": 118,
      "▁with": 119,
      "▁B": 120,
      "▁P": 121,
      "▁आ": 122,
      "▁it": 123,
      "▁he": 124,
      "se": 125,
      "ों": 126,
      "ने": 127,
      "▁The": 128,
      "▁W": 129,
      "▁we": 130,
      "ra": 131,
      "▁की": 132,
      "▁इ": 133,
      "▁an": 134,
      "▁wh": 135,
      "▁as": 136,
      "ill": 137,
      "▁को": 138,
      "ers": 139,
      "ता": 140,
      "▁1": 141,
      "un": 142,
      "▁भ": 143,
      "▁कर": 144,
      "▁H": 145,
      "▁उ": 146,
      "ke": 147,
      "if": 148,
      "▁ग": 149,
      "▁pro": 150,
      "▁D": 151,
      "ter": 152,
      "▁2": 153,
      "▁are": 154,
      "▁ha": 155,
      "▁से": 156,
      "▁F": 157,
      "▁(": 158,
      "्व": 159,
      "ge": 160,
      "▁कि": 161,
      "▁con": 162,
      "ना": 163,
      "oo": 164,
      "ul": 165,
      "ld": 166,
      "▁R": 167,
      "ति": 168,
      "her": 169,
      "▁का": 170,
      "pp": 171,
      "▁or": 172,
      "ate": 173,
      "▁-": 174,
      "ess": 175,
      "▁प्र": 176,
      "▁com": 177,
      "ck": 178,
      "▁at": 179,
      "▁se": 180,
      "▁च": 181,
      "ment": 182,
      "ri": 183,
      "िक": 184,
      "est": 185,
      "ore": 186,
      "▁औ": 187,
      "▁de": 188,
      "▁और": 189,
      "▁L": 190,
      "ab": 191,
      "▁।": 192,
      "igh": 193,
      "th": 194,
      "▁य": 195,
      "▁was": 196,
      "rom": 197,
      "▁ए": 198,
      "▁श": 199,
      "ist": 200,
      "▁पर": 201,
      "▁N": 202,
      "▁ne": 203,
      "pe": 204,
      "▁ex": 205,
      "▁G": 206,
      "ित": 207,
      "▁E": 208,
      "ाल": 209,
      "ant": 210,
      "▁v": 211,
      "ity": 212,
      "▁su": 213,
      "qu": 214,
      "res": 215,
      "ive": 216,
      "▁O": 217,
      "▁have": 218,
      "op": 219,
      "ort": 220,
      "्या": 221,
      "em": 222,
      "▁r": 223,
      "▁your": 224,
      "ते": 225,
      "ain": 226,
      "art": 227,
      "▁this": 228,
      "ust": 229,
      "▁from": 230,
      "el": 231,
      "▁not": 232,
      "um": 233,
      "▁sh": 234,
      "os": 235,
      "▁हो": 236,
      "▁by": 237,
      "▁al": 238,
      "ies": 239,
      "and": 240,
      "▁ch": 241,
      "ight": 242,
      "▁can": 243,
      "्ट": 244,
      "▁इस": 245,
      "ही": 246,
      "nt": 247,
      "▁हैं": 248,
      "▁u": 249,
      "िल": 250,
      "00": 251,
      "▁us": 252,
      "ie": 253,
      "ome": 254,
      "ard": 255,
      "all": 256,
      "ाम": 257,
      "ाद": 258,
      "▁le": 259,
      "▁will": 260,
      "न्": 261,
      "out": 262,
      "..": 263,
      "ould": 264,
      "▁J": 265,
      "▁ने": 266,
      "ात": 267,
      "ud": 268,
      "▁ab": 269,
      "our": 270,
      "red": 271,
      "iv": 272,
      "▁do": 273,
      "▁wor": 274,
      "िए": 275,
      "ally": 276,
      "gh": 277,
      "ost": 278,
      "▁वि": 279,
      "od": 280,
      "te": 281,
      "क्": 282,
      "▁pl": 283,
      "ड़": 284,
      "ां": 285,
      "▁all": 286,
      "rou": 287,
      "▁थ": 288,
      "ci": 289,
      "▁j": 290,
      "ide": 291,
      "ast": 292,
      "ak": 293,
      "के": 294,
      "ear": 295,
      "▁k": 296,
      "▁“": 297,
      "ine": 298,
      "ag": 299,
      "ास": 300,
      "िय": 301,
      "▁ख": 302,
      "ure": 303,
      "per": 304,
      "▁Th": 305,
      "▁भी": 306,
      "fe": 307,
      "▁so": 308,
      "pt": 309,
      "▁फ": 310,
      "▁has": 311,
      "्म": 312,
      "▁U": 313,
      "▁me": 314,
      "▁In": 315,
      "▁whe": 316,
      "▁एक": 317,
      "ice": 318,
      "▁but": 319,
      "ack": 320,
      "age": 321,
      "ction": 322,
      "से": 323,
      "ac": 324,
      "▁ad": 325,
      "ाव": 326,
      "ther": 327,
      "▁out": 328,
      "▁comp": 329,
      "ich": 330,
      "िया": 331,
      "ind": 332,
      "one": 333,
      "ook": 334,
      "▁up": 335,
      "ake": 336,
      "ाय": 337,
      "त्र": 338,
      "▁20": 339,
      "▁दे": 340,
      "री": 341,
      "▁they": 342,
      "▁\"": 343,
      "ाह": 344,
      "are": 345,
      "िस": 346,
      "▁their": 347,
      "lo": 348,
      "so": 349,
      "▁more": 350,
      "ry": 351,
      "▁en": 352,
      "very": 353,
      "ong": 354,
      "able": 355,
      "▁लिए": 356,
      "▁अप": 357,
      "ती": 358,
      "ime": 359,
      "ated": 360,
      "▁my": 361,
      "▁Y": 362,
      "▁सम": 363,
      "हीं": 364,
      "ood": 365,
      "ite": 366,
      "cc": 367,
      "▁te": 368,
      "▁आप": 369,
      "ous": 370,
      "िन": 371,
      "▁K": 372,
      "क्ष": 373,
      "ip": 374,
      "हा": 375,
      "्थ": 376,
      "▁one": 377,
      "ले": 378,
      "iz": 379,
      "ame": 380,
      "ans": 381,
      "▁his": 382,
      "ike": 383,
      "▁सं": 384,
      "▁im": 385,
      "▁about": 386,
      "▁जा": 387,
      "ुर": 388,
      "▁sa": 389,
      "ाज": 390,
      "orm": 391,
      "ोग": 392,
      "▁3": 393,
      "▁who": 394,
      "ber": 395,
      "▁our": 396,
      "▁un": 397,
      "▁cont": 398,
      "og": 399,
      "कर": 400,
      "ru": 401,
      "▁go": 402,
      "ions": 403,
      "▁fe": 404,
      "▁man": 405,
      "ंग": 406,
      "ance": 407,
      "नी": 408,
      "▁It": 409,
      "▁सा": 410,
      "du": 411,
      "▁नहीं": 412,
      "act": 413,
      "▁inc": 414,
      "▁St": 415,
      "ia": 416,
      "▁which": 417,
      "्प": 418,
      "▁cl": 419,
      "कार": 420,
      "▁work": 421,
      "▁V": 422,
      "ire": 423,
      "▁res": 424,
      "ult": 425,
      "ail": 426,
      "ne": 427,
      "ib": 428,
      "▁app": 429,
      "ap": 430,
      "ase": 431,
      "ff": 432,
      "ach": 433,
      "oc": 434,
      "ign": 435,
      "ree": 436,
      "ace": 437,
      "ेश": 438,
      "reat": 439,
      "ations": 440,
      "ick": 441,
      "ary": 442,
      "ays": 443,
      "▁int": 444,
      "ep": 445,
      "▁per": 446,
      "▁We": 447,
      "ven": 448,
      "▁other": 449,
      "▁qu": 450,
      "ub": 451,
      "▁off": 452,
      "िर": 453,
      "ass": 454,
      "का": 455,
      "▁like": 456,
      "▁time": 457,
      "pl": 458,
      "▁Ch": 459,
      "▁year": 460,
      "िव": 461,
      "म्": 462,
      "सी": 463,
      "ical": 464,
      "▁तो": 465,
      "▁some": 466,
      "▁ले": 467,
      "▁also": 468,
      "▁ही": 469,
      "ue": 470,
      "ile": 471,
      "▁ट": 472,
      "▁any": 473,
      "ark": 474,
      "▁मु": 475,
      "▁dis": 476,
      "▁get": 477,
      "ount": 478,
      "▁201": 479,
      "ला": 480,
      "ence": 481,
      "now": 482,
      "ove": 483,
      "▁sp": 484,
      "form": 485,
      "▁them": 486,
      "ings": 487,
      "ress": 488,
      "ord": 489,
      "▁यह": 490,
      "▁new": 491,
      "erv": 492,
      "गा": 493,
      "▁ड": 494,
      "▁part": 495,
      "▁had": 496,
      "▁He": 497,
      "▁her": 498,
      "▁been": 499,
      "▁ag": 500,
      "▁there": 501,
      "▁were": 502,
      "ond": 503,
      "▁pe": 504,
      "त्त": 505,
      "्च": 506,
      "स्त": 507,
      "ाने": 508,
      "vel": 509,
      "av": 510,
      "▁over": 511,
      "क्त": 512,
      "▁when": 513,
      "ition": 514,
      "▁ar": 515,
      "ents": 516,
      "▁what": 517,
      "▁This": 518,
      "▁would": 519,
      "ial": 520,
      "ough": 521,
      "ink": 522,
      "▁हु": 523,
      "▁if": 524,
      "ors": 525,
      "द्": 526,
      "▁tr": 527,
      "▁–": 528,
      "▁रह": 529,
      "▁4": 530,
      "▁just": 531,
      "▁than": 532,
      "port": 533,
      "ens": 534,
      "रा": 535,
      "ild": 536,
      "की": 537,
      "त्व": 538,
      "▁ro": 539,
      "▁pre": 540,
      "वा": 541,
      "▁5": 542,
      "मा": 543,
      "ound": 544,
      "रे": 545,
      "▁करने": 546,
      "ish": 547,
      "▁spe": 548,
      "use": 549,
      "▁bec": 550,
      "ली": 551,
      "int": 552,
      "▁know": 553,
      "irst": 554,
      "▁किया": 555,
      "mer": 556,
      "▁rec": 557,
      "ople": 558,
      "own": 559,
      "स्य": 560,
      "wn": 561,
      "▁नि": 562,
      "▁कु": 563,
      "▁need": 564,
      "▁॥": 565,
      "▁into": 566,
      "ंद": 567,
      "▁सक": 568,
      "वि": 569,
      "ren": 570,
      "ाप": 571,
      "nder": 572,
      "▁कार": 573,
      "ory": 574,
      "▁said": 575,
      "ose": 576,
      "▁how": 577,
      "▁हम": 578,
      "fter": 579,
      "▁sc": 580,
      "ov": 581,
      "▁am": 582,
      "▁था": 583,
      "ater": 584,
      "▁acc": 585,
      "lic": 586,
      "त्": 587,
      "▁co": 588,
      "...": 589,
      "rough": 590,
      "ade": 591,
      "ang": 592,
      "▁या": 593,
      "▁people": 594,
      "vers": 595,
      "itt": 596,
      "▁पह": 597,
      "▁tw": 598,
      "▁its": 599,
      "▁अन": 600,
      "▁उस": 601,
      "ning": 602,
      "▁ध": 603,
      "▁Wh": 604,
      "▁घ": 605,
      "ारी": 606,
      "▁19": 607,
      "old": 608,
      "▁साथ": 609,
      "▁Re": 610,
      "▁she": 611,
      "▁no": 612,
      "▁des": 613,
      "cial": 614,
      "lud": 615,
      "▁सु": 616,
      "▁first": 617,
      "ual": 618,
      "ons": 619,
      "ैं": 620,
      "ष्ट": 621,
      "ces": 622,
      "▁may": 623,
      "सा": 624,
      "र्व": 625,
      "▁comm": 626,
      "ian": 627,
      "▁गया": 628,
      "we": 629,
      "▁पू": 630,
      "lp": 631,
      "ause": 632,
      "hed": 633,
      "▁जो": 634,
      "▁You": 635,
      "amp": 636,
      "▁make": 637,
      "ates": 638,
      "▁only": 639,
      "्री": 640,
      "ments": 641,
      "ull": 642,
      "▁उन": 643,
      "ric": 644,
      "ob": 645,
      "त्य": 646,
      "ft": 647,
      "▁help": 648,
      "les": 649,
      "▁tra": 650,
      "▁add": 651,
      "end": 652,
      "को": 653,
      "▁most": 654,
      "▁bet": 655,
      "ूप": 656,
      "rent": 657,
      "▁look": 658,
      "▁po": 659,
      "ating": 660,
      "▁prov": 661,
      "ुल": 662,
      "ily": 663,
      "▁back": 664,
      "tern": 665,
      "▁em": 666,
      "▁ind": 667,
      "▁अपने": 668,
      "day": 669,
      "▁want": 670,
      "▁every": 671,
      "▁As": 672,
      "ise": 673,
      "न्ह": 674,
      "▁through": 675,
      "▁मे": 676,
      "▁Ne": 677,
      "round": 678,
      "प्र": 679,
      "iew": 680,
      "▁includ": 681,
      "भी": 682,
      "ious": 683,
      "▁see": 684,
      "गी": 685,
      "▁well": 686,
      "▁act": 687,
      "hing": 688,
      "▁cons": 689,
      "▁two": 690,
      "▁use": 691,
      "्क": 692,
      "▁'": 693,
      "▁bu": 694,
      "दा": 695,
      "▁If": 696,
      "▁produ": 697,
      "gr": 698,
      "ियों": 699,
      ").": 700,
      "ect": 701,
      "▁these": 702,
      "▁under": 703,
      "▁स्व": 704,
      "▁6": 705,
      "ाइ": 706,
      "sel": 707,
      "न्त": 708,
      "ks": 709,
      "ph": 710,
      "iss": 711,
      "ities": 712,
      "ife": 713,
      "▁|": 714,
      "▁छ": 715,
      "▁ph": 716,
      "▁after": 717,
      "fect": 718,
      "▁serv": 719,
      "▁वाल": 720,
      "▁could": 721,
      "ेन": 722,
      "oll": 723,
      "▁And": 724,
      "र्म": 725,
      "▁अध": 726,
      "fore": 727,
      "xt": 728,
      "ific": 729,
      "ced": 730,
      "pport": 731,
      "aw": 732,
      "hen": 733,
      "गे": 734,
      "▁कहा": 735,
      "▁very": 736,
      "▁dif": 737,
      "▁Se": 738,
      "▁दो": 739,
      "row": 740,
      "ढ़": 741,
      "li": 742,
      "▁200": 743,
      "द्ध": 744,
      "ting": 745,
      "्ल": 746,
      "▁मह": 747,
      "urn": 748,
      "uch": 749,
      "ont": 750,
      "▁play": 751,
      "▁good": 752,
      "▁years": 753,
      "▁way": 754,
      "▁inv": 755,
      "lect": 756,
      "▁many": 757,
      "▁बाद": 758,
      "▁pr": 759,
      "ys": 760,
      "▁even": 761,
      "ject": 762,
      "ert": 763,
      "▁sy": 764,
      "ful": 765,
      "ोज": 766,
      "▁imp": 767,
      "▁reg": 768,
      "rit": 769,
      "iness": 770,
      "▁उन्ह": 771,
      "▁ra": 772,
      "erson": 773,
      "▁stud": 774,
      "ाग": 775,
      "com": 776,
      "als": 777,
      "िश": 778,
      "ange": 779,
      "▁लोग": 780,
      "▁An": 781,
      "▁ke": 782,
      "ool": 783,
      "▁should": 784,
      "▁him": 785,
      "▁then": 786,
      "oss": 787,
      "aking": 788,
      "pect": 789,
      "▁where": 790,
      "▁now": 791,
      "▁उप": 792,
      "bs": 793,
      "▁Un": 794,
      "▁rem": 795,
      "▁10": 796,
      "▁रहे": 797,
      "cess": 798,
      "▁Com": 799,
      "▁सि": 800,
      "▁मिल": 801,
      "ाना": 802,
      "oth": 803,
      "द्र": 804,
      "▁dec": 805,
      "ारा": 806,
      "ational": 807,
      "ानी": 808,
      "▁sm": 809,
      "▁col": 810,
      "▁fl": 811,
      "ुप": 812,
      "▁‘": 813,
      "▁ev": 814,
      "▁exper": 815,
      "▁7": 816,
      ".”": 817,
      "ward": 818,
      "ility": 819,
      "▁did": 820,
      "ंड": 821,
      "▁राज": 822,
      "▁तक": 823,
      "ased": 824,
      "||": 825,
      "ible": 826,
      "्ञ": 827,
      "ts": 828,
      "▁because": 829,
      "any": 830,
      "मे": 831,
      "िति": 832,
      "olog": 833,
      "▁rel": 834,
      "▁right": 835,
      "get": 836,
      "्छ": 837,
      "ath": 838,
      "▁start": 839,
      "),": 840,
      "▁don": 841,
      "्स": 842,
      "ures": 843,
      "erm": 844,
      "▁own": 845,
      "▁थी": 846,
      "▁sec": 847,
      "ident": 848,
      "▁down": 849,
      "ular": 850,
      "▁gu": 851,
      "ower": 852,
      "ble": 853,
      "▁bus": 854,
      "र्थ": 855,
      "▁ac": 856,
      "▁ऐ": 857,
      "▁Pro": 858,
      "ices": 859,
      "▁great": 860,
      "▁$": 861,
      "uring": 862,
      "▁De": 863,
      "च्छ": 864,
      "▁fin": 865,
      "ty": 866,
      "▁bl": 867,
      "ेष": 868,
      "▁For": 869,
      "▁much": 870,
      "▁att": 871,
      "▁ent": 872,
      "▁think": 873,
      "▁But": 874,
      "hip": 875,
      "▁वह": 876,
      "up": 877,
      "देश": 878,
      "ative": 879,
      "्ष": 880,
      "its": 881,
      "▁too": 882,
      "ारे": 883,
      "ract": 884,
      "ुत": 885,
      "ये": 886,
      "▁8": 887,
      "hes": 888,
      "कि": 889,
      "दी": 890,
      "ूर": 891,
      "oy": 892,
      "टी": 893,
      "▁दिया": 894,
      "other": 895,
      "▁बह": 896,
      "▁such": 897,
      "stem": 898,
      "formation": 899,
      "▁day": 900,
      "20": 901,
      "und": 902,
      "alth": 903,
      "▁long": 904,
      "ited": 905,
      "velop": 906,
      "▁So": 907,
      "▁again": 908,
      "ork": 909,
      "▁high": 910,
      "▁जी": 911,
      "omet": 912,
      "ics": 913,
      "ict": 914,
      "▁find": 915,
      "ओं": 916,
      "air": 917,
      "▁inst": 918,
      "▁take": 919,
      "ेद": 920,
      "gan": 921,
      "▁सी": 922,
      "▁set": 923,
      "▁रहा": 924,
      "्रे": 925,
      "स्थ": 926,
      "▁read": 927,
      "▁&": 928,
      "arch": 929,
      "line": 930,
      "▁कुछ": 931,
      "▁सर": 932,
      "ener": 933,
      "दि": 934,
      "▁being": 935,
      "▁here": 936,
      "▁best": 937,
      "▁inte": 938,
      "था": 939,
      "▁Al": 940,
      "rib": 941,
      "▁New": 942,
      "रो": 943,
      "▁जिस": 944,
      "cy": 945,
      "▁before": 946,
      "▁car": 947,
      "▁does": 948,
      "▁mon": 949,
      "▁कम": 950,
      "▁show": 951,
      "ंत्र": 952,
      "▁ins": 953,
      "▁those": 954,
      "▁diffe": 955,
      "▁made": 956,
      "▁इति": 957,
      "भाव": 958,
      "▁Sh": 959,
      "िला": 960,
      "▁pres": 961,
      "▁wee": 962,
      "▁min": 963,
      "ied": 964,
      "▁Be": 965,
      "गर": 966,
      "्ड": 967,
      "▁end": 968,
      "▁person": 969,
      "ner": 970,
      "chool": 971,
      "▁9": 972,
      "ually": 973,
      "▁bel": 974,
      "▁चाह": 975,
      "▁loc": 976,
      "▁call": 977,
      "ाई": 978,
      "▁हुए": 979,
      "ason": 980,
      "जी": 981,
      "ank": 982,
      "▁world": 983,
      "किन": 984,
      "▁प्रति": 985,
      "▁sur": 986,
      "▁home": 987,
      "िप": 988,
      "▁ass": 989,
      "▁mark": 990,
      "▁fam": 991,
      "▁br": 992,
      "▁द्व": 993,
      "alk": 994,
      "▁requ": 995,
      "ollow": 996,
      "ues": 997,
      "क्र": 998,
      "▁स्थ": 999,
      "▁तर": 1000,
      "ix": 1001,
      "▁मैं": 1002,
      "▁che": 1003,
      "▁business": 1004,
      "rest": 1005,
      "▁बी": 1006,
      "▁life": 1007,
      "way": 1008,
      "▁सब": 1009,
      "▁There": 1010,
      "▁देख": 1011,
      "io": 1012,
      "ax": 1013,
      "ving": 1014,
      "ell": 1015,
      "में": 1016,
      "पि": 1017,
      "▁last": 1018,
      "self": 1019,
      "▁जब": 1020,
      "▁sim": 1021,
      "▁लेकिन": 1022,
      "ng": 1023,
      "िम": 1024,
      "▁information": 1025,
      "▁av": 1026,
      "ेल": 1027,
      "ैसे": 1028,
      "▁भार": 1029,
      "योग": 1030,
      "gram": 1031,
      "स्ट": 1032,
      "▁विश": 1033,
      "▁hand": 1034,
      "▁एव": 1035,
      "gg": 1036,
      "▁med": 1037,
      "▁How": 1038,
      "▁disc": 1039,
      "▁trans": 1040,
      "▁develop": 1041,
      "▁op": 1042,
      "शन": 1043,
      "▁used": 1044,
      "ffect": 1045,
      "▁ear": 1046,
      "led": 1047,
      "▁थे": 1048,
      "▁रही": 1049,
      "ins": 1050,
      "▁system": 1051,
      "az": 1052,
      "▁while": 1053,
      "ather": 1054,
      "ince": 1055,
      "▁व्य": 1056,
      "ave": 1057,
      "िंग": 1058,
      "▁mem": 1059,
      "▁pol": 1060,
      "▁really": 1061,
      "arm": 1062,
      "▁sub": 1063,
      "▁art": 1064,
      "atch": 1065,
      "▁बात": 1066,
      "▁चु": 1067,
      "▁वे": 1068,
      "ौर": 1069,
      "chn": 1070,
      "▁अधिक": 1071,
      "▁पा": 1072,
      "ublic": 1073,
      "▁दी": 1074,
      "ouse": 1075,
      "▁करते": 1076,
      "▁mod": 1077,
      "▁ये": 1078,
      "▁लग": 1079,
      "च्च": 1080,
      "▁inter": 1081,
      "ros": 1082,
      "000": 1083,
      "▁cre": 1084,
      "ives": 1085,
      "au": 1086,
      "▁going": 1087,
      "ंच": 1088,
      "▁lead": 1089,
      "▁On": 1090,
      "ale": 1091,
      "ple": 1092,
      "akes": 1093,
      "imes": 1094,
      "▁बता": 1095,
      "ah": 1096,
      "ock": 1097,
      "ness": 1098,
      "pr": 1099,
      "ीन": 1100,
      "▁num": 1101,
      "▁Le": 1102,
      "▁experi": 1103,
      "ene": 1104,
      "▁vis": 1105,
      "▁around": 1106,
      ",”": 1107,
      "▁det": 1108,
      "▁each": 1109,
      "cept": 1110,
      "▁Ar": 1111,
      "ved": 1112,
      "▁though": 1113,
      "land": 1114,
      "▁बे": 1115,
      "▁They": 1116,
      "मान": 1117,
      "▁गई": 1118,
      "view": 1119,
      "ines": 1120,
      "▁design": 1121,
      "▁अब": 1122,
      "▁कोई": 1123,
      "▁Ad": 1124,
      "▁count": 1125,
      "▁product": 1126,
      "oun": 1127,
      "▁ret": 1128,
      "▁support": 1129,
      "ash": 1130,
      "▁somet": 1131,
      "▁cour": 1132,
      "▁bo": 1133,
      "▁Cl": 1134,
      "▁करें": 1135,
      "▁child": 1136,
      "riend": 1137,
      "▁follow": 1138,
      "▁still": 1139,
      "▁सो": 1140,
      "read": 1141,
      "▁form": 1142,
      "▁जान": 1143,
      "▁real": 1144,
      "ets": 1145,
      "▁team": 1146,
      "▁exp": 1147,
      "▁सकते": 1148,
      "▁किसी": 1149,
      ".\"": 1150,
      "roup": 1151,
      "िख": 1152,
      "ज्ञ": 1153,
      "▁वर्": 1154,
      "ages": 1155,
      "▁आपको": 1156,
      "▁cur": 1157,
      "▁provid": 1158,
      "ween": 1159,
      "▁feel": 1160,
      "irect": 1161,
      "▁say": 1162,
      "der": 1163,
      "▁मो": 1164,
      "▁care": 1165,
      "▁different": 1166,
      "ctions": 1167,
      "▁gr": 1168,
      "▁comple": 1169,
      "ize": 1170,
      "ब्": 1171,
      "▁जाए": 1172,
      "ution": 1173,
      "ड़ी": 1174,
      "▁ed": 1175,
      "▁अपनी": 1176,
      "▁str": 1177,
      "▁इन": 1178,
      "▁adv": 1179,
      "▁sign": 1180,
      "▁book": 1181,
      "▁कह": 1182,
      "▁पहले": 1183,
      "▁same": 1184,
      "ivers": 1185,
      "▁char": 1186,
      "▁ser": 1187,
      "▁point": 1188,
      "पी": 1189,
      "▁रूप": 1190,
      "▁commun": 1191,
      "ata": 1192,
      "ोंने": 1193,
      "ूल": 1194,
      "▁साम": 1195,
      "▁found": 1196,
      "lease": 1197,
      "meric": 1198,
      "ittle": 1199,
      "▁sk": 1200,
      "▁both": 1201,
      "▁aut": 1202,
      "▁met": 1203,
      "न्न": 1204,
      "▁between": 1205,
      "▁cle": 1206,
      "▁सरकार": 1207,
      "रण": 1208,
      "ustom": 1209,
      "ute": 1210,
      "-1": 1211,
      "▁place": 1212,
      "ंत": 1213,
      "▁eas": 1214,
      "▁What": 1215,
      "ars": 1216,
      "ष्": 1217,
      "man": 1218,
      "▁रख": 1219,
      "▁sl": 1220,
      "▁कार्य": 1221,
      "ways": 1222,
      "▁run": 1223,
      "▁होने": 1224,
      "बर": 1225,
      "▁few": 1226,
      "▁दु": 1227,
      "▁lot": 1228,
      "▁happ": 1229,
      "ाध": 1230,
      "चार": 1231,
      "▁three": 1232,
      "ार्थ": 1233,
      "▁program": 1234,
      "▁अनु": 1235,
      "▁दिन": 1236,
      "ंध": 1237,
      "ized": 1238,
      "▁free": 1239,
      "ional": 1240,
      "▁12": 1241,
      "▁love": 1242,
      "▁काम": 1243,
      "▁She": 1244,
      "▁To": 1245,
      "▁post": 1246,
      "ital": 1247,
      "द्य": 1248,
      "ody": 1249,
      "िट": 1250,
      "ever": 1251,
      "▁prof": 1252,
      "ंट": 1253,
      "भि": 1254,
      "be": 1255,
      "ेट": 1256,
      "▁import": 1257,
      "नों": 1258,
      "ex": 1259,
      "▁rep": 1260,
      "less": 1261,
      "▁pur": 1262,
      "▁things": 1263,
      "ves": 1264,
      "▁इसके": 1265,
      "ड़ा": 1266,
      "▁पु": 1267,
      "▁बन": 1268,
      "▁process": 1269,
      "▁list": 1270,
      "ज़": 1271,
      "दे": 1272,
      "▁ext": 1273,
      "पर": 1274,
      "र्ण": 1275,
      "▁उन्होंने": 1276,
      "ोल": 1277,
      "▁state": 1278,
      "ames": 1279,
      "att": 1280,
      "▁fun": 1281,
      "ired": 1282,
      "ient": 1283,
      "▁top": 1284,
      "▁All": 1285,
      "▁Americ": 1286,
      "▁पी": 1287,
      "▁month": 1288,
      "ants": 1289,
      "श्च": 1290,
      "▁बना": 1291,
      "▁समय": 1292,
      "▁lar": 1293,
      "▁full": 1294,
      "ton": 1295,
      "▁little": 1296,
      "▁health": 1297,
      "ोक": 1298,
      "▁gener": 1299,
      "▁तरह": 1300,
      "▁plan": 1301,
      "▁Q": 1302,
      "ety": 1303,
      "vern": 1304,
      "▁cor": 1305,
      "thing": 1306,
      "▁लोगों": 1307,
      "▁बहुत": 1308,
      "ug": 1309,
      "oh": 1310,
      "The": 1311,
      "ology": 1312,
      "▁keep": 1313,
      "▁वाले": 1314,
      "uc": 1315,
      "ड़े": 1316,
      "▁When": 1317,
      "tt": 1318,
      "▁0": 1319,
      "▁करना": 1320,
      "▁fact": 1321,
      "arn": 1322,
      "▁तु": 1323,
      "जा": 1324,
      "▁report": 1325,
      "ailable": 1326,
      "ross": 1327,
      "नि": 1328,
      "▁ऑ": 1329,
      "वी": 1330,
      "▁fil": 1331,
      "▁वा": 1332,
      "▁during": 1333,
      "▁techn": 1334,
      "ात्": 1335,
      "▁come": 1336,
      "र्ट": 1337,
      "cer": 1338,
      "▁सह": 1339,
      "ality": 1340,
      "ists": 1341,
      "▁Pl": 1342,
      "▁Ex": 1343,
      "▁open": 1344,
      "िता": 1345,
      "bers": 1346,
      "▁appro": 1347,
      "▁.": 1348,
      "ature": 1349,
      "ten": 1350,
      "▁school": 1351,
      "ोट": 1352,
      "त्या": 1353,
      "ms": 1354,
      "▁ref": 1355,
      "▁market": 1356,
      "▁जाता": 1357,
      "▁ob": 1358,
      "ering": 1359,
      "▁def": 1360,
      "▁poss": 1361,
      "ात्र": 1362,
      "▁fr": 1363,
      "▁partic": 1364,
      "ूस": 1365,
      "▁Ind": 1366,
      "ोप": 1367,
      "▁15": 1368,
      "gy": 1369,
      "rand": 1370,
      "▁ty": 1371,
      "ining": 1372,
      "▁using": 1373,
      "▁result": 1374,
      "ically": 1375,
      "ik": 1376,
      "ense": 1377,
      "▁क्ष": 1378,
      "▁अल": 1379,
      "▁something": 1380,
      "▁custom": 1381,
      "cent": 1382,
      "▁Is": 1383,
      "ined": 1384,
      "▁sol": 1385,
      "▁better": 1386,
      "▁गए": 1387,
      "▁contin": 1388,
      "con": 1389,
      "▁pat": 1390,
      "▁put": 1391,
      "▁var": 1392,
      "▁iss": 1393,
      "iving": 1394,
      "▁cent": 1395,
      "▁क्या": 1396,
      "▁dist": 1397,
      "ished": 1398,
      "▁allow": 1399,
      "▁interest": 1400,
      "▁18": 1401,
      "जन": 1402,
      "▁—": 1403,
      "▁[": 1404,
      "▁friend": 1405,
      "ield": 1406,
      "ention": 1407,
      "▁resp": 1408,
      "ling": 1409,
      "▁must": 1410,
      "▁rest": 1411,
      "▁i": 1412,
      "▁quest": 1413,
      "▁always": 1414,
      "▁without": 1415,
      "▁opt": 1416,
      "▁small": 1417,
      "▁game": 1418,
      "▁big": 1419,
      "ोर": 1420,
      "्यम": 1421,
      "▁company": 1422,
      "▁नाम": 1423,
      "oot": 1424,
      "ared": 1425,
      "▁main": 1426,
      "▁१": 1427,
      "▁including": 1428,
      "▁pass": 1429,
      "uss": 1430,
      "▁next": 1431,
      "▁another": 1432,
      "ुक्त": 1433,
      "▁val": 1434,
      "orn": 1435,
      "▁water": 1436,
      "▁try": 1437,
      "atur": 1438,
      "loy": 1439,
      "aj": 1440,
      "▁got": 1441,
      "▁देश": 1442,
      ",000": 1443,
      "ङ्": 1444,
      "iqu": 1445,
      "▁बार": 1446,
      "▁मौ": 1447,
      "▁pri": 1448,
      "्यों": 1449,
      "▁Fr": 1450,
      "▁conf": 1451,
      "▁wom": 1452,
      "▁सकता": 1453,
      "▁available": 1454,
      "▁आज": 1455,
      "▁बि": 1456,
      "▁group": 1457,
      "्यू": 1458,
      "्रह": 1459,
      "▁build": 1460,
      "▁pay": 1461,
      "▁head": 1462,
      "▁family": 1463,
      "▁might": 1464,
      "▁फिर": 1465,
      "▁ला": 1466,
      "▁11": 1467,
      "▁organ": 1468,
      "▁सभी": 1469,
      "ंप": 1470,
      "▁That": 1471,
      "▁stand": 1472,
      "▁tri": 1473,
      "stand": 1474,
      "धान": 1475,
      "▁effect": 1476,
      "▁होता": 1477,
      "ger": 1478,
      "▁बढ़": 1479,
      "▁ide": 1480,
      "वे": 1481,
      "▁हर": 1482,
      "▁mov": 1483,
      "▁cr": 1484,
      "ुरु": 1485,
      "ier": 1486,
      "reen": 1487,
      "me": 1488,
      "▁week": 1489,
      "▁never": 1490,
      "▁since": 1491,
      "▁Ph": 1492,
      "▁wr": 1493,
      "▁second": 1494,
      ",\"": 1495,
      "oney": 1496,
      "▁dri": 1497,
      "▁विक": 1498,
      "▁कई": 1499,
      "ृत": 1500,
      "▁hard": 1501,
      "▁रा": 1502,
      "▁experience": 1503,
      "▁ओ": 1504,
      "▁द्वारा": 1505,
      "ंत्री": 1506,
      "▁mus": 1507,
      "▁important": 1508,
      "ately": 1509,
      "▁ask": 1510,
      "ploy": 1511,
      "▁number": 1512,
      "ertain": 1513,
      "▁सर्व": 1514,
      "▁स्ट": 1515,
      "▁rece": 1516,
      "▁With": 1517,
      "▁incre": 1518,
      "क्ट": 1519,
      "▁proble": 1520,
      "िका": 1521,
      "ware": 1522,
      "कों": 1523,
      "▁sure": 1524,
      "ision": 1525,
      "ंह": 1526,
      "ample": 1527,
      "▁:": 1528,
      "▁project": 1529,
      "▁data": 1530,
      "स्या": 1531,
      "ism": 1532,
      "illion": 1533,
      "▁टी": 1534,
      "ps": 1535,
      "ेत": 1536,
      "▁Te": 1537,
      "भा": 1538,
      "els": 1539,
      "वार": 1540,
      "▁लगा": 1541,
      "▁Z": 1542,
      "▁bro": 1543,
      "cl": 1544,
      "▁public": 1545,
      "rist": 1546,
      "▁old": 1547,
      "क्षा": 1548,
      "▁perform": 1549,
      "ER": 1550,
      "▁inf": 1551,
      "▁हि": 1552,
      "▁साल": 1553,
      "▁तथा": 1554,
      "▁direct": 1555,
      "▁भारत": 1556,
      "ccess": 1557,
      "▁गु": 1558,
      "co": 1559,
      "▁Con": 1560,
      "▁class": 1561,
      "▁पुल": 1562,
      "▁service": 1563,
      "▁At": 1564,
      "iversity": 1565,
      "▁power": 1566,
      "नु": 1567,
      "▁उनके": 1568,
      "▁online": 1569,
      "▁level": 1570,
      "▁,": 1571,
      "न्द": 1572,
      "▁days": 1573,
      "▁cost": 1574,
      "▁निर्": 1575,
      "▁against": 1576,
      "▁ve": 1577,
      "▁give": 1578,
      "▁invest": 1579,
      "▁अस": 1580,
      "ान्त": 1581,
      "वन": 1582,
      "▁पार": 1583,
      "व्य": 1584,
      "क्स": 1585,
      "ted": 1586,
      "▁Tr": 1587,
      "मु": 1588,
      "▁वो": 1589,
      "▁हुआ": 1590,
      "▁able": 1591,
      "▁Bl": 1592,
      "▁bre": 1593,
      "▁law": 1594,
      "ral": 1595,
      "work": 1596,
      "pend": 1597,
      "ास्त": 1598,
      "▁grow": 1599,
      "▁pos": 1600,
      "ित्य": 1601,
      "▁No": 1602,
      "rence": 1603,
      "▁blo": 1604,
      "▁less": 1605,
      "धार": 1606,
      "▁spec": 1607,
      "▁test": 1608,
      "▁ca": 1609,
      "▁Or": 1610,
      "the": 1611,
      "▁sit": 1612,
      "▁होगा": 1613,
      "▁belie": 1614,
      "▁Col": 1615,
      "▁el": 1616,
      "rol": 1617,
      "▁expl": 1618,
      "ior": 1619,
      "ards": 1620,
      "▁चल": 1621,
      "▁win": 1622,
      "▁let": 1623,
      "▁आव": 1624,
      "ours": 1625,
      "inal": 1626,
      "ird": 1627,
      "▁बै": 1628,
      "ases": 1629,
      "uck": 1630,
      "▁rese": 1631,
      "ered": 1632,
      "▁My": 1633,
      "▁seem": 1634,
      "बी": 1635,
      "▁सू": 1636,
      "ote": 1637,
      "raph": 1638,
      "▁unt": 1639,
      "ency": 1640,
      "ients": 1641,
      "▁provide": 1642,
      "▁order": 1643,
      "▁फिल": 1644,
      "▁Sp": 1645,
      "▁पुलिस": 1646,
      "ivid": 1647,
      "वाद": 1648,
      "▁दिल": 1649,
      "▁within": 1650,
      "ffic": 1651,
      "णा": 1652,
      "श्य": 1653,
      "ीड": 1654,
      "ann": 1655,
      "▁क्र": 1656,
      "▁ते": 1657,
      "▁30": 1658,
      "aut": 1659,
      "▁US": 1660,
      "▁meet": 1661,
      "▁एवं": 1662,
      "▁current": 1663,
      "ission": 1664,
      "▁turn": 1665,
      "ember": 1666,
      "ats": 1667,
      "ruct": 1668,
      "10": 1669,
      "▁light": 1670,
      "ोऽ": 1671,
      "ok": 1672,
      "ंस": 1673,
      "▁Res": 1674,
      "ably": 1675,
      "▁उन्हें": 1676,
      "gin": 1677,
      "cing": 1678,
      "ोन": 1679,
      "vernment": 1680,
      "▁est": 1681,
      "pped": 1682,
      "मी": 1683,
      "▁oper": 1684,
      "त्प": 1685,
      "▁proper": 1686,
      "ised": 1687,
      "50": 1688,
      "▁Comm": 1689,
      "▁hum": 1690,
      "▁four": 1691,
      "▁says": 1692,
      "▁today": 1693,
      "▁leg": 1694,
      "ott": 1695,
      "ently": 1696,
      "▁माम": 1697,
      "here": 1698,
      "outh": 1699,
      "▁prev": 1700,
      "▁मुख": 1701,
      "ोध": 1702,
      "ल्": 1703,
      "▁services": 1704,
      "्न": 1705,
      "ration": 1706,
      "▁मान": 1707,
      "▁eng": 1708,
      "ron": 1709,
      "स्म": 1710,
      "▁ann": 1711,
      "eng": 1712,
      "द्व": 1713,
      "▁supp": 1714,
      "▁मै": 1715,
      "ाया": 1716,
      "▁access": 1717,
      "▁di": 1718,
      "▁लेकर": 1719,
      "▁webs": 1720,
      "▁working": 1721,
      "▁food": 1722,
      "ator": 1723,
      "▁pop": 1724,
      "जे": 1725,
      "▁away": 1726,
      "▁prote": 1727,
      "▁हुई": 1728,
      "मार": 1729,
      "▁children": 1730,
      "▁दर्": 1731,
      "▁job": 1732,
      "pping": 1733,
      "pos": 1734,
      "med": 1735,
      "▁prom": 1736,
      ".,": 1737,
      "▁कारण": 1738,
      "▁area": 1739,
      "▁view": 1740,
      "▁addition": 1741,
      "ider": 1742,
      "▁Sc": 1743,
      "▁making": 1744,
      "▁Man": 1745,
      "ains": 1746,
      "▁अव": 1747,
      "ium": 1748,
      "▁Mar": 1749,
      "▁case": 1750,
      "oint": 1751,
      "तर": 1752,
      "▁घर": 1753,
      "▁जर": 1754,
      "ret": 1755,
      "स्व": 1756,
      "▁gl": 1757,
      "30": 1758,
      "▁सबसे": 1759,
      "▁क्यों": 1760,
      "atter": 1761,
      "ाती": 1762,
      "▁sing": 1763,
      "ेय": 1764,
      "ified": 1765,
      "▁dem": 1766,
      "ww": 1767,
      "▁special": 1768,
      "सि": 1769,
      "▁अच्छ": 1770,
      "हर": 1771,
      "बंध": 1772,
      "▁equ": 1773,
      "▁पास": 1774,
      "▁beh": 1775,
      "▁sal": 1776,
      "ुक": 1777,
      "▁phot": 1778,
      "tend": 1779,
      "ina": 1780,
      "▁जन": 1781,
      "▁cap": 1782,
      "म्म": 1783,
      "▁Can": 1784,
      "▁money": 1785,
      "▁thing": 1786,
      "▁course": 1787,
      "▁change": 1788,
      "ley": 1789,
      "▁looking": 1790,
      "क्ति": 1791,
      "▁tru": 1792,
      "▁One": 1793,
      "ream": 1794,
      "▁अगर": 1795,
      "▁ना": 1796,
      "▁श्र": 1797,
      "▁vide": 1798,
      "ured": 1799,
      "▁चाहिए": 1800,
      "▁ग्र": 1801,
      "▁local": 1802,
      "to": 1803,
      "▁intern": 1804,
      "भव": 1805,
      "▁night": 1806,
      "▁students": 1807,
      "दान": 1808,
      "▁pract": 1809,
      "hor": 1810,
      "▁present": 1811,
      "▁पहु": 1812,
      "iting": 1813,
      "ording": 1814,
      "iron": 1815,
      "ids": 1816,
      "▁करता": 1817,
      "ope": 1818,
      "orth": 1819,
      "lection": 1820,
      "्याप": 1821,
      "ury": 1822,
      "▁why": 1823,
      "▁site": 1824,
      "▁until": 1825,
      "▁App": 1826,
      "▁past": 1827,
      "▁chang": 1828,
      "▁hist": 1829,
      "▁Christ": 1830,
      "ories": 1831,
      "ify": 1832,
      "icle": 1833,
      "▁मुझ": 1834,
      "▁bas": 1835,
      "ेम": 1836,
      "▁room": 1837,
      "▁Cent": 1838,
      "▁अन्य": 1839,
      "arent": 1840,
      "▁खु": 1841,
      "aring": 1842,
      "ष्ठ": 1843,
      "▁May": 1844,
      "ump": 1845,
      "ंक": 1846,
      "ुरू": 1847,
      "▁const": 1848,
      "▁fac": 1849,
      "▁word": 1850,
      "▁understand": 1851,
      "ills": 1852,
      "ability": 1853,
      "▁impro": 1854,
      "ney": 1855,
      "▁उसके": 1856,
      "por": 1857,
      "▁मन": 1858,
      "ून": 1859,
      "IN": 1860,
      "▁large": 1861,
      "sh": 1862,
      "▁नी": 1863,
      "ैव": 1864,
      "lish": 1865,
      "कारी": 1866,
      "ization": 1867,
      "▁Am": 1868,
      "ential": 1869,
      "augh": 1870,
      "▁मार": 1871,
      "त्म": 1872,
      "▁फिल्म": 1873,
      "▁kind": 1874,
      "▁profess": 1875,
      "▁God": 1876,
      "▁Our": 1877,
      "▁dr": 1878,
      "▁success": 1879,
      "▁पै": 1880,
      "▁Co": 1881,
      "▁जु": 1882,
      "iven": 1883,
      "joy": 1884,
      "▁बताया": 1885,
      "▁times": 1886,
      "▁expect": 1887,
      "तः": 1888,
      "▁activ": 1889,
      "▁14": 1890,
      "itions": 1891,
      "▁writ": 1892,
      "माण": 1893,
      "डी": 1894,
      "▁having": 1895,
      "ूम": 1896,
      "utes": 1897,
      "▁Do": 1898,
      "ged": 1899,
      "ising": 1900,
      "▁left": 1901,
      "▁name": 1902,
      "वाल": 1903,
      "▁often": 1904,
      "soci": 1905,
      "चा": 1906,
      "एं": 1907,
      "▁toget": 1908,
      "▁पूर्व": 1909,
      "▁applic": 1910,
      "agement": 1911,
      "▁together": 1912,
      "ries": 1913,
      "▁199": 1914,
      "conom": 1915,
      "▁event": 1916,
      "▁term": 1917,
      "ocus": 1918,
      "▁जाने": 1919,
      "min": 1920,
      "शी": 1921,
      "▁employ": 1922,
      "load": 1923,
      "▁These": 1924,
      "िवार": 1925,
      "▁air": 1926,
      "▁Su": 1927,
      "ived": 1928,
      "▁check": 1929,
      "enef": 1930,
      "ane": 1931,
      "omm": 1932,
      "▁आपके": 1933,
      "ाण": 1934,
      "▁season": 1935,
      "▁indust": 1936,
      "जर": 1937,
      "ाप्त": 1938,
      "▁complete": 1939,
      "▁dra": 1940,
      "▁tell": 1941,
      "veral": 1942,
      "▁didn": 1943,
      "▁along": 1944,
      "▁श्री": 1945,
      "▁learn": 1946,
      "्ली": 1947,
      "▁move": 1948,
      "▁सिंह": 1949,
      "▁dev": 1950,
      "▁दूस": 1951,
      "▁जि": 1952,
      "ध्य": 1953,
      "▁Ste": 1954,
      "▁हाल": 1955,
      "ode": 1956,
      "ांच": 1957,
      "enn": 1958,
      "▁cond": 1959,
      "▁16": 1960,
      "▁es": 1961,
      "part": 1962,
      "▁talk": 1963,
      "▁pa": 1964,
      "▁near": 1965,
      "▁side": 1966,
      "▁creat": 1967,
      "ination": 1968,
      "▁निक": 1969,
      "ividual": 1970,
      "ohn": 1971,
      "▁community": 1972,
      "▁treat": 1973,
      "bo": 1974,
      "▁story": 1975,
      "ूत": 1976,
      "▁house": 1977,
      "ajor": 1978,
      "▁...": 1979,
      "▁बु": 1980,
      "यं": 1981,
      "itive": 1982,
      "▁बच्च": 1983,
      "▁buy": 1984,
      "यो": 1985,
      "aim": 1986,
      "सान": 1987,
      "▁After": 1988,
      "▁कै": 1989,
      "ready": 1990,
      "let": 1991,
      "हार": 1992,
      "िण": 1993,
      "▁(1": 1994,
      "▁University": 1995,
      "▁enough": 1996,
      "फी": 1997,
      "aster": 1998,
      "br": 1999,
      "▁become": 2000,
      "▁ever": 2001,
      "side": 2002,
      "▁mar": 2003,
      "▁body": 2004,
      "▁/": 2005,
      "▁short": 2006,
      "▁account": 2007,
      "ल्प": 2008,
      "पा": 2009,
      "ेत्र": 2010,
      "गत": 2011,
      "▁sw": 2012,
      "urs": 2013,
      "ोड़": 2014,
      "▁उसे": 2015,
      "▁शुरू": 2016,
      "▁ज्या": 2017,
      "ead": 2018,
      "tain": 2019,
      "irl": 2020,
      "▁offer": 2021,
      "▁Car": 2022,
      "▁products": 2023,
      "▁Fe": 2024,
      "▁offic": 2025,
      "alf": 2026,
      "▁women": 2027,
      "▁done": 2028,
      "▁शिक": 2029,
      "aterial": 2030,
      "न्ध": 2031,
      "▁Eng": 2032,
      "▁feat": 2033,
      "▁include": 2034,
      "िज": 2035,
      "▁website": 2036,
      "▁men": 2037,
      "ery": 2038,
      "दर्": 2039,
      "▁pot": 2040,
      "पुर": 2041,
      "▁needs": 2042,
      "वान": 2043,
      "▁होती": 2044,
      "▁pain": 2045,
      "ON": 2046,
      "▁दौर": 2047,
      "▁बारे": 2048,
      "▁13": 2049,
      "▁trad": 2050,
      "by": 2051,
      "uro": 2052,
      "▁ठ": 2053,
      "son": 2054,
      "une": 2055,
      "▁conne": 2056,
      "▁members": 2057,
      "क्षण": 2058,
      "्ज": 2059,
      "rap": 2060,
      "▁bit": 2061,
      "▁clo": 2062,
      "▁country": 2063,
      "▁हू": 2064,
      "▁स्त": 2065,
      "ows": 2066,
      "▁already": 2067,
      "▁makes": 2068,
      "fer": 2069,
      "एस": 2070,
      "▁line": 2071,
      "▁called": 2072,
      "▁possible": 2073,
      "▁ऐसे": 2074,
      "्टी": 2075,
      "ails": 2076,
      "▁research": 2077,
      "▁certain": 2078,
      "▁la": 2079,
      "ञ्च": 2080,
      "▁far": 2081,
      "▁यु": 2082,
      "▁Pr": 2083,
      "▁वै": 2084,
      "▁However": 2085,
      "▁झ": 2086,
      "▁review": 2087,
      "▁individual": 2088,
      "pportun": 2089,
      "▁1.": 2090,
      "▁easy": 2091,
      "न्द्र": 2092,
      "▁getting": 2093,
      "र्स": 2094,
      "टर": 2095,
      "ern": 2096,
      "▁news": 2097,
      "ots": 2098,
      "▁आई": 2099,
      "cu": 2100,
      "oice": 2101,
      "▁enjoy": 2102,
      "ानि": 2103,
      "▁benef": 2104,
      "▁means": 2105,
      "▁live": 2106,
      "▁John": 2107,
      "▁मुझे": 2108,
      "ीर": 2109,
      "▁quality": 2110,
      "▁mean": 2111,
      "▁*": 2112,
      "▁several": 2113,
      "▁occ": 2114,
      "▁lo": 2115,
      "▁record": 2116,
      "▁personal": 2117,
      "ush": 2118,
      "▁social": 2119,
      "▁following": 2120,
      "▁others": 2121,
      "▁focus": 2122,
      "सार": 2123,
      "▁government": 2124,
      "AT": 2125,
      "▁based": 2126,
      "ec": 2127,
      "वल": 2128,
      "▁control": 2129,
      "fort": 2130,
      "▁लिया": 2131,
      "▁fore": 2132,
      "▁mil": 2133,
      "▁--": 2134,
      "uture": 2135,
      "▁doing": 2136,
      "ES": 2137,
      "▁cou": 2138,
      "नाव": 2139,
      "▁पहुंच": 2140,
      "क्रम": 2141,
      "ither": 2142,
      "ीय": 2143,
      "of": 2144,
      "▁non": 2145,
      "▁अपना": 2146,
      "▁visit": 2147,
      "▁came": 2148,
      "▁ट्र": 2149,
      "viron": 2150,
      "ands": 2151,
      "▁Cont": 2152,
      "▁camp": 2153,
      "▁Rep": 2154,
      "ique": 2155,
      "1.": 2156,
      "करण": 2157,
      "▁music": 2158,
      "ored": 2159,
      "ात्म": 2160,
      "▁रुप": 2161,
      "▁mind": 2162,
      "▁fund": 2163,
      "....": 2164,
      "पू": 2165,
      "app": 2166,
      "▁Me": 2167,
      "▁17": 2168,
      "▁25": 2169,
      "▁२": 2170,
      "▁क्षेत्र": 2171,
      "▁En": 2172,
      "ावा": 2173,
      "▁शाम": 2174,
      "▁American": 2175,
      "-2": 2176,
      "▁मा": 2177,
      "ण्ड": 2178,
      "▁दिख": 2179,
      "▁major": 2180,
      "▁lim": 2181,
      "▁Not": 2182,
      "▁actually": 2183,
      "ption": 2184,
      "aff": 2185,
      "▁मां": 2186,
      "▁यदि": 2187,
      "▁elect": 2188,
      "▁100": 2189,
      "▁Ro": 2190,
      "osed": 2191,
      "लो": 2192,
      "ances": 2193,
      "ides": 2194,
      "▁educ": 2195,
      "ोजना": 2196,
      "▁least": 2197,
      "mber": 2198,
      "▁24": 2199,
      "▁Fl": 2200,
      "ोष": 2201,
      "▁opportun": 2202,
      "वर": 2203,
      "▁comes": 2204,
      "▁tre": 2205,
      "▁young": 2206,
      "wards": 2207,
      "ai": 2208,
      "▁million": 2209,
      "▁आय": 2210,
      "▁ई": 2211,
      "orts": 2212,
      "▁fav": 2213,
      "सर": 2214,
      "▁hold": 2215,
      "AN": 2216,
      "ङ्ग": 2217,
      "▁quick": 2218,
      "book": 2219,
      "cially": 2220,
      "ेंद्र": 2221,
      "▁Med": 2222,
      "▁दोनों": 2223,
      "▁उनकी": 2224,
      "एम": 2225,
      "idd": 2226,
      "▁doesn": 2227,
      "rop": 2228,
      "lement": 2229,
      "▁thought": 2230,
      "AR": 2231,
      "▁#": 2232,
      "▁बद": 2233,
      "ee": 2234,
      "▁return": 2235,
      "▁जैसे": 2236,
      "श्व": 2237,
      "▁create": 2238,
      "yle": 2239,
      "▁विशेष": 2240,
      "▁कंप": 2241,
      "▁भव": 2242,
      "▁across": 2243,
      "2.": 2244,
      "ियो": 2245,
      "▁।।": 2246,
      "▁कृ": 2247,
      "▁deal": 2248,
      "स्": 2249,
      "▁X": 2250,
      "ape": 2251,
      "atic": 2252,
      "▁clear": 2253,
      "▁net": 2254,
      "▁mom": 2255,
      "err": 2256,
      "most": 2257,
      "▁ey": 2258,
      "▁took": 2259,
      "▁charact": 2260,
      "▁Your": 2261,
      "▁ce": 2262,
      "▁Br": 2263,
      "ष्य": 2264,
      "र्त": 2265,
      "▁contact": 2266,
      "▁anal": 2267,
      "▁हा": 2268,
      "ched": 2269,
      "▁material": 2270,
      "▁mult": 2271,
      "▁once": 2272,
      "तीय": 2273,
      "▁low": 2274,
      "▁Inst": 2275,
      "▁invol": 2276,
      "▁particular": 2277,
      "ully": 2278,
      "▁happen": 2279,
      "ches": 2280,
      "▁स्प": 2281,
      "▁By": 2282,
      "▁started": 2283,
      "▁development": 2284,
      "ब्द": 2285,
      "ंब": 2286,
      "ians": 2287,
      "ister": 2288,
      "ाक": 2289,
      "▁soft": 2290,
      "▁बीच": 2291,
      "ony": 2292,
      "ेंगे": 2293,
      "▁city": 2294,
      "न्य": 2295,
      "ालय": 2296,
      "▁वाली": 2297,
      "▁दौरान": 2298,
      "crib": 2299,
      "▁went": 2300,
      "▁video": 2301,
      "▁beaut": 2302,
      "aps": 2303,
      "▁ज्यादा": 2304,
      "▁50": 2305,
      "urther": 2306,
      "room": 2307,
      "duct": 2308,
      "!!": 2309,
      "OR": 2310,
      "▁friends": 2311,
      "ones": 2312,
      "▁won": 2313,
      "▁खिला": 2314,
      "▁hot": 2315,
      "▁future": 2316,
      "▁तै": 2317,
      "▁orig": 2318,
      "▁जानकारी": 2319,
      "▁months": 2320,
      "▁percent": 2321,
      "▁अग": 2322,
      "▁link": 2323,
      "▁स्क": 2324,
      "िये": 2325,
      "▁Comp": 2326,
      "▁2.": 2327,
      "mm": 2328,
      "vironment": 2329,
      "ियम": 2330,
      "not": 2331,
      "र्ष": 2332,
      "▁reason": 2333,
      "▁Sy": 2334,
      "aken": 2335,
      "▁hours": 2336,
      "▁गां": 2337,
      "▁वर्ष": 2338,
      "lf": 2339,
      "धा": 2340,
      "▁पि": 2341,
      "ips": 2342,
      "▁econom": 2343,
      "▁bring": 2344,
      "isk": 2345,
      "lished": 2346,
      "▁redu": 2347,
      "▁specific": 2348,
      "▁रो": 2349,
      "▁perfect": 2350,
      "hod": 2351,
      "▁share": 2352,
      "▁yet": 2353,
      "▁early": 2354,
      "▁later": 2355,
      "दार": 2356,
      "▁कॉ": 2357,
      "▁strong": 2358,
      "▁Intern": 2359,
      "▁study": 2360,
      "▁vers": 2361,
      "ograph": 2362,
      "▁cut": 2363,
      "▁Che": 2364,
      "▁example": 2365,
      "▁चे": 2366,
      "भाग": 2367,
      "▁ident": 2368,
      "▁typ": 2369,
      "▁key": 2370,
      "urity": 2371,
      "▁Wor": 2372,
      "ateg": 2373,
      "▁शु": 2374,
      "lling": 2375,
      "▁ऐसा": 2376,
      "uff": 2377,
      "ences": 2378,
      "रिक": 2379,
      "ges": 2380,
      "रूप": 2381,
      "▁et": 2382,
      "1,": 2383,
      "्रेस": 2384,
      "ners": 2385,
      "▁compet": 2386,
      "gle": 2387,
      "▁compan": 2388,
      "oose": 2389,
      "फ़": 2390,
      "for": 2391,
      "ift": 2392,
      "▁heart": 2393,
      "▁problem": 2394,
      "▁email": 2395,
      "bal": 2396,
      "▁hig": 2397,
      "▁इसे": 2398,
      "▁page": 2399,
      "▁step": 2400,
      "▁)": 2401,
      "▁require": 2402,
      "▁wa": 2403,
      "▁told": 2404,
      "▁five": 2405,
      "▁घट": 2406,
      "▁विश्व": 2407,
      "▁United": 2408,
      "ference": 2409,
      "▁tem": 2410,
      "ource": 2411,
      "wh": 2412,
      "cle": 2413,
      "sw": 2414,
      "resent": 2415,
      "iday": 2416,
      "▁par": 2417,
      "verage": 2418,
      "▁इत्य": 2419,
      "ृत्त": 2420,
      "osp": 2421,
      "▁ब्र": 2422,
      "धिक": 2423,
      "▁appear": 2424,
      "ulation": 2425,
      "▁deli": 2426,
      "arr": 2427,
      "▁Now": 2428,
      "▁begin": 2429,
      "▁Ab": 2430,
      "▁human": 2431,
      "icy": 2432,
      "्यान": 2433,
      "तु": 2434,
      "▁Gu": 2435,
      "▁press": 2436,
      "▁discuss": 2437,
      "▁भाव": 2438,
      "utions": 2439,
      "ित्त": 2440,
      "▁chall": 2441,
      "▁below": 2442,
      "▁Here": 2443,
      "▁close": 2444,
      "▁ant": 2445,
      "▁walk": 2446,
      "▁known": 2447,
      "▁vari": 2448,
      "धी": 2449,
      "▁उत्त": 2450,
      "▁rele": 2451,
      "▁सुर": 2452,
      "ृष्ट": 2453,
      "▁given": 2454,
      "▁दिल्ली": 2455,
      "unch": 2456,
      "ino": 2457,
      "▁Bo": 2458,
      "तो": 2459,
      "iod": 2460,
      "ोर्ट": 2461,
      "▁State": 2462,
      "pro": 2463,
      "ैन": 2464,
      "We": 2465,
      "reet": 2466,
      "▁?": 2467,
      "--": 2468,
      "सं": 2469,
      "लिए": 2470,
      "▁minutes": 2471,
      "▁relations": 2472,
      "idence": 2473,
      "ights": 2474,
      "▁ste": 2475,
      "ster": 2476,
      "▁बैठ": 2477,
      "acy": 2478,
      "▁pack": 2479,
      "▁राज्य": 2480,
      "ources": 2481,
      "▁item": 2482,
      "▁प्रश": 2483,
      "▁space": 2484,
      "▁author": 2485,
      "▁priv": 2486,
      "ler": 2487,
      "ilities": 2488,
      "de": 2489,
      "▁ener": 2490,
      "▁face": 2491,
      "lege": 2492,
      "▁everything": 2493,
      "▁Serv": 2494,
      "itor": 2495,
      "ादी": 2496,
      "▁ess": 2497,
      "निया": 2498,
      "▁ago": 2499,
      "▁comb": 2500,
      "▁someone": 2501,
      "▁Tw": 2502,
      "▁देने": 2503,
      "▁exc": 2504,
      "धि": 2505,
      "▁industry": 2506,
      "▁purch": 2507,
      "▁question": 2508,
      "▁Some": 2509,
      "▁उपयोग": 2510,
      "rict": 2511,
      "▁stay": 2512,
      "ेज": 2513,
      "▁While": 2514,
      "rew": 2515,
      "oon": 2516,
      "▁निव": 2517,
      "▁seen": 2518,
      "▁समझ": 2519,
      "over": 2520,
      "▁tax": 2521,
      "▁लिख": 2522,
      "ilar": 2523,
      "ural": 2524,
      "▁Des": 2525,
      "चे": 2526,
      "▁prob": 2527,
      "▁202": 2528,
      "illed": 2529,
      "▁whether": 2530,
      "▁whole": 2531,
      "▁sound": 2532,
      "▁vol": 2533,
      "▁कप": 2534,
      "eral": 2535,
      "▁क्योंकि": 2536,
      "▁ऊ": 2537,
      "▁games": 2538,
      "▁among": 2539,
      "▁पद": 2540,
      "▁फै": 2541,
      "सम": 2542,
      "▁super": 2543,
      "▁टीम": 2544,
      "▁यहां": 2545,
      "▁Mr": 2546,
      "▁jo": 2547,
      "▁ens": 2548,
      "ज्ञान": 2549,
      "though": 2550,
      "atural": 2551,
      "ख्या": 2552,
      "par": 2553,
      "▁field": 2554,
      "▁tot": 2555,
      "hers": 2556,
      "जू": 2557,
      "भ्य": 2558,
      "ball": 2559,
      "ply": 2560,
      "▁price": 2561,
      "▁single": 2562,
      "▁Dr": 2563,
      "ama": 2564,
      "che": 2565,
      "ित्र": 2566,
      "aces": 2567,
      "▁बो": 2568,
      "▁break": 2569,
      "▁polit": 2570,
      "▁content": 2571,
      "▁respons": 2572,
      "ilt": 2573,
      "▁believe": 2574,
      "▁claim": 2575,
      "▁pie": 2576,
      "▁मेरे": 2577,
      "▁pick": 2578,
      "र्ड": 2579,
      "ourn": 2580,
      "▁enc": 2581,
      "▁काफी": 2582,
      "pecially": 2583,
      "▁योजना": 2584,
      "//": 2585,
      "▁sex": 2586,
      "▁clean": 2587,
      "ाली": 2588,
      "▁amount": 2589,
      "▁companies": 2590,
      "▁जग": 2591,
      "ibility": 2592,
      "▁tool": 2593,
      "▁मद": 2594,
      "▁प्राप्त": 2595,
      "▁Count": 2596,
      "▁महिला": 2597,
      "▁Min": 2598,
      "ctor": 2599,
      "▁जाती": 2600,
      "▁age": 2601,
      "▁Go": 2602,
      "▁बल": 2603,
      "urch": 2604,
      "3.": 2605,
      "▁taking": 2606,
      "ST": 2607,
      "आई": 2608,
      "ned": 2609,
      "▁ज्ञ": 2610,
      "ेव": 2611,
      "▁Qu": 2612,
      "ided": 2613,
      "ison": 2614,
      "▁mor": 2615,
      "चना": 2616,
      "▁media": 2617,
      "gs": 2618,
      "selves": 2619,
      "▁cult": 2620,
      "▁Cal": 2621,
      "िस्ट": 2622,
      "▁Euro": 2623,
      "▁address": 2624,
      "▁fre": 2625,
      "ili": 2626,
      "rain": 2627,
      "▁wind": 2628,
      "ained": 2629,
      "ensive": 2630,
      "▁डॉ": 2631,
      "िस्त": 2632,
      "▁Ed": 2633,
      "▁Pe": 2634,
      "://": 2635,
      "▁above": 2636,
      "श्र": 2637,
      "▁hope": 2638,
      "ancial": 2639,
      "ental": 2640,
      "af": 2641,
      "ued": 2642,
      "▁half": 2643,
      "▁York": 2644,
      "▁mess": 2645,
      "▁anything": 2646,
      "cri": 2647,
      "▁results": 2648,
      "▁Ke": 2649,
      "▁port": 2650,
      "▁history": 2651,
      "▁Bro": 2652,
      "▁पढ़": 2653,
      "▁due": 2654,
      "▁More": 2655,
      "▁issues": 2656,
      "▁phys": 2657,
      "▁fall": 2658,
      "▁ज़": 2659,
      "iously": 2660,
      "new": 2661,
      "टा": 2662,
      "गु": 2663,
      "ृति": 2664,
      "ogn": 2665,
      "abor": 2666,
      "ggest": 2667,
      "▁City": 2668,
      "▁Jan": 2669,
      "▁Just": 2670,
      "त्स": 2671,
      "▁questions": 2672,
      "▁pub": 2673,
      "2,": 2674,
      "ेंट": 2675,
      "ंबर": 2676,
      "▁cred": 2677,
      "go": 2678,
      "▁consider": 2679,
      "▁recomm": 2680,
      "irm": 2681,
      "▁mot": 2682,
      "▁cra": 2683,
      "▁His": 2684,
      "fic": 2685,
      "▁तीन": 2686,
      "▁शामिल": 2687,
      "▁करे": 2688,
      "▁girl": 2689,
      "▁z": 2690,
      "5.": 2691,
      "fully": 2692,
      "▁कर्म": 2693,
      "irt": 2694,
      "▁recommend": 2695,
      "▁उठ": 2696,
      "▁series": 2697,
      "ेस": 2698,
      "imate": 2699,
      "▁प्रदेश": 2700,
      "▁Mc": 2701,
      "EN": 2702,
      "uation": 2703,
      "▁manag": 2704,
      "्रीय": 2705,
      "▁front": 2706,
      "▁जाएगा": 2707,
      "▁works": 2708,
      "▁please": 2709,
      "मिति": 2710,
      "elt": 2711,
      "▁period": 2712,
      "▁store": 2713,
      "▁sci": 2714,
      "asing": 2715,
      "▁common": 2716,
      "▁योग": 2717,
      "ams": 2718,
      "▁Sec": 2719,
      "▁व्यव": 2720,
      "फल": 2721,
      "▁building": 2722,
      "▁environment": 2723,
      "▁bar": 2724,
      "▁eff": 2725,
      "ille": 2726,
      "▁हमारे": 2727,
      "▁मैंने": 2728,
      "ledge": 2729,
      "come": 2730,
      "▁भा": 2731,
      "▁aff": 2732,
      "▁बा": 2733,
      "▁कैसे": 2734,
      "▁energy": 2735,
      "▁Pres": 2736,
      "▁wond": 2737,
      "ेर": 2738,
      "▁technology": 2739,
      "षय": 2740,
      "▁watch": 2741,
      "र्थः": 2742,
      "▁आर": 2743,
      "▁मामले": 2744,
      "9.": 2745,
      "▁भारतीय": 2746,
      "▁brand": 2747,
      "ेशन": 2748,
      "back": 2749,
      "▁Gr": 2750,
      "▁entire": 2751,
      "▁idea": 2752,
      "▁almost": 2753,
      "▁होते": 2754,
      "itted": 2755,
      "▁either": 2756,
      "▁Je": 2757,
      "▁सकती": 2758,
      "▁Per": 2759,
      "vert": 2760,
      "▁aud": 2761,
      "▁features": 2762,
      "▁suggest": 2763,
      "▁bad": 2764,
      "▁improve": 2765,
      "हत": 2766,
      "▁cal": 2767,
      "AL": 2768,
      "201": 2769,
      "▁further": 2770,
      "▁गो": 2771,
      "▁search": 2772,
      "ried": 2773,
      "▁इसलिए": 2774,
      "▁method": 2775,
      "ित्व": 2776,
      "▁बाह": 2777,
      "ask": 2778,
      "▁everyone": 2779,
      "▁तब": 2780,
      "▁range": 2781,
      "ators": 2782,
      "▁Im": 2783,
      "न्म": 2784,
      "स्था": 2785,
      "▁pict": 2786,
      "▁पुर": 2787,
      "▁self": 2788,
      "▁travel": 2789,
      "काश": 2790,
      "▁पूरी": 2791,
      "▁Sm": 2792,
      "anks": 2793,
      "chie": 2794,
      "▁crit": 2795,
      "▁type": 2796,
      "▁कभी": 2797,
      "▁concer": 2798,
      "▁Will": 2799,
      "▁land": 2800,
      "▁चार": 2801,
      "▁relationship": 2802,
      "org": 2803,
      "ites": 2804,
      "mb": 2805,
      "▁repl": 2806,
      "▁इससे": 2807,
      "▁training": 2808,
      "्रह्म": 2809,
      "▁•": 2810,
      "▁quite": 2811,
      "iver": 2812,
      "लाइ": 2813,
      "__": 2814,
      "▁value": 2815,
      "▁miss": 2816,
      "▁parent": 2817,
      "▁इसी": 2818,
      "▁त्व": 2819,
      "▁film": 2820,
      "cell": 2821,
      "▁3.": 2822,
      "vent": 2823,
      "4.": 2824,
      "▁अंत": 2825,
      "▁National": 2826,
      "▁इत": 2827,
      "▁deb": 2828,
      "▁del": 2829,
      "▁meas": 2830,
      "▁Dis": 2831,
      "▁Pre": 2832,
      "▁गिर": 2833,
      "▁offers": 2834,
      "▁track": 2835,
      "▁आरो": 2836,
      "▁Part": 2837,
      "▁trying": 2838,
      "iful": 2839,
      "▁likely": 2840,
      "▁Mark": 2841,
      "▁dig": 2842,
      "▁अभ": 2843,
      "used": 2844,
      "ेड": 2845,
      "▁signific": 2846,
      "▁customers": 2847,
      "▁taken": 2848,
      "umb": 2849,
      "ED": 2850,
      "▁web": 2851,
      "ान्य": 2852,
      "िद": 2853,
      "▁किए": 2854,
      "ively": 2855,
      "arning": 2856,
      "▁जीवन": 2857,
      "▁various": 2858,
      "स्प": 2859,
      "aur": 2860,
      "▁wanted": 2861,
      "▁Tra": 2862,
      "▁ली": 2863,
      "▁mag": 2864,
      "र्क": 2865,
      "▁Don": 2866,
      "ची": 2867,
      "▁Europe": 2868,
      "▁favor": 2869,
      "ging": 2870,
      "▁प्रव": 2871,
      "लों": 2872,
      "▁especially": 2873,
      "ूट": 2874,
      "▁black": 2875,
      "play": 2876,
      "▁राष्ट": 2877,
      "▁South": 2878,
      "rodu": 2879,
      "lex": 2880,
      "▁necess": 2881,
      "ana": 2882,
      "sy": 2883,
      "▁dou": 2884,
      "▁sent": 2885,
      "fact": 2886,
      "▁भर": 2887,
      "▁third": 2888,
      "▁सप": 2889,
      "▁ओर": 2890,
      "oogle": 2891,
      "▁however": 2892,
      "gest": 2893,
      "▁particip": 2894,
      "▁हों": 2895,
      "▁six": 2896,
      "▁ele": 2897,
      "▁अभी": 2898,
      "▁North": 2899,
      "ficult": 2900,
      "8.": 2901,
      "▁consum": 2902,
      "▁areas": 2903,
      "▁card": 2904,
      "▁simple": 2905,
      "▁लड़": 2906,
      "resh": 2907,
      "▁School": 2908,
      "▁TH": 2909,
      "▁points": 2910,
      "omes": 2911,
      "▁comput": 2912,
      "ताओं": 2913,
      "▁World": 2914,
      "Th": 2915,
      "IT": 2916,
      "6.": 2917,
      "▁तत्र": 2918,
      "▁Acc": 2919,
      "▁protect": 2920,
      "▁asked": 2921,
      "▁सुन": 2922,
      "▁होगी": 2923,
      "▁पड़": 2924,
      "ायर": 2925,
      "gress": 2926,
      "ises": 2927,
      "▁Ge": 2928,
      "▁glo": 2929,
      "▁याद": 2930,
      "▁States": 2931,
      "▁host": 2932,
      "▁needed": 2933,
      "▁coming": 2934,
      "▁spend": 2935,
      "▁cir": 2936,
      "▁oil": 2937,
      "▁Ju": 2938,
      "iol": 2939,
      "▁else": 2940,
      "▁management": 2941,
      "▁performance": 2942,
      "मत": 2943,
      "ाला": 2944,
      "ांस": 2945,
      "obile": 2946,
      "▁pret": 2947,
      "IC": 2948,
      "ples": 2949,
      "▁कांग": 2950,
      "7.": 2951,
      "AS": 2952,
      "▁difficult": 2953,
      "3,": 2954,
      "▁simply": 2955,
      "ियां": 2956,
      "▁install": 2957,
      "opy": 2958,
      "▁issue": 2959,
      "▁राम": 2960,
      "na": 2961,
      "▁तैय": 2962,
      "rie": 2963,
      "▁office": 2964,
      "▁htt": 2965,
      "▁docu": 2966,
      "▁40": 2967,
      "ाये": 2968,
      "▁staff": 2969,
      "▁Oct": 2970,
      "▁Spe": 2971,
      "▁सामने": 2972,
      "ung": 2973,
      "ग्": 2974,
      "▁probably": 2975,
      "▁From": 2976,
      "▁ways": 2977,
      "▁Aug": 2978,
      "ially": 2979,
      "▁Aust": 2980,
      "ires": 2981,
      "▁व्यक्ति": 2982,
      "▁rather": 2983,
      "▁answ": 2984,
      "▁!": 2985,
      "▁Inc": 2986,
      "▁red": 2987,
      "▁provides": 2988,
      "▁पत्र": 2989,
      "म्ब": 2990,
      "▁stop": 2991,
      "oid": 2992,
      "▁Dep": 2993,
      "99": 2994,
      "▁Cor": 2995,
      "ीस": 2996,
      "▁शिक्ष": 2997,
      "▁चुनाव": 2998,
      "ication": 2999,
      "▁living": 3000,
      "▁Apr": 3001,
      "▁required": 3002,
      "▁position": 3003,
      "angu": 3004,
      "▁abs": 3005,
      "▁cell": 3006,
      "▁उसकी": 3007,
      "aching": 3008,
      "▁added": 3009,
      "चित": 3010,
      "▁text": 3011,
      "▁soon": 3012,
      "▁प्रकार": 3013,
      "▁Please": 3014,
      "time": 3015,
      "▁व्याप": 3016,
      "▁foot": 3017,
      "मन": 3018,
      "ruction": 3019,
      "ification": 3020,
      "्ले": 3021,
      "▁hy": 3022,
      "▁Pol": 3023,
      "itch": 3024,
      "▁upd": 3025,
      "▁Add": 3026,
      "▁isn": 3027,
      "▁Ag": 3028,
      "▁risk": 3029,
      "हाँ": 3030,
      "year": 3031,
      "यी": 3032,
      "▁dam": 3033,
      "काल": 3034,
      "reme": 3035,
      "roll": 3036,
      "▁प्रत्य": 3037,
      "ze": 3038,
      "्यते": 3039,
      "▁assist": 3040,
      "eth": 3041,
      "▁bed": 3042,
      "yn": 3043,
      "▁३": 3044,
      "▁problems": 3045,
      "▁represent": 3046,
      "▁continue": 3047,
      "60": 3048,
      "▁तद": 3049,
      "▁Park": 3050,
      "▁करके": 3051,
      "▁आने": 3052,
      "▁words": 3053,
      "urance": 3054,
      "▁pretty": 3055,
      "▁exist": 3056,
      "▁init": 3057,
      "▁professional": 3058,
      "▁बैं": 3059,
      "ेति": 3060,
      "▁writing": 3061,
      "▁लोक": 3062,
      "▁स्म": 3063,
      "▁prep": 3064,
      "▁Bar": 3065,
      "मो": 3066,
      "▁behind": 3067,
      "▁announ": 3068,
      ".)": 3069,
      "my": 3070,
      "itting": 3071,
      "ibr": 3072,
      "ाइल": 3073,
      "▁पता": 3074,
      "▁केवल": 3075,
      "्याय": 3076,
      "▁198": 3077,
      "It": 3078,
      "▁कांग्रेस": 3079,
      "▁जारी": 3080,
      "▁determ": 3081,
      "▁forward": 3082,
      "itional": 3083,
      "▁character": 3084,
      "▁पार्टी": 3085,
      "▁yourself": 3086,
      "▁matter": 3087,
      "oring": 3088,
      "▁21": 3089,
      "वाई": 3090,
      "▁मत": 3091,
      "▁significant": 3092,
      "ief": 3093,
      "▁according": 3094,
      "▁nothing": 3095,
      "▁Stud": 3096,
      "pper": 3097,
      "▁similar": 3098,
      "▁flo": 3099,
      "▁events": 3100,
      "ग्र": 3101,
      "▁white": 3102,
      "apt": 3103,
      "▁accept": 3104,
      "▁infl": 3105,
      "▁property": 3106,
      "▁impact": 3107,
      "▁दर": 3108,
      "ables": 3109,
      "head": 3110,
      "▁provided": 3111,
      "इट": 3112,
      "ience": 3113,
      "▁action": 3114,
      "▁कुमार": 3115,
      "▁role": 3116,
      "ैक": 3117,
      "श्यक": 3118,
      "itten": 3119,
      "where": 3120,
      "IS": 3121,
      "▁size": 3122,
      "▁जिन": 3123,
      "▁प्रधान": 3124,
      "▁संबंध": 3125,
      "minist": 3126,
      "▁inj": 3127,
      "▁$1": 3128,
      "▁अलग": 3129,
      "▁जाते": 3130,
      "val": 3131,
      "▁subject": 3132,
      "▁Reg": 3133,
      "▁hon": 3134,
      "ole": 3135,
      "▁मदद": 3136,
      "▁extra": 3137,
      "▁fail": 3138,
      "▁popular": 3139,
      "▁stat": 3140,
      "ume": 3141,
      "▁Pa": 3142,
      "▁पिछ": 3143,
      "astic": 3144,
      "▁road": 3145,
      "era": 3146,
      "▁विध": 3147,
      "▁gra": 3148,
      "▁natural": 3149,
      "ring": 3150,
      "▁achie": 3151,
      "ामी": 3152,
      "▁Af": 3153,
      "▁final": 3154,
      "▁cook": 3155,
      "ान्": 3156,
      "▁अध्य": 3157,
      "▁financial": 3158,
      "▁निर": 3159,
      "▁Act": 3160,
      "▁ची": 3161,
      "▁tou": 3162,
      "▁प्रो": 3163,
      "▁सद": 3164,
      "▁कल": 3165,
      "▁takes": 3166,
      "▁परि": 3167,
      "ेक": 3168,
      "▁weeks": 3169,
      "▁connect": 3170,
      "uge": 3171,
      "मेव": 3172,
      "▁lov": 3173,
      "▁outside": 3174,
      "▁x": 3175,
      "▁ground": 3176,
      "▁increase": 3177,
      "▁party": 3178,
      "▁हाथ": 3179,
      "▁death": 3180,
      "ानु": 3181,
      "ufact": 3182,
      "▁date": 3183,
      "AC": 3184,
      "nes": 3185,
      "▁sum": 3186,
      "▁आगे": 3187,
      "ades": 3188,
      "40": 3189,
      "▁दें": 3190,
      "▁phone": 3191,
      "▁associ": 3192,
      "▁includes": 3193,
      "▁त्र": 3194,
      "हां": 3195,
      "ival": 3196,
      "▁fire": 3197,
      "▁फ़": 3198,
      "aily": 3199,
      "▁log": 3200,
      "▁वहीं": 3201,
      "▁पानी": 3202,
      "6,": 3203,
      "▁Fin": 3204,
      "▁Center": 3205,
      "ेण": 3206,
      "िं": 3207,
      "ID": 3208,
      "▁options": 3209,
      "medi": 3210,
      "▁select": 3211,
      "▁March": 3212,
      "▁Us": 3213,
      "anc": 3214,
      "▁मोदी": 3215,
      "▁exam": 3216,
      "ासन": 3217,
      "▁Art": 3218,
      "▁unique": 3219,
      "▁general": 3220,
      "▁held": 3221,
      "▁upon": 3222,
      "स्तु": 3223,
      "ules": 3224,
      "▁true": 3225,
      "▁article": 3226,
      "▁Of": 3227,
      "▁Post": 3228,
      "र्ग": 3229,
      "▁(2": 3230,
      "ैर": 3231,
      "▁sle": 3232,
      "7,": 3233,
      "ox": 3234,
      "▁June": 3235,
      "8,": 3236,
      "ees": 3237,
      "▁बनाने": 3238,
      "▁cover": 3239,
      "11": 3240,
      "▁Em": 3241,
      "▁beautiful": 3242,
      "क्टर": 3243,
      "▁आए": 3244,
      "▁regard": 3245,
      "icro": 3246,
      "▁बेह": 3247,
      "ीक": 3248,
      "▁लाख": 3249,
      "istic": 3250,
      "▁परिवार": 3251,
      "▁model": 3252,
      "empt": 3253,
      "▁धर्म": 3254,
      "▁wide": 3255,
      "▁Dav": 3256,
      "ha": 3257,
      "▁send": 3258,
      "▁Sept": 3259,
      "▁respect": 3260,
      "▁estab": 3261,
      "▁education": 3262,
      "-0": 3263,
      "शि": 3264,
      "▁coll": 3265,
      "न्ति": 3266,
      "olution": 3267,
      "▁security": 3268,
      "शा": 3269,
      "▁खिलाफ": 3270,
      "▁paper": 3271,
      "▁changes": 3272,
      "▁देव": 3273,
      "▁पो": 3274,
      "▁recogn": 3275,
      "▁opportunity": 3276,
      "▁एस": 3277,
      "▁safe": 3278,
      "▁America": 3279,
      "ाइन": 3280,
      "▁treatment": 3281,
      "▁recent": 3282,
      "▁official": 3283,
      "ंज": 3284,
      "▁उत्प": 3285,
      "▁Up": 3286,
      "▁swe": 3287,
      "▁seems": 3288,
      "▁County": 3289,
      "▁अम": 3290,
      "ादि": 3291,
      "▁cannot": 3292,
      "फ्त": 3293,
      "9,": 3294,
      "eter": 3295,
      "overed": 3296,
      "face": 3297,
      "arget": 3298,
      "▁fa": 3299,
      "▁coun": 3300,
      "▁Bu": 3301,
      "▁tit": 3302,
      "▁Read": 3303,
      "▁इसमें": 3304,
      "▁मेरी": 3305,
      "र्फ": 3306,
      "ffe": 3307,
      "▁2010": 3308,
      "▁agree": 3309,
      "ष्ण": 3310,
      "▁song": 3311,
      "▁Then": 3312,
      "▁loss": 3313,
      "▁April": 3314,
      "▁चौ": 3315,
      "oura": 3316,
      "▁Int": 3317,
      "▁kids": 3318,
      "ada": 3319,
      "▁leave": 3320,
      "yl": 3321,
      "▁couple": 3322,
      "▁created": 3323,
      "▁running": 3324,
      "aving": 3325,
      "▁Day": 3326,
      "जार": 3327,
      "त्वा": 3328,
      "reg": 3329,
      "▁engine": 3330,
      "▁जै": 3331,
      "atest": 3332,
      "▁West": 3333,
      "▁High": 3334,
      "▁software": 3335,
      "▁potential": 3336,
      "▁2012": 3337,
      "▁President": 3338,
      "▁longer": 3339,
      "यन": 3340,
      "कु": 3341,
      "▁knowledge": 3342,
      "itter": 3343,
      "▁इसका": 3344,
      "izing": 3345,
      "▁higher": 3346,
      "oud": 3347,
      "▁opp": 3348,
      "ests": 3349,
      "▁बड़ी": 3350,
      "▁member": 3351,
      "▁करती": 3352,
      "तम": 3353,
      "▁defin": 3354,
      "▁systems": 3355,
      "ंदर": 3356,
      "▁table": 3357,
      "nov": 3358,
      "▁inde": 3359,
      "▁fig": 3360,
      "▁skin": 3361,
      "anced": 3362,
      "RE": 3363,
      "▁anim": 3364,
      "oph": 3365,
      "ोजन": 3366,
      "▁shows": 3367,
      "ायक": 3368,
      "▁Her": 3369,
      "▁Health": 3370,
      "▁received": 3371,
      "▁designed": 3372,
      "▁court": 3373,
      "▁usually": 3374,
      "cil": 3375,
      "ude": 3376,
      "▁choose": 3377,
      "▁network": 3378,
      "▁fast": 3379,
      "▁ब्रह्म": 3380,
      "रीर": 3381,
      "▁अनुसार": 3382,
      "▁आद": 3383,
      "▁neg": 3384,
      "▁inside": 3385,
      "▁reading": 3386,
      "iter": 3387,
      "▁जिसमें": 3388,
      "▁worth": 3389,
      "▁कंपनी": 3390,
      "ese": 3391,
      "▁stri": 3392,
      "▁etc": 3393,
      "▁हूं": 3394,
      "▁आवश्यक": 3395,
      "▁throughout": 3396,
      "uary": 3397,
      "▁details": 3398,
      "▁रुपये": 3399,
      "25": 3400,
      "▁click": 3401,
      "ops": 3402,
      "▁ready": 3403,
      "्यो": 3404,
      "▁function": 3405,
      "▁आधार": 3406,
      "▁bott": 3407,
      "देव": 3408,
      "▁anyone": 3409,
      "▁moment": 3410,
      "ीडिया": 3411,
      "cks": 3412,
      "▁खेल": 3413,
      "▁gen": 3414,
      "▁speak": 3415,
      "▁News": 3416,
      "▁comfort": 3417,
      "▁El": 3418,
      "▁Google": 3419,
      "aced": 3420,
      "gu": 3421,
      "पूर्ण": 3422,
      "arter": 3423,
      "▁जरूर": 3424,
      "▁dom": 3425,
      "▁अलावा": 3426,
      "ृह": 3427,
      "▁contract": 3428,
      "▁Off": 3429,
      "earch": 3430,
      "▁बदल": 3431,
      "▁>": 3432,
      "▁regular": 3433,
      "▁attack": 3434,
      "▁बाहर": 3435,
      "▁मुख्य": 3436,
      "▁ध्यान": 3437,
      "▁attend": 3438,
      "▁rad": 3439,
      "▁उनका": 3440,
      "▁download": 3441,
      "▁town": 3442,
      "iddle": 3443,
      "▁ensure": 3444,
      "▁lay": 3445,
      "▁receive": 3446,
      "▁total": 3447,
      "▁contrib": 3448,
      "▁sales": 3449,
      "▁print": 3450,
      "यर": 3451,
      "▁pric": 3452,
      "erc": 3453,
      "iet": 3454,
      "ेयर": 3455,
      "▁ill": 3456,
      "▁Jo": 3457,
      "rect": 3458,
      "▁saw": 3459,
      "▁happy": 3460,
      "▁sense": 3461,
      "▁rate": 3462,
      "▁leaders": 3463,
      "▁lives": 3464,
      "▁Har": 3465,
      "▁+": 3466,
      "▁norm": 3467,
      "रु": 3468,
      "▁House": 3469,
      "▁4.": 3470,
      "▁medical": 3471,
      "▁application": 3472,
      "atform": 3473,
      "▁July": 3474,
      "ंगे": 3475,
      "▁describ": 3476,
      "hib": 3477,
      "▁mass": 3478,
      "▁वज": 3479,
      "▁mach": 3480,
      "▁depend": 3481,
      "▁box": 3482,
      "▁users": 3483,
      "▁भग": 3484,
      "▁express": 3485,
      "aining": 3486,
      "▁माध": 3487,
      "▁टे": 3488,
      "iff": 3489,
      "सु": 3490,
      "▁players": 3491,
      "▁बच": 3492,
      "हित": 3493,
      "▁बॉ": 3494,
      "▁dest": 3495,
      "▁original": 3496,
      "ाउ": 3497,
      "▁ball": 3498,
      "▁nice": 3499,
      "▁First": 3500,
      "▁collect": 3501,
      "▁ut": 3502,
      "ग्रह": 3503,
      "amed": 3504,
      "icles": 3505,
      "atory": 3506,
      "ening": 3507,
      "षा": 3508,
      "idge": 3509,
      "▁growth": 3510,
      "▁practice": 3511,
      "▁मीडिया": 3512,
      "नीति": 3513,
      "▁इस्त": 3514,
      "▁नव": 3515,
      "▁Feb": 3516,
      "▁emb": 3517,
      "▁decision": 3518,
      "▁क्ल": 3519,
      "mit": 3520,
      "▁stra": 3521,
      "▁dep": 3522,
      "यः": 3523,
      "▁national": 3524,
      "aging": 3525,
      "OU": 3526,
      "▁struct": 3527,
      "▁late": 3528,
      "▁पुन": 3529,
      "▁themselves": 3530,
      "▁blog": 3531,
      "▁Every": 3532,
      "▁लाभ": 3533,
      "▁इंड": 3534,
      "णं": 3535,
      "ानां": 3536,
      "▁मिले": 3537,
      "▁wonder": 3538,
      "▁base": 3539,
      "▁deep": 3540,
      "▁Was": 3541,
      "▁मज": 3542,
      "▁अथ": 3543,
      "▁park": 3544,
      "▁recently": 3545,
      "▁learning": 3546,
      "5,": 3547,
      "▁2020": 3548,
      "edd": 3549,
      "▁fit": 3550,
      "based": 3551,
      "▁आस": 3552,
      "▁प्रभाव": 3553,
      "▁ple": 3554,
      "▁हिस": 3555,
      "▁cause": 3556,
      "▁exact": 3557,
      "▁Cour": 3558,
      "जूद": 3559,
      "▁former": 3560,
      "▁यू": 3561,
      "▁cele": 3562,
      "▁कथ": 3563,
      "▁morning": 3564,
      "▁दुनिया": 3565,
      "चन": 3566,
      "▁नई": 3567,
      "▁version": 3568,
      "मुख": 3569,
      "aign": 3570,
      "▁deg": 3571,
      "▁Sw": 3572,
      "▁हमें": 3573,
      "▁आया": 3574,
      "ceed": 3575,
      "▁pers": 3576,
      "ek": 3577,
      "▁पूरा": 3578,
      "यों": 3579,
      "▁war": 3580,
      "▁color": 3581,
      "▁books": 3582,
      "▁रिप": 3583,
      "ताब": 3584,
      "lier": 3585,
      "▁policy": 3586,
      "ysis": 3587,
      "▁hands": 3588,
      "▁patients": 3589,
      "▁quickly": 3590,
      "▁goal": 3591,
      "▁hit": 3592,
      "▁prior": 3593,
      "टे": 3594,
      "▁board": 3595,
      "▁Mon": 3596,
      "70": 3597,
      "▁विकास": 3598,
      "▁private": 3599,
      "▁currently": 3600,
      "▁खुद": 3601,
      "adem": 3602,
      "ciety": 3603,
      "▁Mich": 3604,
      "dd": 3605,
      "पु": 3606,
      "▁hair": 3607,
      "▁बस": 3608,
      "▁lost": 3609,
      "▁via": 3610,
      "▁Aut": 3611,
      "azing": 3612,
      "iber": 3613,
      "▁वीड": 3614,
      "cast": 3615,
      "action": 3616,
      "ब्ध": 3617,
      "irit": 3618,
      "4,": 3619,
      "inary": 3620,
      "▁additional": 3621,
      "▁किसान": 3622,
      "ached": 3623,
      "शल": 3624,
      "like": 3625,
      "▁जहां": 3626,
      "ober": 3627,
      "▁2013": 3628,
      "▁mother": 3629,
      "▁Friday": 3630,
      "ederal": 3631,
      "▁sho": 3632,
      "▁दिए": 3633,
      "▁करोड़": 3634,
      "▁वाला": 3635,
      "▁Most": 3636,
      "▁credit": 3637,
      "▁जांच": 3638,
      "▁Are": 3639,
      "do": 3640,
      "▁बाल": 3641,
      "▁worked": 3642,
      "▁playing": 3643,
      "▁Let": 3644,
      "▁style": 3645,
      "णी": 3646,
      "▁सौ": 3647,
      "बा": 3648,
      "्रा": 3649,
      "▁itself": 3650,
      "▁langu": 3651,
      "▁viol": 3652,
      "irth": 3653,
      "ament": 3654,
      "▁production": 3655,
      "ux": 3656,
      "▁activities": 3657,
      "▁imm": 3658,
      "▁Face": 3659,
      "▁teac": 3660,
      "▁Par": 3661,
      "▁fight": 3662,
      "▁obs": 3663,
      "▁अच्छा": 3664,
      "▁विभाग": 3665,
      "ham": 3666,
      "ूरी": 3667,
      "▁उसने": 3668,
      "ny": 3669,
      "▁sens": 3670,
      "िः": 3671,
      "oke": 3672,
      "▁उत्तर": 3673,
      "स्थान": 3674,
      "▁prim": 3675,
      "▁items": 3676,
      "▁woman": 3677,
      "▁veh": 3678,
      "▁छात्र": 3679,
      "▁autom": 3680,
      "▁चाहते": 3681,
      "▁career": 3682,
      "▁manufact": 3683,
      "▁conc": 3684,
      "▁meeting": 3685,
      "▁pan": 3686,
      "▁affect": 3687,
      "ague": 3688,
      "-3": 3689,
      "▁Val": 3690,
      "▁sat": 3691,
      "▁व्या": 3692,
      "ky": 3693,
      "right": 3694,
      "▁customer": 3695,
      "▁terms": 3696,
      "▁परी": 3697,
      "▁summer": 3698,
      "▁ability": 3699,
      "12": 3700,
      "▁drive": 3701,
      "clus": 3702,
      "ournal": 3703,
      "▁जगह": 3704,
      "▁आम": 3705,
      "▁squ": 3706,
      "म्मी": 3707,
      "▁Get": 3708,
      "▁object": 3709,
      "▁cases": 3710,
      "▁तरी": 3711,
      "ming": 3712,
      "▁इं": 3713,
      "▁Sund": 3714,
      "▁Also": 3715,
      "▁myself": 3716,
      "▁included": 3717,
      "▁दूर": 3718,
      "▁screen": 3719,
      "▁rights": 3720,
      "▁ढ": 3721,
      "▁arri": 3722,
      "80": 3723,
      "▁Ob": 3724,
      "मेंट": 3725,
      "▁weight": 3726,
      "▁22": 3727,
      "▁Char": 3728,
      "▁स्थिति": 3729,
      "ession": 3730,
      "्यमंत्री": 3731,
      "sc": 3732,
      "▁वीडियो": 3733,
      "▁August": 3734,
      "ground": 3735,
      "bor": 3736,
      "चर": 3737,
      "▁programs": 3738,
      "▁मंत्री": 3739,
      "▁bal": 3740,
      "▁दूसरे": 3741,
      "क्रिया": 3742,
      "▁कौ": 3743,
      "▁goes": 3744,
      "▁wall": 3745,
      "▁blood": 3746,
      "ायत": 3747,
      "▁multip": 3748,
      "▁करी": 3749,
      "▁San": 3750,
      "erve": 3751,
      "▁Cons": 3752,
      "▁बड़े": 3753,
      "▁began": 3754,
      "▁Satur": 3755,
      "▁chance": 3756,
      "▁skills": 3757,
      "खा": 3758,
      "aby": 3759,
      "▁ri": 3760,
      "▁target": 3761,
      "ological": 3762,
      "▁स्या": 3763,
      "off": 3764,
      "▁वजह": 3765,
      "▁ep": 3766,
      "▁देते": 3767,
      "artment": 3768,
      "▁Black": 3769,
      "▁latest": 3770,
      "▁आपकी": 3771,
      "गम": 3772,
      "▁मही": 3773,
      "▁तैयार": 3774,
      "र्ज": 3775,
      "▁insp": 3776,
      "▁dise": 3777,
      "▁मूल": 3778,
      "▁wasn": 3779,
      "▁पिछले": 3780,
      "▁अधिकार": 3781,
      "▁Well": 3782,
      "हि": 3783,
      "▁समस्या": 3784,
      "▁mix": 3785,
      "▁cam": 3786,
      "▁War": 3787,
      "ांकि": 3788,
      "▁cand": 3789,
      "▁clos": 3790,
      "airs": 3791,
      "▁TV": 3792,
      "ecut": 3793,
      "ोद": 3794,
      "▁tour": 3795,
      "▁introdu": 3796,
      "▁immedi": 3797,
      "▁शिव": 3798,
      "▁आरोप": 3799,
      "hood": 3800,
      "▁involved": 3801,
      "hel": 3802,
      "▁Red": 3803,
      "▁cool": 3804,
      "▁remember": 3805,
      "AM": 3806,
      "▁ति": 3807,
      "▁dru": 3808,
      "imum": 3809,
      "OT": 3810,
      "▁September": 3811,
      "▁appe": 3812,
      "pose": 3813,
      "▁Nove": 3814,
      "बल": 3815,
      "mon": 3816,
      "▁घटना": 3817,
      "uth": 3818,
      "▁political": 3819,
      "ales": 3820,
      "▁student": 3821,
      "▁easily": 3822,
      "▁instead": 3823,
      ":00": 3824,
      "▁approach": 3825,
      "ुः": 3826,
      "▁सेवा": 3827,
      "▁होना": 3828,
      "भू": 3829,
      "▁ता": 3830,
      "▁Mus": 3831,
      "▁grad": 3832,
      "▁Austral": 3833,
      "र्न": 3834,
      "asons": 3835,
      "▁Even": 3836,
      "▁पूछ": 3837,
      "▁marketing": 3838,
      "▁बंद": 3839,
      "▁stock": 3840,
      "▁international": 3841,
      "▁India": 3842,
      "ेंस": 3843,
      "▁sun": 3844,
      "▁decided": 3845,
      "▁lower": 3846,
      "▁Bus": 3847,
      "▁draw": 3848,
      "▁parents": 3849,
      "light": 3850,
      "▁challeng": 3851,
      "ुरुष": 3852,
      "haps": 3853,
      "▁match": 3854,
      "ari": 3855,
      "▁jud": 3856,
      "▁built": 3857,
      "▁सिद्ध": 3858,
      "lim": 3859,
      "ांत": 3860,
      "▁looks": 3861,
      "▁levels": 3862,
      "▁shall": 3863,
      "▁कोरो": 3864,
      "itc": 3865,
      "ियर": 3866,
      "▁ऑफ": 3867,
      "▁round": 3868,
      "▁जाना": 3869,
      "▁हालांकि": 3870,
      "reng": 3871,
      "▁Ac": 3872,
      "ospital": 3873,
      "▁CO": 3874,
      "सल": 3875,
      "दर्शन": 3876,
      "▁became": 3877,
      "▁60": 3878,
      "▁पे": 3879,
      "▁bank": 3880,
      "▁Free": 3881,
      "हन": 3882,
      "ls": 3883,
      "▁platform": 3884,
      "▁Sim": 3885,
      "▁felt": 3886,
      "ासी": 3887,
      "▁apply": 3888,
      "▁conditions": 3889,
      "▁अह": 3890,
      "▁PM": 3891,
      "▁Associ": 3892,
      "▁legal": 3893,
      "▁बाज": 3894,
      "▁computer": 3895,
      "िले": 3896,
      "In": 3897,
      "▁saf": 3898,
      "▁related": 3899,
      "्यं": 3900,
      "▁Pat": 3901,
      "iam": 3902,
      "urg": 3903,
      "▁fresh": 3904,
      "enced": 3905,
      "▁sell": 3906,
      "rown": 3907,
      "▁choice": 3908,
      "▁ब्ल": 3909,
      "▁countries": 3910,
      "pri": 3911,
      "▁surpr": 3912,
      "▁भाग": 3913,
      "▁commit": 3914,
      "▁maintain": 3915,
      "fficient": 3916,
      "▁January": 3917,
      "iction": 3918,
      "illing": 3919,
      "▁October": 3920,
      "थम": 3921,
      "▁written": 3922,
      "▁hol": 3923,
      "▁bud": 3924,
      "amb": 3925,
      "▁Brit": 3926,
      "▁mention": 3927,
      "ule": 3928,
      "▁Saturday": 3929,
      "मंत्री": 3930,
      "▁attempt": 3931,
      "▁दोस्त": 3932,
      "atives": 3933,
      "▁राह": 3934,
      "▁sett": 3935,
      "▁खरी": 3936,
      "▁2018": 3937,
      "str": 3938,
      "▁ones": 3939,
      "ING": 3940,
      "▁स्": 3941,
      "▁release": 3942,
      "ipment": 3943,
      "▁तुम": 3944,
      "▁necessary": 3945,
      "▁Direct": 3946,
      "रि": 3947,
      "hern": 3948,
      "▁English": 3949,
      "▁projects": 3950,
      "कर्": 3951,
      "▁शब्द": 3952,
      "▁ord": 3953,
      "▁डी": 3954,
      "▁1,": 3955,
      "▁clients": 3956,
      "wood": 3957,
      "uses": 3958,
      "▁costs": 3959,
      "▁cy": 3960,
      "▁लो": 3961,
      "▁attention": 3962,
      "▁feed": 3963,
      "▁benefits": 3964,
      "्ठ": 3965,
      "▁campaign": 3966,
      "rought": 3967,
      "भग": 3968,
      "▁favorite": 3969,
      "▁Why": 3970,
      "▁रिपोर्ट": 3971,
      "ंटर": 3972,
      "▁eyes": 3973,
      "ray": 3974,
      "लाइन": 3975,
      "/2": 3976,
      "attle": 3977,
      "US": 3978,
      "▁standard": 3979,
      "पद": 3980,
      "▁hear": 3981,
      "▁vict": 3982,
      "▁खा": 3983,
      "▁police": 3984,
      "▁encoura": 3985,
      "▁emer": 3986,
      "राब": 3987,
      "▁स्थान": 3988,
      "▁बैंक": 3989,
      "aught": 3990,
      "▁investig": 3991,
      "▁write": 3992,
      "▁दिनों": 3993,
      "ara": 3994,
      "▁मुख्यमंत्री": 3995,
      "▁दिव": 3996,
      "▁bi": 3997,
      "▁जिससे": 3998,
      "ैः": 3999,
      "▁integr": 4000,
      "▁जिसके": 4001,
      "15": 4002,
      "▁wrong": 4003,
      "▁allows": 4004,
      "ivity": 4005,
      "▁Afric": 4006,
      "▁leading": 4007,
      "▁groups": 4008,
      "▁विचार": 4009,
      "त्वं": 4010,
      "▁2017": 4011,
      "put": 4012,
      "▁=": 4013,
      "uel": 4014,
      "▁बिल": 4015,
      "▁user": 4016,
      "▁plans": 4017,
      "onse": 4018,
      "युक्त": 4019,
      "▁November": 4020,
      "▁Department": 4021,
      "▁निय": 4022,
      "erous": 4023,
      "▁UK": 4024,
      "cember": 4025,
      "▁Sch": 4026,
      "▁gets": 4027,
      "▁option": 4028,
      "▁trust": 4029,
      "▁पाक": 4030,
      "ension": 4031,
      "▁सच": 4032,
      "▁ideas": 4033,
      "▁sn": 4034,
      "▁gave": 4035,
      "▁sil": 4036,
      "inc": 4037,
      "▁Net": 4038,
      "▁बिना": 4039,
      "just": 4040,
      "▁नए": 4041,
      "▁huge": 4042,
      "▁Sunday": 4043,
      "सभा": 4044,
      "▁गांव": 4045,
      "unt": 4046,
      "ought": 4047,
      "icated": 4048,
      "▁movie": 4049,
      "cription": 4050,
      "सिद्ध": 4051,
      "▁Mond": 4052,
      "ंदी": 4053,
      "▁global": 4054,
      "▁आदि": 4055,
      "▁बच्चों": 4056,
      "▁Other": 4057,
      "avy": 4058,
      "मि": 4059,
      "▁image": 4060,
      "▁शरीर": 4061,
      "▁variety": 4062,
      "▁महत्व": 4063,
      "▁लगे": 4064,
      "▁केंद्र": 4065,
      "aves": 4066,
      "▁cas": 4067,
      "▁वृ": 4068,
      "▁Facebook": 4069,
      "▁saying": 4070,
      "▁मिला": 4071,
      "▁वेब": 4072,
      "▁drink": 4073,
      "▁propos": 4074,
      "▁rev": 4075,
      "kend": 4076,
      "▁tal": 4077,
      "▁effective": 4078,
      "ester": 4079,
      "▁कान": 4080,
      "▁touch": 4081,
      "▁aw": 4082,
      "hold": 4083,
      "▁International": 4084,
      "▁div": 4085,
      "▁defe": 4086,
      "र्च": 4087,
      "bit": 4088,
      "ेंद": 4089,
      "▁मांग": 4090,
      "▁reported": 4091,
      "itary": 4092,
      "▁Ser": 4093,
      "▁संप": 4094,
      "▁except": 4095,
      "▁सिर्फ": 4096,
      "▁sus": 4097,
      "▁जल": 4098,
      "▁समाज": 4099,
      "▁कोरोना": 4100,
      "ET": 4101,
      "ास्थ": 4102,
      "▁रात": 4103,
      "▁लेने": 4104,
      "▁नौ": 4105,
      "▁circ": 4106,
      "▁माध्यम": 4107,
      "▁Calif": 4108,
      "▁hor": 4109,
      "▁यथा": 4110,
      "uk": 4111,
      "ताल": 4112,
      "St": 4113,
      "बह": 4114,
      "body": 4115,
      "▁४": 4116,
      "▁Sci": 4117,
      "▁gives": 4118,
      "ondon": 4119,
      "aged": 4120,
      "▁Many": 4121,
      "▁sold": 4122,
      "▁इत्या": 4123,
      "cip": 4124,
      "▁door": 4125,
      "▁23": 4126,
      "▁डाल": 4127,
      "▁उपल": 4128,
      "आर": 4129,
      "▁कोश": 4130,
      "▁ऐसी": 4131,
      "त्त्व": 4132,
      "▁आत्म": 4133,
      "▁lab": 4134,
      "▁comment": 4135,
      "▁सल": 4136,
      "▁answer": 4137,
      "▁separ": 4138,
      "▁speed": 4139,
      "ेमाल": 4140,
      "bert": 4141,
      "ett": 4142,
      "ुट": 4143,
      "▁modern": 4144,
      "▁करेंगे": 4145,
      "urb": 4146,
      "▁Air": 4147,
      "▁pull": 4148,
      "▁Any": 4149,
      "EO": 4150,
      "▁request": 4151,
      "▁इस्तेमाल": 4152,
      "EC": 4153,
      "▁बड़ा": 4154,
      "▁2019": 4155,
      "?”": 4156,
      "▁Commun": 4157,
      "alt": 4158,
      "▁Gener": 4159,
      "▁fair": 4160,
      "▁Sen": 4161,
      "▁excell": 4162,
      "स्क": 4163,
      "mercial": 4164,
      "ris": 4165,
      "verse": 4166,
      "त्वात्": 4167,
      "▁चला": 4168,
      "▁president": 4169,
      "धन": 4170,
      "▁played": 4171,
      "▁lif": 4172,
      "ुन": 4173,
      "त्ता": 4174,
      "▁thinking": 4175,
      "ma": 4176,
      "▁अध्यक्ष": 4177,
      "ville": 4178,
      "idered": 4179,
      "▁मार्": 4180,
      "▁parts": 4181,
      "▁note": 4182,
      "iring": 4183,
      "▁completely": 4184,
      "▁Germ": 4185,
      "▁safety": 4186,
      "▁himself": 4187,
      "▁expected": 4188,
      "क्षित": 4189,
      "ॉल": 4190,
      "▁positive": 4191,
      "su": 4192,
      "▁enter": 4193,
      "जय": 4194,
      "▁average": 4195,
      "▁stru": 4196,
      "▁गा": 4197,
      "▁sche": 4198,
      "enty": 4199,
      "▁interesting": 4200,
      "▁cross": 4201,
      "▁amazing": 4202,
      "▁daily": 4203,
      "▁ज्ञान": 4204,
      "▁अति": 4205,
      "▁center": 4206,
      "▁5.": 4207,
      "▁ख़": 4208,
      "wise": 4209,
      "▁resources": 4210,
      "िस्तान": 4211,
      "▁pred": 4212,
      "▁जिला": 4213,
      "▁digital": 4214,
      "▁December": 4215,
      "▁AN": 4216,
      "▁rout": 4217,
      "▁streng": 4218,
      "▁remov": 4219,
      "▁types": 4220,
      "▁flow": 4221,
      "▁ऋ": 4222,
      "ns": 4223,
      "त्रा": 4224,
      "▁sites": 4225,
      "▁source": 4226,
      "mission": 4227,
      "ram": 4228,
      "ani": 4229,
      "▁जबकि": 4230,
      "▁अमे": 4231,
      "▁giving": 4232,
      "▁administ": 4233,
      "vey": 4234,
      "▁display": 4235,
      "king": 4236,
      "fl": 4237,
      "▁situation": 4238,
      "ishing": 4239,
      "▁जल्": 4240,
      "▁prin": 4241,
      "▁slow": 4242,
      "ियन": 4243,
      "ूर्": 4244,
      "म्मीद": 4245,
      "▁extreme": 4246,
      "▁साह": 4247,
      "बाज": 4248,
      "▁purchase": 4249,
      "▁हूँ": 4250,
      "▁Monday": 4251,
      "pite": 4252,
      "cious": 4253,
      "enge": 4254,
      "▁save": 4255,
      "band": 4256,
      "▁plant": 4257,
      "▁location": 4258,
      "gar": 4259,
      "itation": 4260,
      "▁prevent": 4261,
      "▁माल": 4262,
      "▁vac": 4263,
      "zy": 4264,
      "▁piece": 4265,
      "▁उम्मीद": 4266,
      "iding": 4267,
      "▁Coun": 4268,
      "▁मैच": 4269,
      "name": 4270,
      "▁located": 4271,
      "▁mid": 4272,
      "▁स्कूल": 4273,
      "▁knew": 4274,
      "▁La": 4275,
      "▁dark": 4276,
      "▁प्रा": 4277,
      "भिन्न": 4278,
      "▁document": 4279,
      "▁प्रधानमंत्री": 4280,
      "▁led": 4281,
      "▁लॉ": 4282,
      "urt": 4283,
      "isions": 4284,
      "▁file": 4285,
      "▁interview": 4286,
      "▁heard": 4287,
      "yond": 4288,
      "aker": 4289,
      "▁पृ": 4290,
      "▁2016": 4291,
      "▁providing": 4292,
      "▁insurance": 4293,
      "▁conduct": 4294,
      "▁http": 4295,
      "▁कार्यक्रम": 4296,
      "tee": 4297,
      "▁Over": 4298,
      "▁छोड़": 4299,
      "▁bur": 4300,
      "aly": 4301,
      "▁cat": 4302,
      "▁Wind": 4303,
      "न्त्र": 4304,
      "▁तथ": 4305,
      "key": 4306,
      "दम": 4307,
      "▁उसका": 4308,
      "▁detail": 4309,
      "▁celebr": 4310,
      "▁dead": 4311,
      "▁qual": 4312,
      "▁mobile": 4313,
      "Wh": 4314,
      "▁sometimes": 4315,
      "▁सही": 4316,
      "▁THE": 4317,
      "▁नजर": 4318,
      "▁अर्थ": 4319,
      "itution": 4320,
      "▁depart": 4321,
      "ऽपि": 4322,
      "▁2011": 4323,
      "▁published": 4324,
      "▁पट": 4325,
      "▁इसकी": 4326,
      "▁London": 4327,
      "▁2014": 4328,
      "▁influ": 4329,
      "▁arch": 4330,
      "www": 4331,
      "▁organization": 4332,
      "pre": 4333,
      "▁Group": 4334,
      "ilies": 4335,
      "▁King": 4336,
      "OS": 4337,
      "▁Since": 4338,
      "apan": 4339,
      "▁रहने": 4340,
      "▁tools": 4341,
      "▁न्यू": 4342,
      "कल": 4343,
      "ornia": 4344,
      "पति": 4345,
      "agn": 4346,
      "▁Out": 4347,
      "iles": 4348,
      "▁Dem": 4349,
      "▁dating": 4350,
      "▁tele": 4351,
      "▁nature": 4352,
      "itute": 4353,
      "▁Gl": 4354,
      "▁section": 4355,
      "aste": 4356,
      "add": 4357,
      "▁प्रदान": 4358,
      "idents": 4359,
      "sec": 4360,
      "▁वहां": 4361,
      "▁रु": 4362,
      "▁मि": 4363,
      "▁नियम": 4364,
      "▁reve": 4365,
      "▁दर्ज": 4366,
      "▁देखा": 4367,
      "▁सम्म": 4368,
      "aint": 4369,
      "):": 4370,
      "▁offe": 4371,
      "▁Once": 4372,
      "▁गयी": 4373,
      "▁directly": 4374,
      "▁Tod": 4375,
      "▁broad": 4376,
      "यां": 4377,
      "ंगल": 4378,
      "▁highly": 4379,
      "▁China": 4380,
      "▁helps": 4381,
      "EL": 4382,
      "itely": 4383,
      "▁sleep": 4384,
      "▁starting": 4385,
      "imately": 4386,
      "शेष": 4387,
      "ened": 4388,
      "▁physical": 4389,
      "▁Business": 4390,
      "oms": 4391,
      "▁सम्": 4392,
      "▁brought": 4393,
      "▁path": 4394,
      "ruary": 4395,
      "▁Law": 4396,
      "\".": 4397,
      "▁father": 4398,
      "aches": 4399,
      "rs": 4400,
      "▁eye": 4401,
      "rel": 4402,
      "▁पं": 4403,
      "मर": 4404,
      "णि": 4405,
      "▁considered": 4406,
      "▁भू": 4407,
      "▁अच्छी": 4408,
      "▁तहत": 4409,
      "ica": 4410,
      "19": 4411,
      "▁cup": 4412,
      "▁reach": 4413,
      "▁पोस्ट": 4414,
      "▁Jes": 4415,
      "शत": 4416,
      "▁Court": 4417,
      "प्रति": 4418,
      "▁avoid": 4419,
      "द्द": 4420,
      "▁subs": 4421,
      "▁गुण": 4422,
      "यान": 4423,
      "▁towards": 4424,
      "▁तरफ": 4425,
      "▁Prof": 4426,
      "▁एन": 4427,
      "स्स": 4428,
      "ores": 4429,
      "cies": 4430,
      "▁turned": 4431,
      "▁condition": 4432,
      "▁stuff": 4433,
      "ibly": 4434,
      "▁partners": 4435,
      "sych": 4436,
      "lin": 4437,
      "▁economic": 4438,
      "▁David": 4439,
      "▁green": 4440,
      "▁Wed": 4441,
      "▁wood": 4442,
      "▁son": 4443,
      "▁विद्य": 4444,
      "aries": 4445,
      "▁fine": 4446,
      "▁convers": 4447,
      "▁stories": 4448,
      "ube": 4449,
      "”.": 4450,
      "▁dream": 4451,
      "कान": 4452,
      "▁feature": 4453,
      "▁language": 4454,
      "र्मा": 4455,
      "IL": 4456,
      "▁शहर": 4457,
      "ैंड": 4458,
      "▁खबर": 4459,
      "▁multiple": 4460,
      "▁विरो": 4461,
      "▁Street": 4462,
      "orge": 4463,
      "▁collection": 4464,
      "▁released": 4465,
      "▁fell": 4466,
      "ford": 4467,
      "▁looked": 4468,
      "omen": 4469,
      "▁Trans": 4470,
      "▁solution": 4471,
      "ael": 4472,
      "▁विषय": 4473,
      "ancy": 4474,
      "▁IN": 4475,
      "षु": 4476,
      "▁दि": 4477,
      "▁California": 4478,
      "▁individuals": 4479,
      "▁block": 4480,
      "▁ge": 4481,
      "▁परम": 4482,
      "▁तस्य": 4483,
      "▁materials": 4484,
      "▁player": 4485,
      "board": 4486,
      "ivil": 4487,
      "▁progress": 4488,
      "▁aware": 4489,
      "ैल": 4490,
      "rote": 4491,
      "▁तत्": 4492,
      "▁response": 4493,
      "▁vot": 4494,
      "▁device": 4495,
      "▁Ear": 4496,
      "▁हजार": 4497,
      "▁subst": 4498,
      "-4": 4499,
      "▁हे": 4500,
      "▁वाप": 4501,
      "▁capt": 4502,
      "▁कित": 4503,
      "▁copy": 4504,
      "ेदन": 4505,
      "cause": 4506,
      "ications": 4507,
      "▁Met": 4508,
      "ांड": 4509,
      "▁ten": 4510,
      "▁limited": 4511,
      "▁भु": 4512,
      "▁lack": 4513,
      "▁consist": 4514,
      "ुद": 4515,
      "▁restaur": 4516,
      "▁लगी": 4517,
      "▁mis": 4518,
      "वाह": 4519,
      "म्ह": 4520,
      "▁Best": 4521,
      "▁संख्या": 4522,
      "▁पस": 4523,
      "▁लक्ष": 4524,
      "▁सवाल": 4525,
      "▁nation": 4526,
      "▁weekend": 4527,
      "▁Op": 4528,
      "▁Home": 4529,
      "▁Techn": 4530,
      "चान": 4531,
      "aling": 4532,
      "▁states": 4533,
      "▁fix": 4534,
      "▁भाज": 4535,
      "▁analysis": 4536,
      "▁distrib": 4537,
      "▁अधिकारी": 4538,
      "▁hour": 4539,
      "▁Web": 4540,
      "▁करीब": 4541,
      "▁band": 4542,
      "▁pen": 4543,
      "ोक्त": 4544,
      "▁warm": 4545,
      "▁Book": 4546,
      "▁club": 4547,
      "▁AM": 4548,
      "▁certainly": 4549,
      "ength": 4550,
      "▁College": 4551,
      "▁जीत": 4552,
      "▁सुरक्षा": 4553,
      "षण": 4554,
      "▁ऑन": 4555,
      "hington": 4556,
      "itchen": 4557,
      "▁mount": 4558,
      "▁firm": 4559,
      "error": 4560,
      "▁code": 4561,
      "▁28": 4562,
      "▁देखने": 4563,
      "aughter": 4564,
      "▁equipment": 4565,
      "▁message": 4566,
      "▁February": 4567,
      "▁वार": 4568,
      "arily": 4569,
      "▁places": 4570,
      "▁सके": 4571,
      "▁growing": 4572,
      "▁spent": 4573,
      "▁implement": 4574,
      "▁0.": 4575,
      "▁successful": 4576,
      "▁behav": 4577,
      "▁स्थित": 4578,
      "▁concept": 4579,
      "▁carry": 4580,
      "▁स्वास्थ": 4581,
      "▁कुल": 4582,
      "▁expert": 4583,
      "▁पहली": 4584,
      "▁feeling": 4585,
      "▁complex": 4586,
      "▁achieve": 4587,
      "▁employees": 4588,
      "▁Mod": 4589,
      "यति": 4590,
      "▁gold": 4591,
      "▁26": 4592,
      "▁शुरु": 4593,
      "▁interested": 4594,
      "▁जम": 4595,
      "शु": 4596,
      "▁Paul": 4597,
      "zz": 4598,
      "ald": 4599,
      "बन्ध": 4600,
      "▁Del": 4601,
      "▁adult": 4602,
      "▁कोशिश": 4603,
      "▁race": 4604,
      "▁लगता": 4605,
      "vant": 4606,
      "▁effects": 4607,
      "oming": 4608,
      "▁farm": 4609,
      "▁Thurs": 4610,
      "▁effort": 4611,
      "▁dro": 4612,
      "▁finally": 4613,
      "प्य": 4614,
      "uate": 4615,
      "▁correct": 4616,
      "sp": 4617,
      "AP": 4618,
      "▁Service": 4619,
      "antly": 4620,
      "▁neigh": 4621,
      "izes": 4622,
      "▁यही": 4623,
      "▁trip": 4624,
      "erved": 4625,
      "▁आपका": 4626,
      "▁नेता": 4627,
      "▁college": 4628,
      "▁birth": 4629,
      "्सा": 4630,
      "ida": 4631,
      "ography": 4632,
      "▁नम": 4633,
      "rast": 4634,
      "vin": 4635,
      "▁Great": 4636,
      "▁रे": 4637,
      "▁regul": 4638,
      "sequ": 4639,
      "ंगा": 4640,
      "▁regist": 4641,
      "▁developed": 4642,
      "वरी": 4643,
      "▁Tues": 4644,
      "▁Rem": 4645,
      "▁spot": 4646,
      "raft": 4647,
      "▁previous": 4648,
      "▁exerc": 4649,
      "field": 4650,
      "धे": 4651,
      "▁respond": 4652,
      "▁उपलब्ध": 4653,
      "16": 4654,
      "▁निर्देश": 4655,
      "नो": 4656,
      "▁कहना": 4657,
      "▁advant": 4658,
      "▁197": 4659,
      "▁wife": 4660,
      "▁iP": 4661,
      "▁ded": 4662,
      "ूब": 4663,
      "▁Click": 4664,
      "arden": 4665,
      "▁भूम": 4666,
      "▁II": 4667,
      "▁bag": 4668,
      "het": 4669,
      "▁According": 4670,
      "▁See": 4671,
      "▁प्रस": 4672,
      "nds": 4673,
      "▁promot": 4674,
      "▁feet": 4675,
      "mas": 4676,
      "▁fully": 4677,
      "ृत्य": 4678,
      "▁exactly": 4679,
      "▁lic": 4680,
      "mitted": 4681,
      "ेशा": 4682,
      "▁फैस": 4683,
      "▁Mor": 4684,
      "anch": 4685,
      "▁Ass": 4686,
      "ित्या": 4687,
      "ocr": 4688,
      "▁photos": 4689,
      "▁मेरा": 4690,
      "▁Good": 4691,
      "▁imag": 4692,
      "▁नर": 4693,
      "▁businesses": 4694,
      "▁Japan": 4695,
      "▁innov": 4696,
      "▁moving": 4697,
      "▁खान": 4698,
      "rences": 4699,
      "▁Jack": 4700,
      "▁planning": 4701,
      "▁bra": 4702,
      "▁stress": 4703,
      "▁शेयर": 4704,
      "▁मौत": 4705,
      "▁प्रया": 4706,
      "▁उत": 4707,
      "▁wants": 4708,
      "▁स्वास्थ्य": 4709,
      "▁threat": 4710,
      "▁भवति": 4711,
      "▁2015": 4712,
      "▁Sub": 4713,
      "▁जाएगी": 4714,
      "wor": 4715,
      "▁nearly": 4716,
      "▁Washington": 4717,
      "▁tried": 4718,
      "uted": 4719,
      "ंदिर": 4720,
      "▁eat": 4721,
      "रों": 4722,
      "pm": 4723,
      "oul": 4724,
      "ares": 4725,
      "▁traditional": 4726,
      "▁activity": 4727,
      "mark": 4728,
      "▁altern": 4729,
      "▁demand": 4730,
      "ेतु": 4731,
      "ION": 4732,
      "▁evidence": 4733,
      "▁पक्ष": 4734,
      "▁stage": 4735,
      "▁mat": 4736,
      "▁deliver": 4737,
      "▁impress": 4738,
      "▁भाजपा": 4739,
      "itable": 4740,
      "▁White": 4741,
      "बार": 4742,
      "▁उद": 4743,
      "▁गुरु": 4744,
      "olute": 4745,
      "▁kn": 4746,
      "▁आग": 4747,
      "▁Although": 4748,
      "▁थो": 4749,
      "▁healthy": 4750,
      "▁obtain": 4751,
      "्रेड": 4752,
      "▁Play": 4753,
      "▁families": 4754,
      "▁paid": 4755,
      "▁wel": 4756,
      "▁लाइ": 4757,
      "▁organiz": 4758,
      "▁goals": 4759,
      "्कि": 4760,
      "▁prices": 4761,
      "bum": 4762,
      "duc": 4763,
      "▁hous": 4764,
      "ेषु": 4765,
      "▁independ": 4766,
      "▁sen": 4767,
      "▁disease": 4768,
      "more": 4769,
      "▁tick": 4770,
      "▁लगभग": 4771,
      "▁East": 4772,
      "▁ult": 4773,
      "▁prem": 4774,
      "▁schools": 4775,
      "▁pressure": 4776,
      "िकल": 4777,
      "ruit": 4778,
      "▁emot": 4779,
      "▁beginning": 4780,
      "▁Thursday": 4781,
      "लब": 4782,
      "▁शादी": 4783,
      "▁Indian": 4784,
      "▁पूरे": 4785,
      "▁creating": 4786,
      "▁शी": 4787,
      "13": 4788,
      "▁excellent": 4789,
      "▁culture": 4790,
      "▁difference": 4791,
      "▁Russ": 4792,
      "unk": 4793,
      "▁वक्त": 4794,
      "▁purpose": 4795,
      "oly": 4796,
      "▁accom": 4797,
      "▁बाजार": 4798,
      "▁histor": 4799,
      "lied": 4800,
      "▁inform": 4801,
      "▁Cle": 4802,
      "▁picture": 4803,
      "vis": 4804,
      "▁लि": 4805,
      "▁acqu": 4806,
      "▁उत्पाद": 4807,
      "▁maybe": 4808,
      "vest": 4809,
      "ords": 4810,
      "▁जिसे": 4811,
      "▁Tuesday": 4812,
      "▁शिक्षा": 4813,
      "▁£": 4814,
      "PS": 4815,
      "▁मी": 4816,
      "▁इंटर": 4817,
      "▁fat": 4818,
      "राज": 4819,
      "▁दृष्ट": 4820,
      "ibrary": 4821,
      "यम": 4822,
      "▁budget": 4823,
      ":30": 4824,
      "विध": 4825,
      "पाल": 4826,
      "▁dress": 4827,
      "down": 4828,
      "▁27": 4829,
      "श्म": 4830,
      "▁Ir": 4831,
      "▁Dist": 4832,
      "arant": 4833,
      "▁नही": 4834,
      "example": 4835,
      "chan": 4836,
      "▁Green": 4837,
      "ying": 4838,
      "▁ter": 4839,
      "ेंड": 4840,
      "▁announced": 4841,
      "त्ति": 4842,
      "क्य": 4843,
      "▁prot": 4844,
      "▁Work": 4845,
      "▁तस्म": 4846,
      "▁Wednes": 4847,
      "▁straight": 4848,
      "▁wish": 4849,
      "▁५": 4850,
      "rows": 4851,
      "▁consult": 4852,
      "indi": 4853,
      "▁बच्चे": 4854,
      "▁Last": 4855,
      "▁shoot": 4856,
      "▁analy": 4857,
      "▁लिये": 4858,
      "▁राष्ट्र": 4859,
      "ategy": 4860,
      "rench": 4861,
      "▁occur": 4862,
      "▁dire": 4863,
      "▁understanding": 4864,
      "▁Pal": 4865,
      "▁gas": 4866,
      "▁देता": 4867,
      "विधा": 4868,
      "▁कोर्ट": 4869,
      "ato": 4870,
      "wide": 4871,
      "▁ठीक": 4872,
      "▁sort": 4873,
      "▁राजनीति": 4874,
      "▁instru": 4875,
      "▁मध्य": 4876,
      "▁demon": 4877,
      "पन": 4878,
      "▁spirit": 4879,
      "साइट": 4880,
      "▁floor": 4881,
      "▁frequ": 4882,
      "▁alone": 4883,
      "▁region": 4884,
      "▁dog": 4885,
      "▁किस": 4886,
      "▁पुरुष": 4887,
      "▁अस्प": 4888,
      "▁wrote": 4889,
      "▁कहते": 4890,
      "▁hop": 4891,
      "▁opportunities": 4892,
      "▁फल": 4893,
      "▁teams": 4894,
      "ताबिक": 4895,
      "▁talking": 4896,
      "▁strateg": 4897,
      "ager": 4898,
      "▁प्य": 4899,
      "▁80": 4900,
      "▁particularly": 4901,
      "▁rent": 4902,
      "▁खरीद": 4903,
      "▁Services": 4904,
      "▁सोच": 4905,
      "▁dry": 4906,
      "BC": 4907,
      "asc": 4908,
      "amm": 4909,
      "नाथ": 4910,
      "दर्श": 4911,
      "▁मुताबिक": 4912,
      "venue": 4913,
      "▁रोज": 4914,
      "▁प्रक": 4915,
      "estern": 4916,
      "▁thous": 4917,
      "▁relig": 4918,
      "▁महीने": 4919,
      "▁Jesus": 4920,
      "▁images": 4921,
      "orage": 4922,
      "▁billion": 4923,
      "▁shot": 4924,
      "▁solutions": 4925,
      "पे": 4926,
      "▁reports": 4927,
      "▁अभि": 4928,
      "▁earlier": 4929,
      "▁पिता": 4930,
      "▁aim": 4931,
      "atever": 4932,
      "▁beyond": 4933,
      "reed": 4934,
      "नीय": 4935,
      "▁@": 4936,
      "isc": 4937,
      "18": 4938,
      "▁heat": 4939,
      "AD": 4940,
      "▁appropri": 4941,
      "▁स्तर": 4942,
      "▁सफल": 4943,
      "▁गल": 4944,
      "ाः": 4945,
      "▁investment": 4946,
      "▁Pri": 4947,
      "▁cert": 4948,
      "▁बल्कि": 4949,
      "rael": 4950,
      "▁ऊपर": 4951,
      "▁Bel": 4952,
      "▁title": 4953,
      "14": 4954,
      "ार्ट": 4955,
      "▁enh": 4956,
      "▁director": 4957,
      "▁applications": 4958,
      "▁wait": 4959,
      "▁घोष": 4960,
      "hest": 4961,
      "inner": 4962,
      "▁sale": 4963,
      "▁छोट": 4964,
      "▁increased": 4965,
      "▁ver": 4966,
      "नाम": 4967,
      "णे": 4968,
      "▁charge": 4969,
      "▁पांच": 4970,
      "undred": 4971,
      "reci": 4972,
      "ocol": 4973,
      "▁temper": 4974,
      "gen": 4975,
      "▁नीचे": 4976,
      "▁Republic": 4977,
      "▁Wednesday": 4978,
      "▁apart": 4979,
      "ronic": 4980,
      "सू": 4981,
      "▁benefit": 4982,
      "ashion": 4983,
      "▁Program": 4984,
      "▁दू": 4985,
      "ya": 4986,
      "▁Whe": 4987,
      "▁होंगे": 4988,
      "▁whose": 4989,
      "▁विकल्प": 4990,
      "म्भ": 4991,
      "▁baby": 4992,
      "▁Super": 4993,
      "▁पेश": 4994,
      "▁कार्ड": 4995,
      "▁increasing": 4996,
      "▁meaning": 4997,
      "ipping": 4998,
      "▁फोन": 4999,
      "▁Tex": 5000,
      "-19": 5001,
      "▁doub": 5002,
      "कं": 5003,
      "▁assess": 5004,
      "▁award": 5005,
      "न्तु": 5006,
      "▁रोक": 5007,
      "imin": 5008,
      "▁Inter": 5009,
      "▁overall": 5010,
      "▁fem": 5011,
      "्यास": 5012,
      "▁निर्माण": 5013,
      "▁व्यापार": 5014,
      "▁uses": 5015,
      "र्द": 5016,
      "▁Today": 5017,
      "तं": 5018,
      "▁roll": 5019,
      "▁Internet": 5020,
      "▁commercial": 5021,
      "▁candid": 5022,
      "▁निवेश": 5023,
      "▁www": 5024,
      "▁definitely": 5025,
      "▁Oh": 5026,
      "▁Gold": 5027,
      "▁requirements": 5028,
      "▁trade": 5029,
      "▁James": 5030,
      "▁Because": 5031,
      "ils": 5032,
      "▁System": 5033,
      "ears": 5034,
      "▁grand": 5035,
      "▁Found": 5036,
      "▁सदस्य": 5037,
      "TM": 5038,
      "ault": 5039,
      "▁रखा": 5040,
      "▁हमारी": 5041,
      "▁rock": 5042,
      "गल": 5043,
      "▁opin": 5044,
      "▁Market": 5045,
      "▁immediately": 5046,
      "▁Research": 5047,
      "▁Cong": 5048,
      "▁comments": 5049,
      "▁fans": 5050,
      "▁voice": 5051,
      "▁smart": 5052,
      "▁संग": 5053,
      "▁doll": 5054,
      "▁Ty": 5055,
      "ously": 5056,
      "▁load": 5057,
      "र्चा": 5058,
      "▁serious": 5059,
      "▁middle": 5060,
      "isf": 5061,
      "change": 5062,
      "▁लेख": 5063,
      "OM": 5064,
      "त्वाद": 5065,
      "मति": 5066,
      "▁surv": 5067,
      "क्शन": 5068,
      "ाउन": 5069,
      "▁advert": 5070,
      "▁Down": 5071,
      "म्प": 5072,
      "lock": 5073,
      "▁numbers": 5074,
      "ew": 5075,
      "िश्च": 5076,
      "▁उच्च": 5077,
      "▁statement": 5078,
      "aled": 5079,
      "▁although": 5080,
      "ancing": 5081,
      "▁तुम्ह": 5082,
      "dom": 5083,
      "▁rates": 5084,
      "▁seven": 5085,
      "▁विभिन्न": 5086,
      "▁ऑनलाइन": 5087,
      "▁extend": 5088,
      "▁allowed": 5089,
      "▁normal": 5090,
      "▁pet": 5091,
      "ecutive": 5092,
      "▁IS": 5093,
      "edding": 5094,
      "▁offered": 5095,
      "नां": 5096,
      "▁nut": 5097,
      "▁Each": 5098,
      "▁advice": 5099,
      "▁proced": 5100,
      "भेद": 5101,
      "▁तौर": 5102,
      "▁capital": 5103,
      "-5": 5104,
      "▁serve": 5105,
      "▁समर्थ": 5106,
      "▁मिली": 5107,
      "▁und": 5108,
      "ापि": 5109,
      "▁shown": 5110,
      "▁Port": 5111,
      "▁Develop": 5112,
      "▁pattern": 5113,
      "▁strugg": 5114,
      "olf": 5115,
      "▁glass": 5116,
      "ffee": 5117,
      "▁couldn": 5118,
      "▁remain": 5119,
      "▁changed": 5120,
      "▁दूसरी": 5121,
      "force": 5122,
      "▁दल": 5123,
      "▁Design": 5124,
      "▁internet": 5125,
      "▁Ret": 5126,
      "▁liter": 5127,
      "▁Ant": 5128,
      "▁eight": 5129,
      "ातार": 5130,
      "▁Check": 5131,
      "0.": 5132,
      "▁Educ": 5133,
      "▁धन": 5134,
      "ounds": 5135,
      "▁Cr": 5136,
      "▁den": 5137,
      "र्य": 5138,
      "▁clin": 5139,
      "▁categ": 5140,
      "▁owners": 5141,
      "omb": 5142,
      "▁वेबसाइट": 5143,
      "▁महत्वपूर्ण": 5144,
      "itiz": 5145,
      "▁force": 5146,
      "▁happened": 5147,
      "▁photo": 5148,
      "▁degree": 5149,
      "लाई": 5150,
      "▁church": 5151,
      "▁पाकिस्तान": 5152,
      "रीज": 5153,
      "▁cash": 5154,
      "▁scient": 5155,
      "▁active": 5156,
      "la": 5157,
      "▁Hot": 5158,
      "▁prefer": 5159,
      "urning": 5160,
      "rial": 5161,
      "▁लाग": 5162,
      "etic": 5163,
      "स्ताव": 5164,
      "▁Mac": 5165,
      "▁mer": 5166,
      "▁supply": 5167,
      "▁पीछ": 5168,
      "▁शो": 5169,
      "▁नाग": 5170,
      "▁पाठ": 5171,
      "▁Like": 5172,
      "▁max": 5173,
      "▁corpor": 5174,
      "▁Av": 5175,
      "▁Council": 5176,
      "▁moved": 5177,
      "▁rules": 5178,
      "िष्ट": 5179,
      "▁quarter": 5180,
      "्ता": 5181,
      "▁बर": 5182,
      "▁मोब": 5183,
      "▁पैसे": 5184,
      "वाब": 5185,
      "▁बज": 5186,
      "▁reasons": 5187,
      "▁loved": 5188,
      "▁Mem": 5189,
      "▁जरूरत": 5190,
      "्वा": 5191,
      "▁lik": 5192,
      "▁gar": 5193,
      "▁military": 5194,
      "ास्तव": 5195,
      "▁join": 5196,
      "▁basis": 5197,
      "You": 5198,
      "▁Canada": 5199,
      "▁एक्स": 5200,
      "▁प्रकाश": 5201,
      "▁truly": 5202,
      "icate": 5203,
      "▁reduce": 5204,
      "▁Rich": 5205,
      "भर": 5206,
      "▁People": 5207,
      "bon": 5208,
      "▁जन्म": 5209,
      "isl": 5210,
      "द्धि": 5211,
      "▁Israel": 5212,
      "▁Rel": 5213,
      "▁associated": 5214,
      "▁hus": 5215,
      "▁aspect": 5216,
      "▁cancer": 5217,
      "IG": 5218,
      "▁machine": 5219,
      "▁रखने": 5220,
      "पक्ष": 5221,
      "ties": 5222,
      "▁2009": 5223,
      "▁मात्र": 5224,
      "▁Association": 5225,
      "▁वायर": 5226,
      "ॉप": 5227,
      "▁Board": 5228,
      "set": 5229,
      "▁European": 5230,
      "▁federal": 5231,
      "nded": 5232,
      "▁मौजूद": 5233,
      "▁reflect": 5234,
      "▁6.": 5235,
      "▁challenge": 5236,
      "▁damage": 5237,
      "pa": 5238,
      "▁fra": 5239,
      "inger": 5240,
      "▁Office": 5241,
      "order": 5242,
      "▁cold": 5243,
      "▁Make": 5244,
      "vision": 5245,
      "que": 5246,
      "▁खास": 5247,
      "▁ing": 5248,
      "▁album": 5249,
      "▁construction": 5250,
      "▁बोल": 5251,
      "This": 5252,
      "istry": 5253,
      "▁सुबह": 5254,
      "▁patient": 5255,
      "▁Phot": 5256,
      "▁studies": 5257,
      "▁pow": 5258,
      "▁About": 5259,
      "useum": 5260,
      "▁काल": 5261,
      "hi": 5262,
      "▁Company": 5263,
      "▁पक": 5264,
      "iling": 5265,
      "well": 5266,
      "▁परीक्षा": 5267,
      "त्वेन": 5268,
      "ड़क": 5269,
      "▁Michael": 5270,
      "▁अं": 5271,
      "▁बिज": 5272,
      "ago": 5273,
      "▁मंदिर": 5274,
      "▁essential": 5275,
      "▁Bank": 5276,
      "▁ble": 5277,
      "house": 5278,
      "▁science": 5279,
      "▁हमेशा": 5280,
      "▁Review": 5281,
      "▁सप्त": 5282,
      "ooth": 5283,
      "▁90": 5284,
      "He": 5285,
      "▁लाल": 5286,
      "िन्": 5287,
      "45": 5288,
      "rapy": 5289,
      "▁helped": 5290,
      "▁easier": 5291,
      "▁जनता": 5292,
      "▁guide": 5293,
      "▁lines": 5294,
      "▁ST": 5295,
      "ज्ज": 5296,
      "▁During": 5297,
      "▁Christmas": 5298,
      "▁पाल": 5299,
      "▁Sol": 5300,
      "▁devices": 5301,
      "▁profession": 5302,
      "▁ahead": 5303,
      "▁द्र": 5304,
      "▁मंत्र": 5305,
      "OL": 5306,
      "▁महा": 5307,
      "▁Thanks": 5308,
      "▁Hall": 5309,
      "▁Spr": 5310,
      "500": 5311,
      "▁hundred": 5312,
      "▁निकल": 5313,
      "▁शुरुआ": 5314,
      "▁responsible": 5315,
      "द्या": 5316,
      "▁Use": 5317,
      "▁cru": 5318,
      "orrow": 5319,
      "एल": 5320,
      "▁aren": 5321,
      "िनी": 5322,
      "amic": 5323,
      "22": 5324,
      "▁नंबर": 5325,
      "ss": 5326,
      "▁perhaps": 5327,
      "▁poor": 5328,
      "▁घंट": 5329,
      "ताव": 5330,
      "▁partner": 5331,
      "▁Ange": 5332,
      "▁लगातार": 5333,
      "▁basic": 5334,
      "▁jobs": 5335,
      "▁कीमत": 5336,
      "▁attract": 5337,
      "▁70": 5338,
      "17": 5339,
      "्ये": 5340,
      "▁सूर": 5341,
      "▁greater": 5342,
      "▁vehicle": 5343,
      "▁absolute": 5344,
      "▁Sur": 5345,
      "icip": 5346,
      "▁चुके": 5347,
      "iny": 5348,
      "▁Rec": 5349,
      "▁बेहतर": 5350,
      "▁Sam": 5351,
      "▁Yes": 5352,
      "▁प्ल": 5353,
      "▁gone": 5354,
      "▁2008": 5355,
      "त्वे": 5356,
      "▁pages": 5357,
      "▁Top": 5358,
      "▁sust": 5359,
      "▁measure": 5360,
      "▁guy": 5361,
      "ल्ले": 5362,
      "▁dang": 5363,
      "▁डे": 5364,
      "▁जिले": 5365,
      "▁spread": 5366,
      "▁सुविधा": 5367,
      "बाद": 5368,
      "विष्य": 5369,
      "▁miles": 5370,
      "▁Loc": 5371,
      "arc": 5372,
      "▁प्रमुख": 5373,
      "CC": 5374,
      "▁contain": 5375,
      "▁brother": 5376,
      "ृश": 5377,
      "▁Texas": 5378,
      "▁efforts": 5379,
      "▁wonderful": 5380,
      "▁साध": 5381,
      "Ch": 5382,
      "osing": 5383,
      "▁powerful": 5384,
      "▁यहाँ": 5385,
      "rief": 5386,
      "▁produce": 5387,
      "▁Sk": 5388,
      "ष्प": 5389,
      "▁Public": 5390,
      "▁Bill": 5391,
      "IV": 5392,
      "▁wild": 5393,
      "▁प्रयास": 5394,
      "▁नार": 5395,
      "itect": 5396,
      "▁decl": 5397,
      "iment": 5398,
      "iant": 5399,
      "ग्री": 5400,
      "▁double": 5401,
      "▁appreci": 5402,
      "▁cry": 5403,
      "▁प्रयोग": 5404,
      "▁sports": 5405,
      "itude": 5406,
      "ट्ट": 5407,
      "वृत्त": 5408,
      "▁29": 5409,
      "▁transport": 5410,
      "▁notice": 5411,
      "▁largest": 5412,
      "▁guys": 5413,
      "▁पसंद": 5414,
      "▁तेज": 5415,
      "▁ड्र": 5416,
      "▁स्थाप": 5417,
      "▁hotel": 5418,
      "cul": 5419,
      "▁एम": 5420,
      "▁Bre": 5421,
      "▁served": 5422,
      "istics": 5423,
      "▁Church": 5424,
      "▁सोशल": 5425,
      "▁offering": 5426,
      "▁sym": 5427,
      "ुम": 5428,
      "हास": 5429,
      "▁मोबाइल": 5430,
      "तन": 5431,
      "coming": 5432,
      "▁transfer": 5433,
      "▁bill": 5434,
      "▁६": 5435,
      "▁strategy": 5436,
      "▁faith": 5437,
      "▁stick": 5438,
      "▁surround": 5439,
      "▁girls": 5440,
      "िकेट": 5441,
      "▁client": 5442,
      "▁followed": 5443,
      "▁surface": 5444,
      "▁Apple": 5445,
      "्वर": 5446,
      "▁बैठक": 5447,
      "IP": 5448,
      "▁accur": 5449,
      "ourney": 5450,
      "▁named": 5451,
      "्वी": 5452,
      "▁Big": 5453,
      "▁British": 5454,
      "▁peace": 5455,
      "▁Ev": 5456,
      "▁annual": 5457,
      "▁तम": 5458,
      "▁जाये": 5459,
      "olic": 5460,
      "▁हार": 5461,
      "▁बजे": 5462,
      "▁General": 5463,
      "▁Bra": 5464,
      "▁bottom": 5465,
      "ाद्य": 5466,
      "ken": 5467,
      "▁steps": 5468,
      "▁chem": 5469,
      "▁star": 5470,
      "atively": 5471,
      "▁यादव": 5472,
      "▁प्रदर्शन": 5473,
      "▁कहीं": 5474,
      "▁lock": 5475,
      "▁रंग": 5476,
      "िक्ष": 5477,
      "ूह": 5478,
      "eds": 5479,
      "hips": 5480,
      "see": 5481,
      "▁kitchen": 5482,
      "▁hospital": 5483,
      "लि": 5484,
      "कर्म": 5485,
      "ाम्": 5486,
      "▁संघ": 5487,
      "▁Rom": 5488,
      "▁विदेश": 5489,
      "▁माह": 5490,
      "▁196": 5491,
      "▁Ann": 5492,
      "▁Look": 5493,
      "▁पति": 5494,
      "▁delivery": 5495,
      "▁occas": 5496,
      "▁lots": 5497,
      "▁shop": 5498,
      "▁देना": 5499,
      "▁जीव": 5500,
      "हरा": 5501,
      "ico": 5502,
      "▁राष्ट्रीय": 5503,
      "बोध": 5504,
      "▁Christian": 5505,
      "▁extremely": 5506,
      "____": 5507,
      "▁slight": 5508,
      "शब्द": 5509,
      "▁frame": 5510,
      "▁compon": 5511,
      "ston": 5512,
      "▁adjust": 5513,
      "▁helping": 5514,
      "▁expand": 5515,
      "friend": 5516,
      "▁Cur": 5517,
      "▁सूत्र": 5518,
      "▁trou": 5519,
      "▁गति": 5520,
      "▁born": 5521,
      "ero": 5522,
      "डा": 5523,
      "▁Flor": 5524,
      "care": 5525,
      "ifying": 5526,
      "▁strength": 5527,
      "▁जे": 5528,
      "▁society": 5529,
      "▁fab": 5530,
      "▁गांधी": 5531,
      "▁Who": 5532,
      "▁Micro": 5533,
      "rupt": 5534,
      "▁blue": 5535,
      "▁compared": 5536,
      "hens": 5537,
      "apter": 5538,
      "ulf": 5539,
      "place": 5540,
      "▁workers": 5541,
      "प्प": 5542,
      "ustr": 5543,
      "▁Life": 5544,
      "▁regarding": 5545,
      "अल": 5546,
      "▁दर्श": 5547,
      "▁बनाया": 5548,
      "▁विरोध": 5549,
      "्रम": 5550,
      "▁ताकि": 5551,
      "▁train": 5552,
      "क्सी": 5553,
      "90": 5554,
      "term": 5555,
      "akers": 5556,
      "inated": 5557,
      "▁setting": 5558,
      "▁थीं": 5559,
      "▁husband": 5560,
      "▁परेश": 5561,
      "acity": 5562,
      "encies": 5563,
      "नेन": 5564,
      "र्प": 5565,
      "क्षिण": 5566,
      "▁movement": 5567,
      "ports": 5568,
      "leg": 5569,
      "▁pictures": 5570,
      "▁clot": 5571,
      "▁Class": 5572,
      "oos": 5573,
      "▁brain": 5574,
      "▁cast": 5575,
      "▁obv": 5576,
      "▁income": 5577,
      "▁truth": 5578,
      "▁इतना": 5579,
      "▁letter": 5580,
      "ोम": 5581,
      "▁finish": 5582,
      "▁eval": 5583,
      "▁Two": 5584,
      "▁Mart": 5585,
      "षि": 5586,
      "▁उम": 5587,
      "▁Another": 5588,
      "▁गृह": 5589,
      "▁opening": 5590,
      "त्नी": 5591,
      "ij": 5592,
      "▁Australia": 5593,
      "▁Hel": 5594,
      "▁weather": 5595,
      "▁Online": 5596,
      "▁सामान्य": 5597,
      "▁Twitter": 5598,
      "▁continued": 5599,
      "roid": 5600,
      "LE": 5601,
      "▁35": 5602,
      "gn": 5603,
      "▁पीछे": 5604,
      "ady": 5605,
      "▁appoint": 5606,
      "▁collabor": 5607,
      "▁Vis": 5608,
      "▁breat": 5609,
      "▁length": 5610,
      "▁Lear": 5611,
      "▁seeing": 5612,
      "▁प्रक्रिया": 5613,
      "▁virt": 5614,
      "▁मजब": 5615,
      "ech": 5616,
      "▁Under": 5617,
      "▁Find": 5618,
      "▁repe": 5619,
      "▁Windows": 5620,
      "▁cho": 5621,
      "▁fant": 5622,
      "▁kept": 5623,
      "▁finished": 5624,
      "▁अंदर": 5625,
      "एन": 5626,
      "▁लिखा": 5627,
      "anging": 5628,
      "35": 5629,
      "▁protection": 5630,
      "▁पंच": 5631,
      "▁IT": 5632,
      "▁sweet": 5633,
      "75": 5634,
      "usion": 5635,
      "▁विधान": 5636,
      "▁French": 5637,
      "▁भाई": 5638,
      "▁Mag": 5639,
      "▁Time": 5640,
      "▁अस्पताल": 5641,
      "▁pros": 5642,
      "▁compl": 5643,
      "▁जवाब": 5644,
      "▁structure": 5645,
      "▁मिश": 5646,
      "▁learned": 5647,
      "ologies": 5648,
      "▁nove": 5649,
      "▁satisf": 5650,
      "गार": 5651,
      "lying": 5652,
      "▁population": 5653,
      "phone": 5654,
      "▁generally": 5655,
      "dule": 5656,
      "▁डि": 5657,
      "asy": 5658,
      "▁Director": 5659,
      "imal": 5660,
      "▁Sa": 5661,
      "ोह": 5662,
      "▁Obama": 5663,
      "▁existing": 5664,
      "▁Sun": 5665,
      "▁replace": 5666,
      "नं": 5667,
      "▁Sing": 5668,
      "▁appropriate": 5669,
      "िली": 5670,
      "▁boy": 5671,
      "▁suff": 5672,
      "कम": 5673,
      "▁arr": 5674,
      "▁Rob": 5675,
      "नेट": 5676,
      "▁धार": 5677,
      "▁इल": 5678,
      "aming": 5679,
      "iced": 5680,
      "▁characters": 5681,
      "▁larger": 5682,
      "▁राशि": 5683,
      "▁gift": 5684,
      "▁लें": 5685,
      "रं": 5686,
      "rem": 5687,
      "▁रुपए": 5688,
      "▁OF": 5689,
      "साय": 5690,
      "▁अफ": 5691,
      "▁continu": 5692,
      "▁Plan": 5693,
      "▁Thom": 5694,
      "▁camera": 5695,
      "िणाम": 5696,
      "्यां": 5697,
      "▁vill": 5698,
      "▁मास": 5699,
      "▁निकाल": 5700,
      "▁wat": 5701,
      "जेपी": 5702,
      "▁चुन": 5703,
      "▁2,": 5704,
      "▁thank": 5705,
      "▁primary": 5706,
      "ym": 5707,
      "▁Mary": 5708,
      "र्वा": 5709,
      "▁सुख": 5710,
      "▁afford": 5711,
      "▁initi": 5712,
      "▁Road": 5713,
      "▁bath": 5714,
      "▁सूचना": 5715,
      "▁payment": 5716,
      "▁उद्": 5717,
      "raw": 5718,
      "rig": 5719,
      "लर": 5720,
      "▁नगर": 5721,
      "▁रहते": 5722,
      "-8": 5723,
      "▁economy": 5724,
      "imb": 5725,
      "▁Lord": 5726,
      "icine": 5727,
      "▁esc": 5728,
      "▁experienced": 5729,
      "pective": 5730,
      "त्ते": 5731,
      "▁guarant": 5732,
      "▁figure": 5733,
      "▁disapp": 5734,
      "▁7.": 5735,
      "▁pieces": 5736,
      "िम्म": 5737,
      "?\"": 5738,
      "▁PC": 5739,
      "IM": 5740,
      "▁anti": 5741,
      "▁incred": 5742,
      "▁आख": 5743,
      "▁Fam": 5744,
      "▁Thank": 5745,
      "iled": 5746,
      "चि": 5747,
      "▁drug": 5748,
      "▁critical": 5749,
      "▁शर्मा": 5750,
      "▁सोम": 5751,
      "▁knows": 5752,
      "▁View": 5753,
      "▁Care": 5754,
      "▁चिक": 5755,
      "▁hom": 5756,
      "DA": 5757,
      "nding": 5758,
      "▁सांस": 5759,
      "▁आवश्यकता": 5760,
      "भूत": 5761,
      "चाल": 5762,
      "▁established": 5763,
      "▁audience": 5764,
      "▁लौ": 5765,
      "▁passed": 5766,
      "▁biggest": 5767,
      "eria": 5768,
      "▁advantage": 5769,
      "▁useful": 5770,
      "▁entertain": 5771,
      "▁background": 5772,
      "▁adop": 5773,
      "▁Cam": 5774,
      "▁तरीके": 5775,
      "व्या": 5776,
      "▁हमने": 5777,
      "using": 5778,
      "lies": 5779,
      "▁भविष्य": 5780,
      "▁reb": 5781,
      "▁psych": 5782,
      "▁यात्रा": 5783,
      "▁plus": 5784,
      "unte": 5785,
      "ुड": 5786,
      "▁onto": 5787,
      "▁Dec": 5788,
      "▁reviews": 5789,
      "त्थ": 5790,
      "▁demonstr": 5791,
      "ंख": 5792,
      "▁Det": 5793,
      "▁leader": 5794,
      "▁Have": 5795,
      "▁gun": 5796,
      "-6": 5797,
      "न्व": 5798,
      ".’": 5799,
      "▁वेद": 5800,
      "udd": 5801,
      "▁mission": 5802,
      "▁ir": 5803,
      "▁अंतर": 5804,
      "▁Back": 5805,
      "▁homes": 5806,
      "प्त": 5807,
      "पाद": 5808,
      "lands": 5809,
      "▁गं": 5810,
      "▁PR": 5811,
      "za": 5812,
      "▁harm": 5813,
      "▁creative": 5814,
      "rey": 5815,
      "▁Hum": 5816,
      "▁wear": 5817,
      "▁status": 5818,
      "▁reality": 5819,
      "▁सहित": 5820,
      "▁चुकी": 5821,
      "▁bow": 5822,
      "▁driving": 5823,
      "▁electric": 5824,
      "▁toward": 5825,
      "▁therefore": 5826,
      "▁comfortable": 5827,
      "▁Win": 5828,
      "मता": 5829,
      "▁Club": 5830,
      "▁haven": 5831,
      "▁Jer": 5832,
      "▁Hist": 5833,
      "▁गये": 5834,
      "▁पश्च": 5835,
      "▁इंडिया": 5836,
      "▁mechan": 5837,
      "ampions": 5838,
      "▁परिव": 5839,
      "▁storage": 5840,
      "▁Child": 5841,
      "▁प्रतिशत": 5842,
      "न्ना": 5843,
      "▁heavy": 5844,
      "▁organizations": 5845,
      "”,": 5846,
      "▁उसी": 5847,
      "▁प्ले": 5848,
      "▁fear": 5849,
      "▁युवा": 5850,
      "▁methods": 5851,
      "▁अद": 5852,
      "▁requires": 5853,
      "▁daughter": 5854,
      "तीति": 5855,
      "▁Step": 5856,
      "▁अर": 5857,
      "▁beg": 5858,
      "▁कौन": 5859,
      "▁500": 5860,
      "ुं": 5861,
      "गढ़": 5862,
      "▁actual": 5863,
      "last": 5864,
      "ado": 5865,
      "टन": 5866,
      "EM": 5867,
      "▁सरकारी": 5868,
      "▁मध": 5869,
      "▁unit": 5870,
      "ipped": 5871,
      "▁Miss": 5872,
      "▁किं": 5873,
      "24": 5874,
      "▁Tom": 5875,
      "स्ति": 5876,
      "▁जिन्ह": 5877,
      "▁AP": 5878,
      "▁wouldn": 5879,
      "▁connection": 5880,
      "▁मू": 5881,
      "ios": 5882,
      "▁Ben": 5883,
      "riage": 5884,
      "annel": 5885,
      "▁Jew": 5886,
      "▁calls": 5887,
      "िन्न": 5888,
      "200": 5889,
      "▁mist": 5890,
      "azon": 5891,
      "▁उठा": 5892,
      "▁Matt": 5893,
      "▁older": 5894,
      "▁फॉ": 5895,
      "▁guid": 5896,
      "▁प्रमाण": 5897,
      "▁सार": 5898,
      "भिः": 5899,
      "▁एक्ट": 5900,
      "OW": 5901,
      "▁Sal": 5902,
      "▁Commission": 5903,
      "▁व्यवस्था": 5904,
      "ona": 5905,
      "▁सत्य": 5906,
      "press": 5907,
      "▁देर": 5908,
      "▁highest": 5909,
      "▁प्यार": 5910,
      "▁Ins": 5911,
      "▁finding": 5912,
      "▁util": 5913,
      "▁नोट": 5914,
      "▁चीज": 5915,
      "sey": 5916,
      "gal": 5917,
      "▁govern": 5918,
      "▁establish": 5919,
      "▁मिलने": 5920,
      "फर": 5921,
      "▁conference": 5922,
      "ष्क": 5923,
      "men": 5924,
      "▁Phil": 5925,
      "▁colle": 5926,
      "aven": 5927,
      "rees": 5928,
      "▁फाय": 5929,
      "ae": 5930,
      "▁models": 5931,
      "ker": 5932,
      "▁मिन": 5933,
      "▁origin": 5934,
      "rowd": 5935,
      "vere": 5936,
      "▁बीजेपी": 5937,
      "▁completed": 5938,
      "▁तस्व": 5939,
      "▁Rock": 5940,
      "▁factors": 5941,
      "▁खे": 5942,
      "roud": 5943,
      "▁tend": 5944,
      "विशेष": 5945,
      "▁views": 5946,
      "टक": 5947,
      "▁कमी": 5948,
      "▁died": 5949,
      "porary": 5950,
      "soft": 5951,
      "rab": 5952,
      "▁Where": 5953,
      "▁exhib": 5954,
      "तया": 5955,
      "▁Education": 5956,
      "▁बने": 5957,
      "क़": 5958,
      "▁Bay": 5959,
      "▁shared": 5960,
      "▁चर्चा": 5961,
      "unately": 5962,
      "ोस": 5963,
      "ील": 5964,
      "▁civil": 5965,
      "estival": 5966,
      "▁Love": 5967,
      "▁Pet": 5968,
      "▁cells": 5969,
      "▁stream": 5970,
      "स्कार": 5971,
      "▁pray": 5972,
      "▁fan": 5973,
      "ading": 5974,
      "▁produced": 5975,
      "▁manufacture": 5976,
      "▁whatever": 5977,
      "RA": 5978,
      "द्योग": 5979,
      "▁scene": 5980,
      "▁नया": 5981,
      "▁sto": 5982,
      "iques": 5983,
      "टल": 5984,
      "रम": 5985,
      "न्ते": 5986,
      "▁journey": 5987,
      "▁Sl": 5988,
      "▁challenges": 5989,
      "▁Ber": 5990,
      "▁names": 5991,
      "▁वी": 5992,
      "▁traffic": 5993,
      "▁देखते": 5994,
      "▁secret": 5995,
      "कृ": 5996,
      "▁doctor": 5997,
      "itar": 5998,
      "▁पुत्र": 5999,
      "inese": 6000,
      "atically": 6001,
      "ander": 6002,
      "▁meant": 6003,
      "▁पञ्च": 6004,
      "▁Press": 6005,
      "▁रेल": 6006,
      "▁refer": 6007,
      "▁वाह": 6008,
      "works": 6009,
      "▁वर्त": 6010,
      "िटी": 6011,
      "▁pool": 6012,
      "▁century": 6013,
      "▁academ": 6014,
      "▁tips": 6015,
      "ांग": 6016,
      "▁remind": 6017,
      "rian": 6018,
      "ड़ों": 6019,
      "▁tom": 6020,
      "▁earth": 6021,
      "ॉक": 6022,
      "▁retail": 6023,
      "ितं": 6024,
      "▁runs": 6025,
      "▁diet": 6026,
      "▁वास्तव": 6027,
      "itors": 6028,
      "▁माना": 6029,
      "▁Pay": 6030,
      "लेज": 6031,
      "ervation": 6032,
      "▁owner": 6033,
      "▁गिरफ्त": 6034,
      "▁resist": 6035,
      "▁mill": 6036,
      "▁communities": 6037,
      "▁Camp": 6038,
      "▁युव": 6039,
      "एफ": 6040,
      "ूं": 6041,
      "▁अप्र": 6042,
      "▁coffee": 6043,
      "▁drop": 6044,
      "▁parties": 6045,
      "कृत": 6046,
      "▁Institute": 6047,
      "ाचार": 6048,
      "▁Water": 6049,
      "▁रव": 6050,
      "▁रोग": 6051,
      "▁prec": 6052,
      "oyal": 6053,
      "orial": 6054,
      "▁happens": 6055,
      "▁placed": 6056,
      "ses": 6057,
      "▁तुल": 6058,
      "▁cards": 6059,
      "uty": 6060,
      "umn": 6061,
      "▁Management": 6062,
      "▁files": 6063,
      "itness": 6064,
      "▁Florida": 6065,
      "▁har": 6066,
      "asure": 6067,
      "acing": 6068,
      "▁पाए": 6069,
      "▁आता": 6070,
      "gment": 6071,
      "▁तस्वीर": 6072,
      "TS": 6073,
      "▁Str": 6074,
      "▁प्रभ": 6075,
      "▁manage": 6076,
      "ियल": 6077,
      "▁Sum": 6078,
      "log": 6079,
      "▁अख": 6080,
      "▁अभिय": 6081,
      "▁साइ": 6082,
      "▁वापस": 6083,
      "▁score": 6084,
      "▁thanks": 6085,
      "entially": 6086,
      "▁experiences": 6087,
      "▁आदेश": 6088,
      "▁claims": 6089,
      "▁31": 6090,
      "▁scen": 6091,
      "▁Cap": 6092,
      "▁Bet": 6093,
      "▁बहु": 6094,
      "▁रिक": 6095,
      "▁master": 6096,
      "iation": 6097,
      "▁manager": 6098,
      "▁Dig": 6099,
      "box": 6100,
      "▁covered": 6101,
      "▁आन": 6102,
      "osure": 6103,
      "▁evening": 6104,
      "▁Information": 6105,
      "iller": 6106,
      "▁वन": 6107,
      "icks": 6108,
      "गुण": 6109,
      "▁waiting": 6110,
      "▁standards": 6111,
      "▁अंग": 6112,
      "▁अत": 6113,
      "text": 6114,
      "▁lands": 6115,
      "ंभ": 6116,
      "▁जय": 6117,
      "ायल": 6118,
      "▁अच्छे": 6119,
      "▁रन": 6120,
      "▁चतु": 6121,
      "ात्मक": 6122,
      "▁ग्राह": 6123,
      "▁ton": 6124,
      "▁Congress": 6125,
      "cript": 6126,
      "▁वही": 6127,
      "ठन": 6128,
      "▁Lou": 6129,
      "▁Mal": 6130,
      "▁limit": 6131,
      "▁Fore": 6132,
      "▁बनाए": 6133,
      "▁rare": 6134,
      "BS": 6135,
      "भीर": 6136,
      "ङ्क": 6137,
      "▁memory": 6138,
      "▁argu": 6139,
      "ायद": 6140,
      "▁Call": 6141,
      "▁पत्नी": 6142,
      "▁fashion": 6143,
      "▁बिहार": 6144,
      "▁remains": 6145,
      "▁rob": 6146,
      "▁secure": 6147,
      "डे": 6148,
      "▁becomes": 6149,
      "enses": 6150,
      "▁balance": 6151,
      "23": 6152,
      "▁Att": 6153,
      "▁भगवान": 6154,
      "▁वित्त": 6155,
      "ota": 6156,
      "olly": 6157,
      "▁lose": 6158,
      "UR": 6159,
      "वर्": 6160,
      "▁showed": 6161,
      "केट": 6162,
      "▁England": 6163,
      "▁Form": 6164,
      "▁USA": 6165,
      "▁Power": 6166,
      "▁selection": 6167,
      "oe": 6168,
      "▁batter": 6169,
      "▁wedding": 6170,
      "▁Vir": 6171,
      "▁elements": 6172,
      "▁Social": 6173,
      "standing": 6174,
      "करी": 6175,
      "**": 6176,
      "▁street": 6177,
      "▁Open": 6178,
      "vention": 6179,
      "▁keeping": 6180,
      "▁कार्र": 6181,
      "▁खो": 6182,
      "▁अधिकारियों": 6183,
      "▁window": 6184,
      "▁हास": 6185,
      "ipe": 6186,
      "look": 6187,
      "▁solid": 6188,
      "\",": 6189,
      "अप": 6190,
      "lig": 6191,
      "▁अवसर": 6192,
      "▁citiz": 6193,
      "NA": 6194,
      "ितः": 6195,
      "▁competition": 6196,
      "hem": 6197,
      "▁fish": 6198,
      "▁किसानों": 6199,
      "▁links": 6200,
      "▁described": 6201,
      "▁communication": 6202,
      "▁Take": 6203,
      "▁operations": 6204,
      "▁Year": 6205,
      "▁mentioned": 6206,
      "▁vs": 6207,
      "semb": 6208,
      "▁launch": 6209,
      "▁अत्र": 6210,
      "तिम": 6211,
      "▁जानते": 6212,
      "▁spring": 6213,
      "▁पूर्ण": 6214,
      "▁earn": 6215,
      "▁Mil": 6216,
      "hy": 6217,
      "▁हेतु": 6218,
      "▁passion": 6219,
      "▁foreign": 6220,
      "▁लगाया": 6221,
      "▁राय": 6222,
      "▁grant": 6223,
      "▁जित": 6224,
      "▁चलते": 6225,
      "ाद्": 6226,
      "▁monitor": 6227,
      "▁guess": 6228,
      "ads": 6229,
      "▁central": 6230,
      "▁मामला": 6231,
      "रिक्त": 6232,
      "धर": 6233,
      "र्श": 6234,
      "▁legisl": 6235,
      "overy": 6236,
      "▁आवेदन": 6237,
      "know": 6238,
      "▁forms": 6239,
      "▁Hindi": 6240,
      "▁flav": 6241,
      "▁continues": 6242,
      "▁presented": 6243,
      "odes": 6244,
      "ki": 6245,
      "anta": 6246,
      "▁relax": 6247,
      "▁coach": 6248,
      "▁prepared": 6249,
      "ula": 6250,
      "fast": 6251,
      "▁tim": 6252,
      "▁Smith": 6253,
      "▁बयान": 6254,
      "▁Profess": 6255,
      "▁River": 6256,
      "▁determine": 6257,
      "▁कमा": 6258,
      "bed": 6259,
      "▁सारे": 6260,
      "▁opened": 6261,
      "▁developing": 6262,
      "▁जाय": 6263,
      "▁teaching": 6264,
      "▁matt": 6265,
      "▁कार्रवाई": 6266,
      "▁Their": 6267,
      "▁exercise": 6268,
      "▁Alex": 6269,
      "▁station": 6270,
      "▁Star": 6271,
      "▁एत": 6272,
      "▁videos": 6273,
      "▁senior": 6274,
      "▁Commit": 6275,
      "miss": 6276,
      "▁funds": 6277,
      "▁ideal": 6278,
      "▁beat": 6279,
      "▁क्रिकेट": 6280,
      "▁rap": 6281,
      "▁clearly": 6282,
      "ेप": 6283,
      "ल्ल": 6284,
      "ka": 6285,
      "yer": 6286,
      "पूर्व": 6287,
      "▁officials": 6288,
      "▁eth": 6289,
      "apers": 6290,
      "▁TO": 6291,
      "▁forget": 6292,
      "gency": 6293,
      "▁gain": 6294,
      "azine": 6295,
      "▁चा": 6296,
      "▁seemed": 6297,
      "▁ष": 6298,
      "▁direction": 6299,
      "▁technical": 6300,
      "▁counter": 6301,
      "▁जल्द": 6302,
      "▁दौ": 6303,
      "▁Vol": 6304,
      "▁प्रथम": 6305,
      "▁जरूरी": 6306,
      "▁संभाव": 6307,
      "▁शुरुआत": 6308,
      "▁दश": 6309,
      "▁45": 6310,
      "▁सीट": 6311,
      "▁पृथ": 6312,
      "ented": 6313,
      "free": 6314,
      "स्त्र": 6315,
      "▁luck": 6316,
      "▁rich": 6317,
      "▁2021": 6318,
      "osis": 6319,
      "▁thousands": 6320,
      "▁तेन": 6321,
      "▁reli": 6322,
      "गो": 6323,
      "▁session": 6324,
      "▁महिलाओं": 6325,
      "▁फर": 6326,
      "▁loan": 6327,
      "▁estate": 6328,
      "▁jump": 6329,
      "▁impl": 6330,
      "▁majority": 6331,
      "▁क्लिक": 6332,
      "▁becoming": 6333,
      "▁plenty": 6334,
      "दु": 6335,
      "▁पेट": 6336,
      "▁करो": 6337,
      "वत्": 6338,
      "▁wine": 6339,
      "IA": 6340,
      "▁journal": 6341,
      "▁कहानी": 6342,
      "▁तय": 6343,
      "▁trial": 6344,
      "▁Chic": 6345,
      "▁होकर": 6346,
      "च्य": 6347,
      "▁unc": 6348,
      "▁Government": 6349,
      "▁epis": 6350,
      "▁ingred": 6351,
      "ctors": 6352,
      "▁गण": 6353,
      "ांति": 6354,
      "▁boo": 6355,
      "▁धी": 6356,
      "▁paint": 6357,
      "▁George": 6358,
      "▁fol": 6359,
      "▁Sil": 6360,
      "▁विन": 6361,
      "▁पड़े": 6362,
      "▁डिज": 6363,
      "▁Chinese": 6364,
      "▁मौके": 6365,
      "▁2007": 6366,
      "▁spending": 6367,
      "▁testing": 6368,
      "▁furn": 6369,
      "ंश": 6370,
      "▁watching": 6371,
      "हे": 6372,
      "▁posted": 6373,
      "▁भेज": 6374,
      "▁polic": 6375,
      "▁caused": 6376,
      "mail": 6377,
      "▁exclus": 6378,
      "भार": 6379,
      "▁Custom": 6380,
      "▁Ve": 6381,
      "▁उससे": 6382,
      "▁flu": 6383,
      "ास्त्र": 6384,
      "▁appears": 6385,
      "amin": 6386,
      "▁dat": 6387,
      "▁Democr": 6388,
      ");": 6389,
      "▁values": 6390,
      "▁व्यक्त": 6391,
      "▁otherwise": 6392,
      "▁रज": 6393,
      "▁Mot": 6394,
      "▁छो": 6395,
      "्रीम": 6396,
      "iers": 6397,
      "▁thus": 6398,
      "mp": 6399,
      "▁Hy": 6400,
      "द्रा": 6401,
      "▁rank": 6402,
      "edy": 6403,
      "▁catch": 6404,
      "osition": 6405,
      "▁task": 6406,
      "▁willing": 6407,
      "night": 6408,
      "▁Science": 6409,
      "CA": 6410,
      "वादी": 6411,
      "वास": 6412,
      "ooper": 6413,
      "▁independent": 6414,
      "ुद्ध": 6415,
      "▁इला": 6416,
      "▁shape": 6417,
      "▁ग्राम": 6418,
      "ipp": 6419,
      "ोजित": 6420,
      "lor": 6421,
      "▁graph": 6422,
      "▁फीस": 6423,
      "▁Africa": 6424,
      "स्थित": 6425,
      "▁assign": 6426,
      "▁सिर": 6427,
      "▁Before": 6428,
      "inct": 6429,
      "▁Card": 6430,
      "ाज़": 6431,
      "uled": 6432,
      "PA": 6433,
      "▁remove": 6434,
      "▁Mex": 6435,
      "orney": 6436,
      "ाह्म": 6437,
      "▁sexual": 6438,
      "▁चुका": 6439,
      "▁Mount": 6440,
      "▁Project": 6441,
      "ामा": 6442,
      "▁sources": 6443,
      "▁शाह": 6444,
      "खंड": 6445,
      "▁vision": 6446,
      "▁classes": 6447,
      "Re": 6448,
      "▁दिश": 6449,
      "▁शिकायत": 6450,
      "▁फोट": 6451,
      "▁button": 6452,
      "▁sand": 6453,
      "ette": 6454,
      "▁टेस्ट": 6455,
      "धर्म": 6456,
      "▁crowd": 6457,
      "33": 6458,
      "▁leaving": 6459,
      "▁भे": 6460,
      "▁ice": 6461,
      "▁vir": 6462,
      "▁दोष": 6463,
      "▁fill": 6464,
      "▁raised": 6465,
      "▁Follow": 6466,
      "95": 6467,
      "state": 6468,
      "ोत": 6469,
      "hone": 6470,
      "बू": 6471,
      "▁estim": 6472,
      "▁discover": 6473,
      "▁approx": 6474,
      "▁स्वयं": 6475,
      "▁तेल": 6476,
      "▁adding": 6477,
      "ror": 6478,
      "▁capacity": 6479,
      "▁प्रेम": 6480,
      "▁राहुल": 6481,
      "▁टाइ": 6482,
      "▁Glo": 6483,
      "▁मश": 6484,
      "▁handle": 6485,
      "यू": 6486,
      "▁Food": 6487,
      "ags": 6488,
      "▁sustain": 6489,
      "▁पहचान": 6490,
      "▁victim": 6491,
      "▁विस्त": 6492,
      "icken": 6493,
      "▁transl": 6494,
      "▁रहता": 6495,
      "▁closed": 6496,
      "actions": 6497,
      "▁decide": 6498,
      "▁cris": 6499,
      "▁Both": 6500,
      "▁records": 6501,
      "▁vote": 6502,
      "▁excited": 6503,
      "▁10.": 6504,
      "antic": 6505,
      "icon": 6506,
      "▁winter": 6507,
      "च्छेद": 6508,
      "▁conven": 6509,
      "▁यथ": 6510,
      "▁सै": 6511,
      "▁proud": 6512,
      "किंग": 6513,
      "▁starts": 6514,
      "▁Brown": 6515,
      "▁egg": 6516,
      "▁एज": 6517,
      "ception": 6518,
      "▁efficient": 6519,
      "▁flex": 6520,
      "tra": 6521,
      "▁परिणाम": 6522,
      "▁despite": 6523,
      "▁रण": 6524,
      "▁sugar": 6525,
      "फा": 6526,
      "▁Lake": 6527,
      "ga": 6528,
      "▁क्व": 6529,
      "▁agency": 6530,
      "▁schedule": 6531,
      "oop": 6532,
      "itz": 6533,
      "्याया": 6534,
      "▁Wood": 6535,
      "▁laws": 6536,
      "ंबई": 6537,
      "▁Trump": 6538,
      "▁sch": 6539,
      "nect": 6540,
      "▁ju": 6541,
      "umber": 6542,
      "▁Real": 6543,
      "▁smaller": 6544,
      "▁contains": 6545,
      "▁ended": 6546,
      "iency": 6547,
      "CH": 6548,
      "▁summ": 6549,
      "्राम": 6550,
      "win": 6551,
      "how": 6552,
      "▁advance": 6553,
      "▁incor": 6554,
      "▁welcome": 6555,
      "▁craft": 6556,
      "बे": 6557,
      "▁famous": 6558,
      "enture": 6559,
      "▁टै": 6560,
      "विर": 6561,
      "▁update": 6562,
      "▁Special": 6563,
      "asp": 6564,
      "▁plants": 6565,
      "▁Main": 6566,
      "▁residents": 6567,
      "▁artist": 6568,
      "outhern": 6569,
      "▁हत्या": 6570,
      "arge": 6571,
      "▁खुल": 6572,
      "▁दिखाई": 6573,
      "berg": 6574,
      "▁विव": 6575,
      "▁honest": 6576,
      "ोरी": 6577,
      "योः": 6578,
      "iliar": 6579,
      "▁निर्ण": 6580,
      "▁football": 6581,
      "▁एड": 6582,
      "▁लेते": 6583,
      "ano": 6584,
      "▁8.": 6585,
      "!”": 6586,
      "▁Amazon": 6587,
      "▁Development": 6588,
      "▁वालों": 6589,
      "▁actions": 6590,
      "▁minute": 6591,
      "▁करा": 6592,
      "▁दोस्तों": 6593,
      "▁pair": 6594,
      "▁showing": 6595,
      "▁छोटे": 6596,
      "ression": 6597,
      "▁decisions": 6598,
      "roy": 6599,
      "ellow": 6600,
      "▁मोह": 6601,
      "ृश्य": 6602,
      "aked": 6603,
      "▁kid": 6604,
      "ंद्र": 6605,
      "▁Lu": 6606,
      "▁सम्मान": 6607,
      "-7": 6608,
      "र्जी": 6609,
      "ishes": 6610,
      "▁ign": 6611,
      "MS": 6612,
      "▁micro": 6613,
      "iture": 6614,
      "tenance": 6615,
      "▁माँ": 6616,
      "▁presence": 6617,
      "26": 6618,
      "fit": 6619,
      "▁essay": 6620,
      "▁2000": 6621,
      "▁Arch": 6622,
      "▁cars": 6623,
      "▁experts": 6624,
      "▁Fire": 6625,
      "estic": 6626,
      "▁relevant": 6627,
      "।”": 6628,
      "cel": 6629,
      "▁numerous": 6630,
      "▁स्पष्ट": 6631,
      "▁हिस्सा": 6632,
      "▁ap": 6633,
      "▁मॉ": 6634,
      "esome": 6635,
      "oma": 6636,
      "▁सेना": 6637,
      "▁leadership": 6638,
      "खी": 6639,
      "▁घंटे": 6640,
      "osh": 6641,
      "▁injury": 6642,
      "ixt": 6643,
      "▁यो": 6644,
      "▁diagn": 6645,
      "▁Central": 6646,
      "▁tree": 6647,
      "▁साफ": 6648,
      "▁animals": 6649,
      "▁department": 6650,
      "्यता": 6651,
      "▁ship": 6652,
      "▁निश्च": 6653,
      "▁प्रशासन": 6654,
      "ेदार": 6655,
      "word": 6656,
      "▁;": 6657,
      "▁आइ": 6658,
      "▁अनुभव": 6659,
      "रिका": 6660,
      "▁फैसला": 6661,
      "▁उम्र": 6662,
      "▁cab": 6663,
      "लोड": 6664,
      "▁मर": 6665,
      "ste": 6666,
      "▁करेगा": 6667,
      "▁shopping": 6668,
      "▁ur": 6669,
      "▁Committee": 6670,
      "▁restaurant": 6671,
      "gery": 6672,
      "▁rat": 6673,
      "▁motor": 6674,
      "▁practices": 6675,
      "▁opinion": 6676,
      "▁Enter": 6677,
      "▁volunte": 6678,
      "▁thoughts": 6679,
      "▁taste": 6680,
      "▁sector": 6681,
      "▁आत": 6682,
      "▁brief": 6683,
      "▁Download": 6684,
      "▁गुजर": 6685,
      "▁AND": 6686,
      "▁Upd": 6687,
      "▁समान": 6688,
      "▁फ्र": 6689,
      "▁mort": 6690,
      "▁dedicated": 6691,
      "▁Community": 6692,
      "▁focused": 6693,
      "▁]": 6694,
      "▁rule": 6695,
      "▁District": 6696,
      "त्री": 6697,
      "▁चीन": 6698,
      "▁agreement": 6699,
      "▁driver": 6700,
      "ternal": 6701,
      "▁er": 6702,
      "▁खूब": 6703,
      "ंटी": 6704,
      "▁buying": 6705,
      "▁behavior": 6706,
      "▁Somet": 6707,
      "चल": 6708,
      "▁Blue": 6709,
      "▁relationships": 6710,
      "▁discussion": 6711,
      "▁Elect": 6712,
      "▁दक्षिण": 6713,
      "फ्ट": 6714,
      "▁sty": 6715,
      "▁bright": 6716,
      "▁गंभीर": 6717,
      "▁cloud": 6718,
      "going": 6719,
      "rd": 6720,
      "▁arm": 6721,
      "▁Chicago": 6722,
      "21": 6723,
      "outs": 6724,
      "isation": 6725,
      "▁separate": 6726,
      "▁रि": 6727,
      "▁Scott": 6728,
      "▁mail": 6729,
      "▁संबंधित": 6730,
      "hab": 6731,
      "▁architect": 6732,
      "▁संक्रम": 6733,
      "▁facilities": 6734,
      "▁mental": 6735,
      "uries": 6736,
      "▁operating": 6737,
      "▁मना": 6738,
      "हरे": 6739,
      "active": 6740,
      "▁garden": 6741,
      "▁snow": 6742,
      "ript": 6743,
      "▁2022": 6744,
      "point": 6745,
      "▁whom": 6746,
      "▁Show": 6747,
      "▁मनु": 6748,
      "▁सीमा": 6749,
      "श्क": 6750,
      "▁mo": 6751,
      "abilities": 6752,
      "▁core": 6753,
      "IR": 6754,
      "बंधन": 6755,
      "▁७": 6756,
      "▁Start": 6757,
      "illa": 6758,
      "▁initial": 6759,
      "त्तर": 6760,
      "▁changing": 6761,
      "▁reached": 6762,
      "pan": 6763,
      "▁सम्प": 6764,
      "▁Data": 6765,
      "▁CD": 6766,
      "▁sem": 6767,
      "▁पल": 6768,
      "▁Carol": 6769,
      "▁notes": 6770,
      "BA": 6771,
      "isco": 6772,
      "rehens": 6773,
      "▁https": 6774,
      "▁worry": 6775,
      "▁Mad": 6776,
      "▁mostly": 6777,
      "ini": 6778,
      "िक्स": 6779,
      "28": 6780,
      "▁(3": 6781,
      "▁Times": 6782,
      "▁Div": 6783,
      "▁गर्": 6784,
      "▁Foundation": 6785,
      "▁corner": 6786,
      "▁रस": 6787,
      "▁bul": 6788,
      "▁listed": 6789,
      "ित्यर्थः": 6790,
      "▁दुर्": 6791,
      "▁novel": 6792,
      "▁मुंबई": 6793,
      "▁chair": 6794,
      "▁throw": 6795,
      "▁Mass": 6796,
      "▁leaves": 6797,
      "▁identify": 6798,
      "▁नो": 6799,
      "▁माता": 6800,
      "door": 6801,
      "▁funding": 6802,
      "ेश्वर": 6803,
      "काम": 6804,
      "▁36": 6805,
      "▁previously": 6806,
      "मपि": 6807,
      "▁भाषा": 6808,
      "▁posts": 6809,
      "▁आह": 6810,
      "▁sched": 6811,
      "▁Gra": 6812,
      "▁sympt": 6813,
      "cipe": 6814,
      "▁poll": 6815,
      "▁UN": 6816,
      "▁दर्द": 6817,
      "ापन": 6818,
      "▁Hill": 6819,
      "▁putting": 6820,
      "▁markets": 6821,
      "धिकार": 6822,
      "▁Mer": 6823,
      "▁कल्प": 6824,
      "▁asking": 6825,
      "▁Vide": 6826,
      "नेस": 6827,
      "ीति": 6828,
      "▁bought": 6829,
      "▁artists": 6830,
      "no": 6831,
      "▁cream": 6832,
      "▁documents": 6833,
      "ृद": 6834,
      "▁Dri": 6835,
      "▁शायद": 6836,
      "▁जैसा": 6837,
      "unction": 6838,
      "▁smooth": 6839,
      "▁trail": 6840,
      "▁पत्रकार": 6841,
      "ंका": 6842,
      "▁circum": 6843,
      "▁List": 6844,
      "▁परिस": 6845,
      "▁dinner": 6846,
      "▁जैसी": 6847,
      "माह": 6848,
      "▁rid": 6849,
      "▁coverage": 6850,
      "कल्प": 6851,
      "inn": 6852,
      "▁managed": 6853,
      "▁चिकित": 6854,
      "craft": 6855,
      "▁emp": 6856,
      "▁battle": 6857,
      "ॉट": 6858,
      "coh": 6859,
      "▁visual": 6860,
      "▁डॉक्टर": 6861,
      "▁कट": 6862,
      "▁sea": 6863,
      "▁Only": 6864,
      "▁Fort": 6865,
      "▁लगाने": 6866,
      "▁हाई": 6867,
      "▁spl": 6868,
      "▁खुश": 6869,
      "ferences": 6870,
      "▁रिश": 6871,
      "ान्तर": 6872,
      "▁नुक": 6873,
      "▁बेहद": 6874,
      "▁संत": 6875,
      "तंत्र": 6876,
      "▁veget": 6877,
      "▁Island": 6878,
      "▁द्वित": 6879,
      "▁Women": 6880,
      "ार्": 6881,
      "▁compar": 6882,
      "esterday": 6883,
      "▁Product": 6884,
      "▁100%": 6885,
      "▁विधानसभा": 6886,
      "र्थिक": 6887,
      "षे": 6888,
      "▁articles": 6889,
      "▁absolutely": 6890,
      "▁alternative": 6891,
      "▁princi": 6892,
      "▁selected": 6893,
      "डल": 6894,
      "▁eventually": 6895,
      "▁Robert": 6896,
      "▁एल": 6897,
      "▁holiday": 6898,
      "▁teachers": 6899,
      "▁situ": 6900,
      "▁temperature": 6901,
      "▁spect": 6902,
      "▁मंगल": 6903,
      "alls": 6904,
      "▁पाप": 6905,
      ":0": 6906,
      "▁eating": 6907,
      "▁concent": 6908,
      "▁(19": 6909,
      "▁sharing": 6910,
      "▁Its": 6911,
      "llig": 6912,
      "▁bird": 6913,
      "▁लंब": 6914,
      "▁teacher": 6915,
      "ection": 6916,
      "▁decor": 6917,
      "▁concerns": 6918,
      "reek": 6919,
      "▁slightly": 6920,
      "▁rain": 6921,
      "▁आते": 6922,
      "▁waste": 6923,
      "▁Exper": 6924,
      "▁hearing": 6925,
      "ulated": 6926,
      "▁beauty": 6927,
      "DF": 6928,
      "▁walking": 6929,
      "▁Music": 6930,
      "▁brings": 6931,
      "▁बढ़ा": 6932,
      "▁अमेरिका": 6933,
      "▁shut": 6934,
      "▁Grand": 6935,
      "▁Journal": 6936,
      "▁doubt": 6937,
      "▁कदम": 6938,
      "▁kick": 6939,
      "▁IP": 6940,
      "▁प्रण": 6941,
      "▁Tor": 6942,
      "▁explore": 6943,
      "▁freed": 6944,
      "▁Tim": 6945,
      "ण्य": 6946,
      "श्वर": 6947,
      "net": 6948,
      "▁delic": 6949,
      "▁Americans": 6950,
      "cket": 6951,
      "▁Const": 6952,
      "▁धो": 6953,
      "ushing": 6954,
      "▁connected": 6955,
      "▁encourage": 6956,
      "▁adapt": 6957,
      "▁AL": 6958,
      "▁Jud": 6959,
      "▁medium": 6960,
      "fr": 6961,
      ":5": 6962,
      "tered": 6963,
      "▁Ma": 6964,
      "bl": 6965,
      "ज़र": 6966,
      "▁तीस": 6967,
      "▁advanced": 6968,
      "▁Frank": 6969,
      "▁mur": 6970,
      "▁south": 6971,
      "life": 6972,
      "▁तृ": 6973,
      "ँच": 6974,
      "यु": 6975,
      "▁अहम": 6976,
      "▁Engine": 6977,
      "▁Franc": 6978,
      "▁listen": 6979,
      "▁न्याय": 6980,
      "▁McC": 6981,
      "agram": 6982,
      "▁songs": 6983,
      "▁ride": 6984,
      "but": 6985,
      "▁Pub": 6986,
      "▁शा": 6987,
      "▁thr": 6988,
      "▁Long": 6989,
      "▁winning": 6990,
      "▁गौर": 6991,
      "▁classic": 6992,
      "▁defense": 6993,
      "▁हासिल": 6994,
      "▁Media": 6995,
      "▁arrest": 6996,
      "▁responsibility": 6997,
      "▁laun": 6998,
      "▁ग्रह": 6999,
      "▁जमा": 7000,
      "▁combination": 7001,
      "▁Lo": 7002,
      "▁labor": 7003,
      "▁League": 7004,
      "ucle": 7005,
      "▁nor": 7006,
      "▁feels": 7007,
      "मात्र": 7008,
      "▁ट्रेन": 7009,
      "▁bon": 7010,
      "▁returned": 7011,
      "eed": 7012,
      "▁Jim": 7013,
      "▁मिनट": 7014,
      "▁policies": 7015,
      "▁पीएम": 7016,
      "▁fee": 7017,
      "▁indic": 7018,
      "▁fabric": 7019,
      "▁सित": 7020,
      "व्यव": 7021,
      "▁sounds": 7022,
      "ंगी": 7023,
      "▁Team": 7024,
      "▁Tre": 7025,
      "▁proceed": 7026,
      "▁environmental": 7027,
      "atures": 7028,
      "ii": 7029,
      "वुड": 7030,
      "▁3,": 7031,
      "▁entry": 7032,
      "▁स्यात्": 7033,
      "काउ": 7034,
      "▁प्रत्येक": 7035,
      "▁unless": 7036,
      "▁survey": 7037,
      "44": 7038,
      "ructure": 7039,
      "▁professionals": 7040,
      "ड़ने": 7041,
      "ENT": 7042,
      "▁radio": 7043,
      "▁गेंद": 7044,
      "▁properties": 7045,
      "fin": 7046,
      "▁female": 7047,
      "▁थाना": 7048,
      "27": 7049,
      "▁metal": 7050,
      "▁pal": 7051,
      "कट": 7052,
      "▁leads": 7053,
      "▁आतंक": 7054,
      "▁filled": 7055,
      "मारी": 7056,
      "▁Microsoft": 7057,
      "▁friendly": 7058,
      "rolled": 7059,
      "▁district": 7060,
      "▁Jul": 7061,
      "If": 7062,
      "▁Peter": 7063,
      "▁Offic": 7064,
      "pet": 7065,
      "▁Que": 7066,
      "▁negative": 7067,
      "▁du": 7068,
      "▁आपने": 7069,
      "▁generation": 7070,
      "▁Family": 7071,
      "▁neighbor": 7072,
      "▁RE": 7073,
      "▁administration": 7074,
      "▁ban": 7075,
      "while": 7076,
      "▁पैसा": 7077,
      "▁selling": 7078,
      "▁techniques": 7079,
      "▁समर्थन": 7080,
      "▁Nov": 7081,
      "known": 7082,
      "▁allowing": 7083,
      "▁कानून": 7084,
      "▁expensive": 7085,
      "▁Mel": 7086,
      "ुरा": 7087,
      "▁distance": 7088,
      "▁Word": 7089,
      "▁guests": 7090,
      "▁Bi": 7091,
      "▁आसान": 7092,
      "▁Contact": 7093,
      "▁यानी": 7094,
      "orter": 7095,
      "▁Build": 7096,
      "▁seek": 7097,
      "▁गी": 7098,
      "▁हिंदी": 7099,
      "▁तला": 7100,
      "yan": 7101,
      "▁optim": 7102,
      "▁आर्थिक": 7103,
      "ात्त": 7104,
      "ye": 7105,
      "▁killed": 7106,
      "▁climate": 7107,
      "▁package": 7108,
      "top": 7109,
      "▁Those": 7110,
      "▁married": 7111,
      "दीप": 7112,
      "▁गै": 7113,
      "▁disp": 7114,
      "▁आती": 7115,
      "istan": 7116,
      "oles": 7117,
      "ulate": 7118,
      "▁संभव": 7119,
      "▁rooms": 7120,
      "न्स": 7121,
      "▁नुकसान": 7122,
      "ैत": 7123,
      "▁cheap": 7124,
      "▁Union": 7125,
      "▁accompl": 7126,
      "ख्य": 7127,
      "▁Next": 7128,
      "▁rise": 7129,
      "▁Whether": 7130,
      "eal": 7131,
      "▁cities": 7132,
      "▁species": 7133,
      "राध": 7134,
      "▁रहती": 7135,
      "icians": 7136,
      "idential": 7137,
      "▁Test": 7138,
      "▁fuel": 7139,
      "▁consid": 7140,
      "▁Sign": 7141,
      "▁influence": 7142,
      "spe": 7143,
      "हाल": 7144,
      "▁पड़ा": 7145,
      "ugg": 7146,
      "▁Keep": 7147,
      "▁Ok": 7148,
      "▁flat": 7149,
      "▁mouth": 7150,
      "▁ट्रेड": 7151,
      "▁CEO": 7152,
      "▁कृत": 7153,
      "▁election": 7154,
      "▁tight": 7155,
      "noon": 7156,
      "▁helpful": 7157,
      "कर्ता": 7158,
      "▁committed": 7159,
      "रल": 7160,
      "▁colors": 7161,
      "▁joined": 7162,
      "▁Stand": 7163,
      "What": 7164,
      "ुति": 7165,
      "▁north": 7166,
      "ब्र": 7167,
      "▁operation": 7168,
      "ंदगी": 7169,
      "ograp": 7170,
      "▁पाया": 7171,
      "▁theme": 7172,
      "▁समी": 7173,
      "▁Academ": 7174,
      "▁सहयोग": 7175,
      "▁ID": 7176,
      "▁joint": 7177,
      "ाहरण": 7178,
      "▁Color": 7179,
      "▁Rad": 7180,
      "▁debt": 7181,
      "▁brows": 7182,
      ".'": 7183,
      "CT": 7184,
      "▁मतलब": 7185,
      "fortunately": 7186,
      "▁profile": 7187,
      "▁exciting": 7188,
      "igr": 7189,
      "शे": 7190,
      "▁sequ": 7191,
      "▁डा": 7192,
      "nel": 7193,
      "ायु": 7194,
      "▁पौ": 7195,
      "▁alle": 7196,
      "36": 7197,
      "▁Mike": 7198,
      "▁casino": 7199,
      "त्यर्थः": 7200,
      "essions": 7201,
      "orthern": 7202,
      "▁Fil": 7203,
      "हो": 7204,
      "▁Bur": 7205,
      "▁map": 7206,
      "ushed": 7207,
      "▁300": 7208,
      "▁सड़क": 7209,
      "्याप्त": 7210,
      "rier": 7211,
      "▁लागू": 7212,
      "्याद": 7213,
      "▁applied": 7214,
      "▁minor": 7215,
      "ulture": 7216,
      "SS": 7217,
      "▁Organ": 7218,
      "ommod": 7219,
      "▁plays": 7220,
      "▁कवि": 7221,
      "▁marriage": 7222,
      "▁readers": 7223,
      "ल्ड": 7224,
      "▁दब": 7225,
      "▁अगले": 7226,
      "tion": 7227,
      "▁खाने": 7228,
      "▁बोर्ड": 7229,
      "▁Di": 7230,
      "unning": 7231,
      "what": 7232,
      "▁youth": 7233,
      "ship": 7234,
      "▁Society": 7235,
      "ifts": 7236,
      "-20": 7237,
      "▁घोषणा": 7238,
      "ups": 7239,
      "▁वर्तमान": 7240,
      "▁Note": 7241,
      "▁typically": 7242,
      "▁रू": 7243,
      "resp": 7244,
      "▁Old": 7245,
      "विद्य": 7246,
      "▁रास्त": 7247,
      "▁आक": 7248,
      "▁Hol": 7249,
      "isher": 7250,
      "पट": 7251,
      "ius": 7252,
      "ocolate": 7253,
      "iminal": 7254,
      "▁कर्": 7255,
      "▁Tur": 7256,
      "oor": 7257,
      "▁भुगत": 7258,
      "▁sav": 7259,
      "▁गौ": 7260,
      "▁दा": 7261,
      "▁sport": 7262,
      "▁signed": 7263,
      "▁सुप": 7264,
      "▁forces": 7265,
      "▁प्राण": 7266,
      "▁भावः": 7267,
      "ेषां": 7268,
      "cient": 7269,
      "▁Person": 7270,
      "ग्न": 7271,
      "osen": 7272,
      "▁intellig": 7273,
      "▁32": 7274,
      "ामीण": 7275,
      "▁assistance": 7276,
      "▁multi": 7277,
      "ait": 7278,
      "▁Earth": 7279,
      "▁transform": 7280,
      "▁fees": 7281,
      "▁Ham": 7282,
      "कः": 7283,
      "िश्चित": 7284,
      "ena": 7285,
      "▁measures": 7286,
      "▁हमारा": 7287,
      "▁2006": 7288,
      "OP": 7289,
      "88": 7290,
      "▁cart": 7291,
      "▁गिरफ्तार": 7292,
      "▁चाल": 7293,
      "water": 7294,
      "▁NE": 7295,
      "▁Security": 7296,
      "▁importance": 7297,
      "iance": 7298,
      "ala": 7299,
      "▁movies": 7300,
      "▁context": 7301,
      "लीवुड": 7302,
      "▁weap": 7303,
      "▁एंड": 7304,
      "▁देशों": 7305,
      "▁डेट": 7306,
      "▁Police": 7307,
      "odies": 7308,
      "▁पहला": 7309,
      "▁beach": 7310,
      "▁Full": 7311,
      "▁आसानी": 7312,
      "▁stated": 7313,
      "▁corporate": 7314,
      "▁male": 7315,
      "▁ourselves": 7316,
      "▁performed": 7317,
      "igan": 7318,
      "▁consumers": 7319,
      "▁चरण": 7320,
      "anda": 7321,
      "ड्ड": 7322,
      "▁enhance": 7323,
      "▁noted": 7324,
      "▁steel": 7325,
      "▁German": 7326,
      "ावि": 7327,
      "▁Wil": 7328,
      "ूर्ति": 7329,
      "▁discount": 7330,
      "▁holding": 7331,
      "▁sitting": 7332,
      "▁scale": 7333,
      "ानीय": 7334,
      "तां": 7335,
      "▁pun": 7336,
      "▁खोल": 7337,
      "▁बुध": 7338,
      "विषय": 7339,
      "▁जुड़े": 7340,
      "▁appeared": 7341,
      "cher": 7342,
      "▁Light": 7343,
      "LA": 7344,
      "वीं": 7345,
      "ेंसी": 7346,
      "▁जाति": 7347,
      "▁accident": 7348,
      "▁Party": 7349,
      "okes": 7350,
      "▁कैं": 7351,
      "uce": 7352,
      "▁iPhone": 7353,
      "▁missing": 7354,
      "▁conversation": 7355,
      "▁दवा": 7356,
      "▁195": 7357,
      "▁edge": 7358,
      "ordin": 7359,
      "ज्": 7360,
      "▁”": 7361,
      "▁Sand": 7362,
      "▁Chris": 7363,
      "▁मार्ग": 7364,
      "▁pregn": 7365,
      "▁plastic": 7366,
      "▁जिम्म": 7367,
      "▁Report": 7368,
      "▁डाउन": 7369,
      "▁depos": 7370,
      "▁साब": 7371,
      "with": 7372,
      "ृत्व": 7373,
      "▁writer": 7374,
      "▁Los": 7375,
      "▁enjoyed": 7376,
      "ॉन": 7377,
      "च्यते": 7378,
      "▁busy": 7379,
      "atin": 7380,
      "▁ग्रामीण": 7381,
      "▁किये": 7382,
      "▁Virgin": 7383,
      "-10": 7384,
      "▁raise": 7385,
      "▁seeking": 7386,
      "▁manner": 7387,
      "▁conflic": 7388,
      "han": 7389,
      "▁wire": 7390,
      "▁शुक्र": 7391,
      "▁चले": 7392,
      "▁repair": 7393,
      "▁कला": 7394,
      "ंसा": 7395,
      "uable": 7396,
      "▁Android": 7397,
      "▁websites": 7398,
      "▁Instead": 7399,
      "▁शुभ": 7400,
      "▁minimum": 7401,
      "▁गर्म": 7402,
      "poses": 7403,
      "olars": 7404,
      "▁exchange": 7405,
      "ाधिक": 7406,
      "▁इत्यादि": 7407,
      "▁विधायक": 7408,
      "▁familiar": 7409,
      "▁motiv": 7410,
      "▁मस": 7411,
      "▁visitors": 7412,
      "▁lived": 7413,
      "▁जिसका": 7414,
      "zen": 7415,
      "▁explain": 7416,
      "▁tow": 7417,
      "ाजिक": 7418,
      "ियाँ": 7419,
      "rad": 7420,
      "▁Valley": 7421,
      "ivered": 7422,
      "▁processes": 7423,
      "▁Medical": 7424,
      "▁एप": 7425,
      "▁ment": 7426,
      "▁fourth": 7427,
      "ita": 7428,
      "GB": 7429,
      "▁sets": 7430,
      "SA": 7431,
      "▁serving": 7432,
      "rical": 7433,
      "▁announce": 7434,
      "▁Mont": 7435,
      "▁Joe": 7436,
      "/0": 7437,
      "▁NY": 7438,
      "▁दुकान": 7439,
      "▁Atl": 7440,
      "▁लक्षण": 7441,
      "▁tells": 7442,
      "▁Thomas": 7443,
      "▁units": 7444,
      "▁Second": 7445,
      "▁Beach": 7446,
      "▁ingredients": 7447,
      "den": 7448,
      "▁आदमी": 7449,
      "▁teach": 7450,
      "▁८": 7451,
      "▁प्रे": 7452,
      "▁Western": 7453,
      "▁possibly": 7454,
      "▁seat": 7455,
      "▁der": 7456,
      "▁देती": 7457,
      "equ": 7458,
      "▁वैसे": 7459,
      "वै": 7460,
      "▁valid": 7461,
      "gl": 7462,
      "▁thick": 7463,
      "ania": 7464,
      "▁apparent": 7465,
      "otic": 7466,
      "▁Gen": 7467,
      "▁animal": 7468,
      "▁सात": 7469,
      "▁आयोजित": 7470,
      "▁format": 7471,
      "▁सहाय": 7472,
      "▁ज़र": 7473,
      "arrant": 7474,
      "▁recommended": 7475,
      "ूपी": 7476,
      "▁symptoms": 7477,
      "▁Technology": 7478,
      "▁बाव": 7479,
      "▁datab": 7480,
      "phas": 7481,
      "rooms": 7482,
      "▁li": 7483,
      "▁निश": 7484,
      "▁मिलता": 7485,
      "ंडी": 7486,
      "▁हिंद": 7487,
      "▁forg": 7488,
      "▁Id": 7489,
      "▁tough": 7490,
      "साथ": 7491,
      "रीब": 7492,
      "cont": 7493,
      "श्मीर": 7494,
      "▁stret": 7495,
      "fol": 7496,
      "▁chemical": 7497,
      "▁Invest": 7498,
      "▁fif": 7499,
      "▁वर्ग": 7500,
      "▁चिं": 7501,
      "नल": 7502,
      "▁Game": 7503,
      "▁maintenance": 7504,
      "सद": 7505,
      "bre": 7506,
      "LC": 7507,
      "▁panel": 7508,
      "▁confidence": 7509,
      "lla": 7510,
      "▁nine": 7511,
      "▁stores": 7512,
      "▁salt": 7513,
      "▁seconds": 7514,
      "▁Wall": 7515,
      "▁उक्त": 7516,
      "▁ती": 7517,
      "▁France": 7518,
      "▁supposed": 7519,
      "▁quant": 7520,
      "▁predict": 7521,
      "थि": 7522,
      "omin": 7523,
      "eless": 7524,
      "▁cleaning": 7525,
      "VID": 7526,
      "cipl": 7527,
      "▁charges": 7528,
      "▁spons": 7529,
      "▁arg": 7530,
      "▁conv": 7531,
      "▁stre": 7532,
      "▁topic": 7533,
      "▁quot": 7534,
      "▁effic": 7535,
      "तक": 7536,
      "hand": 7537,
      "श्किल": 7538,
      "▁calling": 7539,
      "▁William": 7540,
      "ाजा": 7541,
      "▁properly": 7542,
      "▁सलाह": 7543,
      "▁totally": 7544,
      "▁स्वी": 7545,
      "asks": 7546,
      "▁Louis": 7547,
      "cohol": 7548,
      "ev": 7549,
      "▁switch": 7550,
      "▁push": 7551,
      "▁नै": 7552,
      "▁©": 7553,
      "OD": 7554,
      "ोऽपि": 7555,
      "▁पड़ता": 7556,
      "▁Link": 7557,
      "▁ris": 7558,
      "arp": 7559,
      "▁trees": 7560,
      "▁facility": 7561,
      "▁पहुंचे": 7562,
      "▁violence": 7563,
      "▁desire": 7564,
      "▁खत्म": 7565,
      "▁die": 7566,
      "SP": 7567,
      "ानं": 7568,
      "▁Tri": 7569,
      "▁Head": 7570,
      "▁जाएंगे": 7571,
      "▁afternoon": 7572,
      "▁सें": 7573,
      "▁chief": 7574,
      "▁महस": 7575,
      "▁intended": 7576,
      "▁caught": 7577,
      "rim": 7578,
      "शील": 7579,
      "▁Maybe": 7580,
      "▁अभियान": 7581,
      "▁desk": 7582,
      "▁citizens": 7583,
      "▁internal": 7584,
      "▁विल": 7585,
      "which": 7586,
      "पास": 7587,
      "▁Through": 7588,
      "एँ": 7589,
      "▁लंड": 7590,
      "▁detect": 7591,
      "▁Network": 7592,
      "▁removed": 7593,
      "▁मगर": 7594,
      "लिया": 7595,
      "▁reference": 7596,
      "▁courses": 7597,
      "▁cultural": 7598,
      "▁gall": 7599,
      "▁Dou": 7600,
      "▁promote": 7601,
      "▁इलाज": 7602,
      "िवि": 7603,
      "▁dyn": 7604,
      "▁van": 7605,
      "▁हस्त": 7606,
      "▁server": 7607,
      "▁specifically": 7608,
      "ola": 7609,
      "▁purposes": 7610,
      "▁ऐप": 7611,
      "▁प्रभावित": 7612,
      "▁interests": 7613,
      "▁अंक": 7614,
      "▁मिलेगा": 7615,
      "▁विवाद": 7616,
      "▁नीति": 7617,
      "▁चि": 7618,
      "▁दीप": 7619,
      "▁adults": 7620,
      "▁चाहता": 7621,
      "▁Know": 7622,
      "▁Secret": 7623,
      "▁African": 7624,
      "▁जाकर": 7625,
      "णां": 7626,
      "ingly": 7627,
      "▁Nor": 7628,
      "▁upgr": 7629,
      "▁occup": 7630,
      "▁failed": 7631,
      "▁Germany": 7632,
      "▁मार्च": 7633,
      "list": 7634,
      "▁उनसे": 7635,
      "oses": 7636,
      "▁ब्राह्म": 7637,
      "▁standing": 7638,
      "▁Watch": 7639,
      "▁dur": 7640,
      "▁bond": 7641,
      "▁landsc": 7642,
      "▁contem": 7643,
      "खे": 7644,
      "▁तदा": 7645,
      "▁arrange": 7646,
      "▁ran": 7647,
      "▁recip": 7648,
      "prise": 7649,
      "▁Vict": 7650,
      "▁locations": 7651,
      "ums": 7652,
      "▁Set": 7653,
      "▁Human": 7654,
      "▁शेष": 7655,
      "▁circumst": 7656,
      "▁भर्": 7657,
      "▁Minister": 7658,
      "▁ath": 7659,
      "▁academic": 7660,
      "▁proposed": 7661,
      "▁Cy": 7662,
      "▁combined": 7663,
      "▁महसूस": 7664,
      "▁forced": 7665,
      "▁मुश्किल": 7666,
      "bu": 7667,
      "29": 7668,
      "ulty": 7669,
      "▁uns": 7670,
      "ायी": 7671,
      "dden": 7672,
      "्याम": 7673,
      "ट्स": 7674,
      "umin": 7675,
      "▁accommod": 7676,
      "▁कॉलेज": 7677,
      "▁भूमिका": 7678,
      "rag": 7679,
      "▁भारी": 7680,
      "▁editor": 7681,
      "▁यून": 7682,
      "▁बनी": 7683,
      "▁detailed": 7684,
      "▁राजा": 7685,
      "▁Support": 7686,
      "▁researc": 7687,
      "▁Jose": 7688,
      "दिन": 7689,
      "MP": 7690,
      "arsh": 7691,
      "▁जून": 7692,
      "rehensive": 7693,
      "▁rapid": 7694,
      "▁apps": 7695,
      "▁लेना": 7696,
      "▁poly": 7697,
      "लू": 7698,
      "▁बत": 7699,
      "37": 7700,
      "▁Ill": 7701,
      "▁बेच": 7702,
      "▁quiet": 7703,
      "▁भुगतान": 7704,
      "▁Author": 7705,
      "idden": 7706,
      "▁Award": 7707,
      "▁volume": 7708,
      "▁Bob": 7709,
      "काब": 7710,
      "▁पूजा": 7711,
      "mes": 7712,
      "▁अन्त": 7713,
      "▁shipping": 7714,
      "▁command": 7715,
      "र्तन": 7716,
      "▁signs": 7717,
      "▁स्मार्ट": 7718,
      "▁consequ": 7719,
      "UT": 7720,
      "हरी": 7721,
      "▁amb": 7722,
      "▁एयर": 7723,
      "▁Prov": 7724,
      "ht": 7725,
      "▁बनने": 7726,
      "▁fruit": 7727,
      "47": 7728,
      "ाब": 7729,
      "BI": 7730,
      "मह": 7731,
      "▁निर्णय": 7732,
      "▁executive": 7733,
      "aser": 7734,
      "fection": 7735,
      "धारण": 7736,
      "bour": 7737,
      "▁introduced": 7738,
      "▁religious": 7739,
      "▁instance": 7740,
      "▁recipe": 7741,
      "nergy": 7742,
      "▁नागरिक": 7743,
      "▁सुधार": 7744,
      "▁realize": 7745,
      "▁trading": 7746,
      "▁phil": 7747,
      "साम": 7748,
      "▁Fund": 7749,
      "▁Canad": 7750,
      "▁छात्रों": 7751,
      "क्सर": 7752,
      "▁discovered": 7753,
      "▁consumer": 7754,
      "▁CH": 7755,
      "▁strategies": 7756,
      "▁approximately": 7757,
      "▁भ्र": 7758,
      "▁9.": 7759,
      "▁मात्रा": 7760,
      "सित": 7761,
      "▁freedom": 7762,
      "??": 7763,
      "ूक": 7764,
      "▁roof": 7765,
      "▁Does": 7766,
      "▁bound": 7767,
      "▁supported": 7768,
      "iat": 7769,
      "▁Bas": 7770,
      "▁राजनीतिक": 7771,
      "ध्व": 7772,
      "▁failure": 7773,
      "48": 7774,
      "▁maximum": 7775,
      "Sh": 7776,
      "फे": 7777,
      "▁Gar": 7778,
      "▁बिजली": 7779,
      "जल": 7780,
      "घा": 7781,
      "▁YOU": 7782,
      "▁advertising": 7783,
      "▁dollars": 7784,
      "▁prison": 7785,
      "▁sudden": 7786,
      "▁Dev": 7787,
      "aks": 7788,
      "▁factor": 7789,
      "▁aspects": 7790,
      "met": 7791,
      "▁rom": 7792,
      "▁emergency": 7793,
      "▁सुना": 7794,
      "OC": 7795,
      "▁dance": 7796,
      "uts": 7797,
      "/201": 7798,
      "▁समिति": 7799,
      "▁defend": 7800,
      "cean": 7801,
      "▁mir": 7802,
      "▁गलत": 7803,
      "▁arrived": 7804,
      "lines": 7805,
      "▁NOT": 7806,
      "iration": 7807,
      "▁करवा": 7808,
      "▁therapy": 7809,
      "▁menu": 7810,
      "▁ON": 7811,
      "▁·": 7812,
      "cles": 7813,
      "▁फोटो": 7814,
      "▁approved": 7815,
      "▁employee": 7816,
      "▁bringing": 7817,
      "ician": 7818,
      "▁न्याया": 7819,
      "avig": 7820,
      "38": 7821,
      "▁liber": 7822,
      "▁Kore": 7823,
      "kins": 7824,
      "▁hyd": 7825,
      "▁नरेंद्र": 7826,
      "▁ring": 7827,
      "▁assum": 7828,
      "▁(200": 7829,
      "▁rub": 7830,
      "▁revenue": 7831,
      "▁प्रवेश": 7832,
      "▁साव": 7833,
      "▁processing": 7834,
      "▁dogs": 7835,
      "▁gather": 7836,
      "po": 7837,
      "ifications": 7838,
      "▁दिस": 7839,
      "▁विश्वास": 7840,
      "▁Adv": 7841,
      "▁गाय": 7842,
      "▁burn": 7843,
      "▁Johnson": 7844,
      "च्छा": 7845,
      "▁Inte": 7846,
      "▁sides": 7847,
      "There": 7848,
      "▁witness": 7849,
      "▁बेटी": 7850,
      "▁library": 7851,
      "▁accounts": 7852,
      "▁swim": 7853,
      "▁delivered": 7854,
      "▁Pan": 7855,
      "▁Den": 7856,
      "▁prop": 7857,
      "▁सामाजिक": 7858,
      "▁विज्ञ": 7859,
      "▁determined": 7860,
      "▁butter": 7861,
      "!\"": 7862,
      "ब्ल": 7863,
      "▁causes": 7864,
      "▁chat": 7865,
      "▁extensive": 7866,
      "ॉर्ड": 7867,
      "खन": 7868,
      "▁element": 7869,
      "▁Lead": 7870,
      "झा": 7871,
      "ario": 7872,
      "▁yes": 7873,
      "▁stopped": 7874,
      "▁appearance": 7875,
      "▁बाध": 7876,
      "▁बां": 7877,
      "orry": 7878,
      "▁instit": 7879,
      "urban": 7880,
      "▁तेजी": 7881,
      "▁worse": 7882,
      "elines": 7883,
      "▁Prote": 7884,
      "kin": 7885,
      "▁favour": 7886,
      "इन": 7887,
      "▁sam": 7888,
      "▁incorpor": 7889,
      "▁drugs": 7890,
      "▁Cre": 7891,
      "▁संचाल": 7892,
      "▁decades": 7893,
      "▁डाय": 7894,
      "▁concerned": 7895,
      "▁युक्त": 7896,
      "▁CA": 7897,
      "▁fantastic": 7898,
      "▁updated": 7899,
      "▁kill": 7900,
      "▁यूपी": 7901,
      "▁fold": 7902,
      "▁terror": 7903,
      "▁Master": 7904,
      "▁गोल": 7905,
      "▁मुह": 7906,
      "▁university": 7907,
      "सिक": 7908,
      "▁milk": 7909,
      "▁पैदा": 7910,
      "▁Museum": 7911,
      "▁Jeff": 7912,
      "▁तकनी": 7913,
      "pected": 7914,
      "▁राजस्थान": 7915,
      "49": 7916,
      "▁begins": 7917,
      "▁depending": 7918,
      "शय": 7919,
      "▁Dan": 7920,
      "ensions": 7921,
      "▁improved": 7922,
      "▁greatest": 7923,
      "स्ल": 7924,
      "▁suit": 7925,
      "▁tests": 7926,
      "▁कर्त": 7927,
      "▁tun": 7928,
      "32": 7929,
      "▁participants": 7930,
      "▁calcul": 7931,
      "▁Oper": 7932,
      "!)": 7933,
      "▁aid": 7934,
      "▁संभावना": 7935,
      "erg": 7936,
      "related": 7937,
      "▁Men": 7938,
      "मित": 7939,
      "ुत्प": 7940,
      "▁sister": 7941,
      "▁दिखा": 7942,
      "▁draft": 7943,
      "rastructure": 7944,
      "CE": 7945,
      "ञ्ज": 7946,
      "erry": 7947,
      "▁anywhere": 7948,
      "▁कठ": 7949,
      "▁आरोपी": 7950,
      "चक": 7951,
      "▁awesome": 7952,
      "▁housing": 7953,
      "▁डर": 7954,
      "▁shock": 7955,
      "ायण": 7956,
      "।’": 7957,
      "▁तभी": 7958,
      "iveness": 7959,
      "▁mine": 7960,
      "▁तुर": 7961,
      "▁lunch": 7962,
      "▁स्थानीय": 7963,
      "▁Sar": 7964,
      "▁boost": 7965,
      "▁weak": 7966,
      "ems": 7967,
      "▁जेल": 7968,
      "ulations": 7969,
      "तिक": 7970,
      "नः": 7971,
      "-9": 7972,
      "burg": 7973,
      "ठी": 7974,
      "▁आयु": 7975,
      "▁4,": 7976,
      "▁hero": 7977,
      "▁Cup": 7978,
      "▁2005": 7979,
      "▁नौकरी": 7980,
      "ादा": 7981,
      "▁pure": 7982,
      "▁cop": 7983,
      "▁शान": 7984,
      "▁flight": 7985,
      "▁Series": 7986,
      "▁Video": 7987,
      "▁prepare": 7988,
      "▁pm": 7989,
      "▁शक्ति": 7990,
      "▁hundreds": 7991,
      "▁Aud": 7992,
      "▁provider": 7993,
      "▁judge": 7994,
      "▁जमीन": 7995,
      "▁रखें": 7996,
      "▁Chief": 7997,
      "eper": 7998,
      "▁decre": 7999,
      "▁components": 8000,
      "▁सहायता": 8001,
      "सो": 8002,
      "्रोल": 8003,
      "▁कराने": 8004,
      "▁अने": 8005,
      "ossible": 8006,
      "दिति": 8007,
      "▁clinical": 8008,
      "▁bask": 8009,
      "▁Rev": 8010,
      "▁vehicles": 8011,
      "IF": 8012,
      "100": 8013,
      "▁Page": 8014,
      "वान्": 8015,
      "▁Posted": 8016,
      "▁<": 8017,
      "्रीन": 8018,
      "▁75": 8019,
      "▁occasion": 8020,
      "▁square": 8021,
      "▁Lab": 8022,
      "▁technologies": 8023,
      "▁orders": 8024,
      "▁yesterday": 8025,
      "▁faster": 8026,
      "appy": 8027,
      "▁belief": 8028,
      "xy": 8029,
      "▁भगव": 8030,
      "िना": 8031,
      "▁paying": 8032,
      "▁सचिव": 8033,
      "▁sac": 8034,
      "▁surgery": 8035,
      "▁अंतिम": 8036,
      "बाजी": 8037,
      "iest": 8038,
      "▁stars": 8039,
      "▁Corpor": 8040,
      "▁sad": 8041,
      "्यव": 8042,
      "▁educational": 8043,
      "▁commitment": 8044,
      "▁लड़की": 8045,
      "46": 8046,
      "▁मं": 8047,
      "▁broken": 8048,
      "याः": 8049,
      "▁turns": 8050,
      "reens": 8051,
      "hors": 8052,
      "▁सफ": 8053,
      "▁launched": 8054,
      "ownt": 8055,
      "्रिय": 8056,
      "oti": 8057,
      "▁remark": 8058,
      "▁agreed": 8059,
      "▁officer": 8060,
      "▁MS": 8061,
      "▁speech": 8062,
      "▁Cath": 8063,
      "lets": 8064,
      "▁perspective": 8065,
      "▁kinds": 8066,
      "▁मुक्त": 8067,
      "▁bigger": 8068,
      "▁तं": 8069,
      "ोलन": 8070,
      "▁विप": 8071,
      "encing": 8072,
      "▁ang": 8073,
      "▁अतिरिक्त": 8074,
      "ान्व": 8075,
      "▁dial": 8076,
      "▁inspired": 8077,
      "▁tro": 8078,
      "▁complic": 8079,
      "▁resol": 8080,
      "▁Mo": 8081,
      "याम": 8082,
      "▁liqu": 8083,
      "णो": 8084,
      "▁Aff": 8085,
      "▁चाहे": 8086,
      "lastname": 8087,
      "दं": 8088,
      "een": 8089,
      "▁सुरक्षित": 8090,
      "▁अनुमति": 8091,
      "▁परेशान": 8092,
      "▁सुनिश्चित": 8093,
      "ria": 8094,
      "▁Ext": 8095,
      "▁television": 8096,
      "▁Jun": 8097,
      "▁supporting": 8098,
      "▁Global": 8099,
      "▁symb": 8100,
      "▁बावजूद": 8101,
      "▁प्रश्न": 8102,
      "1)": 8103,
      "▁बॉलीवुड": 8104,
      "▁बदलाव": 8105,
      "▁उपाय": 8106,
      "▁सारी": 8107,
      "▁telling": 8108,
      "▁carried": 8109,
      "▁दिशा": 8110,
      "▁सोमवार": 8111,
      "▁MP": 8112,
      "▁फेस": 8113,
      "▁Econom": 8114,
      "्योति": 8115,
      "▁आयोग": 8116,
      "▁fle": 8117,
      "▁explained": 8118,
      "▁teen": 8119,
      "▁मजबूत": 8120,
      "ेष्ठ": 8121,
      "azz": 8122,
      "▁उद्देश": 8123,
      "▁Town": 8124,
      "kes": 8125,
      "▁inn": 8126,
      "▁सफलता": 8127,
      "▁choices": 8128,
      "नम": 8129,
      "▁tables": 8130,
      "▁herself": 8131,
      "▁सर्वे": 8132,
      "▁Ver": 8133,
      "ैनिक": 8134,
      "▁कराया": 8135,
      "II": 8136,
      "▁category": 8137,
      "▁belong": 8138,
      "हम": 8139,
      "▁functions": 8140,
      "road": 8141,
      "▁Angeles": 8142,
      "’,": 8143,
      "▁pu": 8144,
      "▁concern": 8145,
      "▁खोज": 8146,
      "▁देवी": 8147,
      "▁crisis": 8148,
      "hetic": 8149,
      "▁Gal": 8150,
      "▁mode": 8151,
      "▁reduced": 8152,
      "ef": 8153,
      "rome": 8154,
      "▁lux": 8155,
      "▁अभिने": 8156,
      "▁प्रती": 8157,
      "्टर": 8158,
      "▁feedback": 8159,
      ":||": 8160,
      "▁elimin": 8161,
      "ters": 8162,
      "▁Way": 8163,
      "irmed": 8164,
      "▁agent": 8165,
      "काउंट": 8166,
      "▁breast": 8167,
      "▁Week": 8168,
      "▁Indust": 8169,
      "▁designs": 8170,
      "▁twice": 8171,
      "▁Mur": 8172,
      "स्तुत": 8173,
      "▁coast": 8174,
      "▁अक्सर": 8175,
      "सूर": 8176,
      "▁Martin": 8177,
      "▁प्रय": 8178,
      "▁Lim": 8179,
      "▁films": 8180,
      "ogue": 8181,
      "▁highlight": 8182,
      "लय": 8183,
      "शनल": 8184,
      "TH": 8185,
      "▁wearing": 8186,
      "ष्ट्र": 8187,
      "itionally": 8188,
      "▁worksh": 8189,
      "▁Using": 8190,
      "▁भोजन": 8191,
      "▁neck": 8192,
      "▁Plus": 8193,
      "▁समु": 8194,
      "oration": 8195,
      "परि": 8196,
      "▁समाप्त": 8197,
      "col": 8198,
      "▁बातें": 8199,
      "▁emphas": 8200,
      "gage": 8201,
      "ultural": 8202,
      "▁Mic": 8203,
      "▁टिक": 8204,
      "oga": 8205,
      "▁कृष्ण": 8206,
      "irty": 8207,
      "▁tast": 8208,
      "▁veter": 8209,
      "▁brown": 8210,
      "जु": 8211,
      "alled": 8212,
      "luding": 8213,
      "▁Max": 8214,
      "▁HD": 8215,
      "▁fly": 8216,
      "▁meat": 8217,
      "▁पंजा": 8218,
      "▁Cas": 8219,
      "▁Federal": 8220,
      "▁History": 8221,
      "▁भेद": 8222,
      "म्स": 8223,
      "▁Cir": 8224,
      "▁Log": 8225,
      "▁ends": 8226,
      "estyle": 8227,
      "As": 8228,
      "ibilities": 8229,
      "▁bike": 8230,
      "▁vary": 8231,
      "ंदा": 8232,
      "ांश": 8233,
      "▁speaking": 8234,
      "▁केंद": 8235,
      "▁राष्ट्रपति": 8236,
      "▁Live": 8237,
      "▁Further": 8238,
      "ua": 8239,
      "िटल": 8240,
      "eah": 8241,
      "▁वोट": 8242,
      "▁मरीज": 8243,
      "▁considering": 8244,
      "▁identified": 8245,
      "न्या": 8246,
      "▁trouble": 8247,
      "तों": 8248,
      "▁crime": 8249,
      "alian": 8250,
      "▁recovery": 8251,
      "▁आयोजन": 8252,
      "▁joy": 8253,
      "▁examples": 8254,
      "oston": 8255,
      "ौल": 8256,
      "कुल": 8257,
      "▁closer": 8258,
      "PR": 8259,
      "फोन": 8260,
      "▁follows": 8261,
      "▁practical": 8262,
      "▁foods": 8263,
      "▁Date": 8264,
      "▁goods": 8265,
      "▁Key": 8266,
      "▁लक्ष्य": 8267,
      "टिंग": 8268,
      "रिया": 8269,
      "▁theory": 8270,
      "▁समुद": 8271,
      "▁मुकाब": 8272,
      "▁१०": 8273,
      "▁label": 8274,
      "▁episode": 8275,
      "▁entirely": 8276,
      "बुक": 8277,
      "▁उत्स": 8278,
      "▁Er": 8279,
      "▁धीरे": 8280,
      "ष्ट्रीय": 8281,
      "▁commission": 8282,
      "▁तत": 8283,
      "▁चैन": 8284,
      "aren": 8285,
      "▁treated": 8286,
      "▁distribution": 8287,
      "▁नियंत्र": 8288,
      "▁effectively": 8289,
      "▁चूत": 8290,
      "▁रखते": 8291,
      "▁Tem": 8292,
      "िरी": 8293,
      "ात्प": 8294,
      "ॉय": 8295,
      "▁48": 8296,
      "▁Did": 8297,
      "▁mere": 8298,
      "ासा": 8299,
      "▁प्रस्ताव": 8300,
      "▁समूह": 8301,
      "▁remote": 8302,
      "aped": 8303,
      "hew": 8304,
      "विड": 8305,
      "SE": 8306,
      "▁संयुक्त": 8307,
      "ुव": 8308,
      "▁इतिहास": 8309,
      "▁affected": 8310,
      "▁भावना": 8311,
      "▁industrial": 8312,
      "▁इतनी": 8313,
      "▁1/2": 8314,
      "▁इन्ह": 8315,
      "▁rot": 8316,
      "▁Japanese": 8317,
      "▁tea": 8318,
      "▁1:": 8319,
      "▁Ul": 8320,
      "▁register": 8321,
      "▁समाध": 8322,
      "▁इंस": 8323,
      "▁Creat": 8324,
      "▁emotional": 8325,
      "ादे": 8326,
      "▁meal": 8327,
      "▁तत्प": 8328,
      "▁parking": 8329,
      "ighter": 8330,
      "तार": 8331,
      "orough": 8332,
      "▁Hen": 8333,
      "▁matters": 8334,
      "▁Contin": 8335,
      "▁battery": 8336,
      "लेट": 8337,
      "ड़ियों": 8338,
      "tr": 8339,
      "▁scr": 8340,
      "uality": 8341,
      "▁photograph": 8342,
      "ilit": 8343,
      "▁केंद्रीय": 8344,
      "असल": 8345,
      "▁Haw": 8346,
      "▁डाउनलोड": 8347,
      "▁महाम": 8348,
      "▁af": 8349,
      "FL": 8350,
      "▁Wal": 8351,
      "इस": 8352,
      "arian": 8353,
      "paper": 8354,
      "▁advoc": 8355,
      "▁पीड़": 8356,
      "▁creation": 8357,
      "▁magn": 8358,
      "-201": 8359,
      "▁ec": 8360,
      "▁univers": 8361,
      "▁Arts": 8362,
      "▁authority": 8363,
      "▁remaining": 8364,
      "▁advis": 8365,
      "▁lit": 8366,
      "▁Children": 8367,
      "▁हट": 8368,
      "/4": 8369,
      "ानाम": 8370,
      "77": 8371,
      "▁निजी": 8372,
      "’.": 8373,
      "▁oblig": 8374,
      "क्ष्य": 8375,
      "▁जल्दी": 8376,
      "▁मूल्य": 8377,
      "▁Lee": 8378,
      "▁Wel": 8379,
      "▁Wild": 8380,
      "▁वस्तु": 8381,
      "प्रस": 8382,
      "merce": 8383,
      "▁issued": 8384,
      "▁AT": 8385,
      "▁sole": 8386,
      "▁significantly": 8387,
      "दात": 8388,
      "▁construct": 8389,
      "ुओं": 8390,
      "▁अश": 8391,
      "prene": 8392,
      "▁updates": 8393,
      "▁truck": 8394,
      "▁मुद्": 8395,
      "ora": 8396,
      "▁ननु": 8397,
      "erves": 8398,
      "▁Hand": 8399,
      "▁Though": 8400,
      "under": 8401,
      "▁Search": 8402,
      "▁Ira": 8403,
      "real": 8404,
      "▁राव": 8405,
      "65": 8406,
      "कर्ताओं": 8407,
      "▁boys": 8408,
      "▁तू": 8409,
      "▁involve": 8410,
      "▁enem": 8411,
      "▁भर्ती": 8412,
      "▁agencies": 8413,
      "अलग": 8414,
      "▁mut": 8415,
      "राम": 8416,
      "▁नित्य": 8417,
      "▁उसमें": 8418,
      "▁competitive": 8419,
      "▁Bow": 8420,
      "उट": 8421,
      "▁nucle": 8422,
      "▁Energy": 8423,
      "osoph": 8424,
      "▁buildings": 8425,
      "har": 8426,
      "▁Jon": 8427,
      "▁victory": 8428,
      "▁audio": 8429,
      "▁investigation": 8430,
      "▁chart": 8431,
      "▁king": 8432,
      "▁Hotel": 8433,
      "▁fields": 8434,
      "▁$2": 8435,
      "tters": 8436,
      "▁relatively": 8437,
      "▁colour": 8438,
      "▁नेताओं": 8439,
      "ध्या": 8440,
      "▁administr": 8441,
      "▁odd": 8442,
      "▁wal": 8443,
      "▁centre": 8444,
      "▁massive": 8445,
      "चीत": 8446,
      "▁Pack": 8447,
      "▁Wr": 8448,
      "2)": 8449,
      "▁Squ": 8450,
      "cknow": 8451,
      "▁Despite": 8452,
      "▁anx": 8453,
      "▁संगठन": 8454,
      "▁Mov": 8455,
      "▁protein": 8456,
      "▁rough": 8457,
      "▁Pac": 8458,
      "▁revealed": 8459,
      "▁तद्व": 8460,
      "39": 8461,
      "▁Isl": 8462,
      "▁Brand": 8463,
      "ॉग": 8464,
      "▁Jones": 8465,
      "▁error": 8466,
      "▁planned": 8467,
      "▁शन": 8468,
      "▁forest": 8469,
      "▁पूछा": 8470,
      "▁निवासी": 8471,
      "▁crew": 8472,
      "▁Charl": 8473,
      "ulous": 8474,
      "▁cro": 8475,
      "MA": 8476,
      "ias": 8477,
      "▁सामना": 8478,
      "▁खर्च": 8479,
      "reprene": 8480,
      "▁knowing": 8481,
      "▁circumstances": 8482,
      "▁Price": 8483,
      "ूँ": 8484,
      "▁आँ": 8485,
      "igration": 8486,
      "mond": 8487,
      "▁जनवरी": 8488,
      "▁identity": 8489,
      "▁officers": 8490,
      "▁providers": 8491,
      "▁comprehensive": 8492,
      "▁दावा": 8493,
      "bur": 8494,
      "▁candidates": 8495,
      "▁severe": 8496,
      "atre": 8497,
      "▁Right": 8498,
      "never": 8499,
      "▁installed": 8500,
      "▁Administ": 8501,
      "wing": 8502,
      "▁critic": 8503,
      "▁अगस्त": 8504,
      "▁End": 8505,
      "▁खाते": 8506,
      "प्": 8507,
      "▁scientific": 8508,
      "▁shares": 8509,
      "▁मई": 8510,
      "▁Access": 8511,
      "▁imagine": 8512,
      "▁moments": 8513,
      "ंतु": 8514,
      "▁फीसदी": 8515,
      "▁fort": 8516,
      "▁मुद्रा": 8517,
      "▁Penn": 8518,
      "▁neighborhood": 8519,
      "▁जिसकी": 8520,
      "▁Richard": 8521,
      "▁soul": 8522,
      "▁रक्त": 8523,
      "▁dangerous": 8524,
      "▁सांसद": 8525,
      "▁थोड़ा": 8526,
      "gas": 8527,
      "▁दरअसल": 8528,
      "▁विदेशी": 8529,
      "▁वायरस": 8530,
      "▁substant": 8531,
      "▁usual": 8532,
      "▁Trust": 8533,
      "▁plate": 8534,
      "▁स्थापित": 8535,
      "pot": 8536,
      "▁chain": 8537,
      "▁charged": 8538,
      "aded": 8539,
      "र्गत": 8540,
      "▁Quest": 8541,
      "▁registered": 8542,
      "▁valuable": 8543,
      "west": 8544,
      "jo": 8545,
      "▁Russia": 8546,
      "सन": 8547,
      "▁मंत्रालय": 8548,
      "▁सिस्ट": 8549,
      "▁iron": 8550,
      "▁participate": 8551,
      "iams": 8552,
      "▁Centre": 8553,
      "▁excess": 8554,
      "▁picked": 8555,
      "▁topics": 8556,
      "▁voc": 8557,
      "▁करनी": 8558,
      "▁expertise": 8559,
      "नियों": 8560,
      "▁Conference": 8561,
      "▁none": 8562,
      "▁पुनः": 8563,
      "▁Sometimes": 8564,
      "▁Yet": 8565,
      "▁Russian": 8566,
      "No": 8567,
      "loc": 8568,
      "▁पदार्थ": 8569,
      "▁देखकर": 8570,
      "▁साबित": 8571,
      "▁Copy": 8572,
      "▁Steve": 8573,
      "▁guest": 8574,
      "▁resource": 8575,
      "rics": 8576,
      "▁देकर": 8577,
      "▁brands": 8578,
      "▁सत": 8579,
      "▁criminal": 8580,
      "▁प्रिय": 8581,
      "▁san": 8582,
      "▁electronic": 8583,
      "▁investors": 8584,
      "▁क्षमता": 8585,
      "▁बातचीत": 8586,
      "!!!": 8587,
      "▁hur": 8588,
      "iors": 8589,
      "▁संस्क": 8590,
      "▁(201": 8591,
      "edia": 8592,
      "▁perman": 8593,
      "▁हल्": 8594,
      "▁क्षेत्रों": 8595,
      "्ला": 8596,
      "▁AR": 8597,
      "▁automatically": 8598,
      "्द": 8599,
      "ien": 8600,
      "▁surprise": 8601,
      "▁Mat": 8602,
      "▁Young": 8603,
      "▁Cat": 8604,
      "कत्व": 8605,
      "▁नेट": 8606,
      "▁Finally": 8607,
      "▁accepted": 8608,
      "▁stone": 8609,
      "unting": 8610,
      "comm": 8611,
      "▁Land": 8612,
      "स्ती": 8613,
      "▁protected": 8614,
      "pat": 8615,
      "▁ok": 8616,
      "▁script": 8617,
      "▁cutting": 8618,
      "rate": 8619,
      "▁receiving": 8620,
      "▁बल्ले": 8621,
      "▁unf": 8622,
      "▁Mexico": 8623,
      "▁उम्मीदवार": 8624,
      "▁रै": 8625,
      "ंडल": 8626,
      "▁Boston": 8627,
      "▁confirm": 8628,
      "▁perfectly": 8629,
      "And": 8630,
      "▁rand": 8631,
      "▁ven": 8632,
      "▁nurs": 8633,
      "▁chicken": 8634,
      "▁arms": 8635,
      "▁जरिए": 8636,
      "▁taught": 8637,
      "▁मल": 8638,
      "▁SP": 8639,
      "▁alcohol": 8640,
      "▁innovative": 8641,
      "▁sample": 8642,
      "▁संपर्क": 8643,
      "▁मित्र": 8644,
      "▁trib": 8645,
      "▁cheese": 8646,
      "▁wealth": 8647,
      "▁MA": 8648,
      "▁gro": 8649,
      "▁इंत": 8650,
      "▁mel": 8651,
      "inch": 8652,
      "▁bread": 8653,
      "▁tickets": 8654,
      "▁windows": 8655,
      "▁बुद्ध": 8656,
      "ताः": 8657,
      "▁चै": 8658,
      "▁missed": 8659,
      "▁diss": 8660,
      "▁इंस्ट": 8661,
      "irms": 8662,
      "▁Learn": 8663,
      "cuit": 8664,
      "ाइड": 8665,
      "mosp": 8666,
      "▁Soft": 8667,
      "ेदारी": 8668,
      "▁Cook": 8669,
      "▁firstname": 8670,
      "▁Dani": 8671,
      "▁Opt": 8672,
      "िरूप": 8673,
      "भाल": 8674,
      "▁procedure": 8675,
      "▁purchased": 8676,
      "▁दूसरा": 8677,
      "▁अथवा": 8678,
      "क्षक": 8679,
      "uated": 8680,
      "▁भीतर": 8681,
      "लक्षण": 8682,
      "▁chosen": 8683,
      "▁Cost": 8684,
      "▁installation": 8685,
      "घट": 8686,
      "▁बढ़ाने": 8687,
      "▁अदाल": 8688,
      "▁contro": 8689,
      "▁motion": 8690,
      "बि": 8691,
      "sembly": 8692,
      "▁क़": 8693,
      "वर्ण": 8694,
      "▁Which": 8695,
      "▁household": 8696,
      "▁5,": 8697,
      "▁boat": 8698,
      "▁सीएम": 8699,
      "▁Virginia": 8700,
      "▁lovely": 8701,
      "▁fixed": 8702,
      "▁historical": 8703,
      "पत्त": 8704,
      "▁Iran": 8705,
      "▁answers": 8706,
      "▁equal": 8707,
      "▁institutions": 8708,
      "▁enable": 8709,
      "▁channel": 8710,
      "▁restrict": 8711,
      "abet": 8712,
      "cribe": 8713,
      "▁obvious": 8714,
      "▁फी": 8715,
      "▁unlike": 8716,
      "gers": 8717,
      "▁Rest": 8718,
      "▁बुधवार": 8719,
      "▁recorded": 8720,
      "▁वरि": 8721,
      "▁Digital": 8722,
      "hus": 8723,
      "▁happening": 8724,
      "▁keeps": 8725,
      "hent": 8726,
      "anged": 8727,
      "▁Iraq": 8728,
      "tw": 8729,
      "ta": 8730,
      "▁pump": 8731,
      "▁राज्यों": 8732,
      "▁विष": 8733,
      "▁grown": 8734,
      "▁Walk": 8735,
      "▁Four": 8736,
      "▁प्लेट": 8737,
      "▁Spring": 8738,
      "▁illustr": 8739,
      "▁frequently": 8740,
      "34": 8741,
      "▁Stat": 8742,
      "▁conducted": 8743,
      "▁सां": 8744,
      "▁टीवी": 8745,
      "▁तुलना": 8746,
      "▁Manager": 8747,
      "▁worldwide": 8748,
      "▁mal": 8749,
      "pret": 8750,
      "▁regularly": 8751,
      "SC": 8752,
      "osite": 8753,
      "▁जोर": 8754,
      "्ह": 8755,
      "icit": 8756,
      "▁accurate": 8757,
      "apes": 8758,
      "▁Sports": 8759,
      "▁island": 8760,
      "▁positions": 8761,
      "▁bless": 8762,
      "▁Applic": 8763,
      "▁सामग्री": 8764,
      "▁assets": 8765,
      "▁Hospital": 8766,
      "त्क": 8767,
      "ावर": 8768,
      "▁Australian": 8769,
      "▁employment": 8770,
      "ाइक": 8771,
      "क्ता": 8772,
      "मुप": 8773,
      "ौती": 8774,
      "▁suitable": 8775,
      "ऽऽ": 8776,
      "▁config": 8777,
      "▁acknow": 8778,
      "▁विशिष्ट": 8779,
      "ati": 8780,
      "▁क्रम": 8781,
      "respond": 8782,
      "▁incredible": 8783,
      "ज्य": 8784,
      "िकी": 8785,
      "rete": 8786,
      "▁पाने": 8787,
      "▁laugh": 8788,
      "▁dim": 8789,
      "▁Three": 8790,
      "▁breakfast": 8791,
      "▁Tit": 8792,
      "▁Middle": 8793,
      "▁रहेगा": 8794,
      "▁disappoint": 8795,
      "78": 8796,
      "वो": 8797,
      "▁SU": 8798,
      "▁स्वीकार": 8799,
      "▁Library": 8800,
      "▁messages": 8801,
      "▁तह": 8802,
      "lymp": 8803,
      "▁Asia": 8804,
      "▁fulf": 8805,
      "▁constantly": 8806,
      "▁(@": 8807,
      "▁grew": 8808,
      "▁doors": 8809,
      "inder": 8810,
      "▁खराब": 8811,
      "▁इंटरनेट": 8812,
      "येत्": 8813,
      "▁random": 8814,
      "▁Def": 8815,
      "▁simpl": 8816,
      "▁campus": 8817,
      "▁मंगलवार": 8818,
      "▁Canadian": 8819,
      "▁150": 8820,
      "▁2004": 8821,
      "▁Fair": 8822,
      "▁व्यवहार": 8823,
      "▁furniture": 8824,
      "न्च": 8825,
      "▁reput": 8826,
      "weight": 8827,
      "▁रखना": 8828,
      "धानी": 8829,
      "▁Du": 8830,
      "▁ben": 8831,
      "▁chocolate": 8832,
      "▁guard": 8833,
      "▁टिप": 8834,
      "ैया": 8835,
      "ाभाव": 8836,
      "achel": 8837,
      "▁रेलवे": 8838,
      "▁grade": 8839,
      "▁Therefore": 8840,
      "▁सप्ताह": 8841,
      "योर": 8842,
      "▁WH": 8843,
      "▁सूची": 8844,
      "▁honor": 8845,
      "िक्": 8846,
      "▁monthly": 8847,
      "म्य": 8848,
      "▁Pass": 8849,
      "▁FOR": 8850,
      "▁Code": 8851,
      "▁license": 8852,
      "▁route": 8853,
      "▁lights": 8854,
      "▁Carolina": 8855,
      "▁medicine": 8856,
      "▁infrastructure": 8857,
      "▁पढ़ें": 8858,
      "ूड": 8859,
      "pes": 8860,
      "▁स्वरूप": 8861,
      "▁AD": 8862,
      "oster": 8863,
      "▁cooking": 8864,
      "▁portion": 8865,
      "▁warrant": 8866,
      "▁कार्यालय": 8867,
      "▁कब": 8868,
      "acks": 8869,
      "म्बर": 8870,
      "▁trend": 8871,
      "▁deals": 8872,
      "▁Equ": 8873,
      "▁शानदार": 8874,
      "▁forth": 8875,
      "▁outdoor": 8876,
      "▁वरिष्ठ": 8877,
      "▁Tru": 8878,
      "▁tail": 8879,
      "▁database": 8880,
      "▁talent": 8881,
      "illy": 8882,
      "▁Girl": 8883,
      "▁रिली": 8884,
      "▁छोटी": 8885,
      "▁400": 8886,
      "▁abuse": 8887,
      "▁दूध": 8888,
      "▁holds": 8889,
      "▁उनको": 8890,
      "▁settings": 8891,
      "▁studio": 8892,
      "▁उदाहरण": 8893,
      "anish": 8894,
      "▁Academy": 8895,
      "▁engineering": 8896,
      "▁county": 8897,
      "▁winner": 8898,
      "क्षम": 8899,
      "▁OR": 8900,
      "▁basket": 8901,
      "ca": 8902,
      "▁समेत": 8903,
      "लोक": 8904,
      "▁turning": 8905,
      "sm": 8906,
      "▁तारी": 8907,
      "▁चित्र": 8908,
      "▁sick": 8909,
      "न्तर": 8910,
      "▁contrast": 8911,
      "▁procedures": 8912,
      "ugh": 8913,
      "vy": 8914,
      "▁Ra": 8915,
      "▁श्रे": 8916,
      "▁सेवन": 8917,
      "वें": 8918,
      "▁dram": 8919,
      "eration": 8920,
      "▁शराब": 8921,
      "olar": 8922,
      "▁shoes": 8923,
      "▁fellow": 8924,
      "बद्ध": 8925,
      "31": 8926,
      "▁खाना": 8927,
      "▁covers": 8928,
      "▁destroy": 8929,
      "▁affili": 8930,
      "▁अकाउंट": 8931,
      "inet": 8932,
      "▁appeal": 8933,
      "pass": 8934,
      "▁entertainment": 8935,
      "▁Victor": 8936,
      "▁आंद": 8937,
      "▁attacks": 8938,
      "▁degrees": 8939,
      "▁houses": 8940,
      "▁affordable": 8941,
      "Cl": 8942,
      "gend": 8943,
      "▁पालन": 8944,
      "erts": 8945,
      "▁सीख": 8946,
      "▁shooting": 8947,
      "▁expression": 8948,
      "▁manufacturing": 8949,
      "▁कथं": 8950,
      "▁worst": 8951,
      "▁restaurants": 8952,
      "नर": 8953,
      "▁वीर": 8954,
      "▁renew": 8955,
      "▁losing": 8956,
      "▁wid": 8957,
      "▁elig": 8958,
      "▁Still": 8959,
      "ितम्": 8960,
      "▁Gall": 8961,
      "▁संके": 8962,
      "55": 8963,
      "▁रहें": 8964,
      "▁मेड": 8965,
      "ट्र": 8966,
      "▁info": 8967,
      "▁meetings": 8968,
      "▁Bal": 8969,
      "▁प्रसिद्ध": 8970,
      "▁dish": 8971,
      "▁दिवस": 8972,
      "▁vital": 8973,
      "▁सिस्टम": 8974,
      "▁committee": 8975,
      "eries": 8976,
      "्याव": 8977,
      "▁Tour": 8978,
      "▁Williams": 8979,
      "luded": 8980,
      "▁folks": 8981,
      "▁ट्वी": 8982,
      "▁Having": 8983,
      "ेऽ": 8984,
      "ॉर्म": 8985,
      "▁मौका": 8986,
      "▁Ari": 8987,
      "▁spr": 8988,
      "▁मार्केट": 8989,
      "▁तैयारी": 8990,
      "▁चयन": 8991,
      "लेक्ट": 8992,
      "▁मामलों": 8993,
      "▁believed": 8994,
      "स्वरूप": 8995,
      "▁Little": 8996,
      "▁risks": 8997,
      "va": 8998,
      "▁Orig": 8999,
      "िको": 9000,
      "▁Account": 9001,
      "race": 9002,
      "▁featured": 9003,
      "▁बिक": 9004,
      "धिकरण": 9005,
      "ollywood": 9006,
      "▁horse": 9007,
      "▁walked": 9008,
      "▁noticed": 9009,
      "▁storm": 9010,
      "थी": 9011,
      "▁justice": 9012,
      "▁सम्बन्ध": 9013,
      "▁appreciate": 9014,
      "TC": 9015,
      "▁domestic": 9016,
      "ansion": 9017,
      "▁बैठे": 9018,
      "▁Place": 9019,
      "▁cycle": 9020,
      "eline": 9021,
      "▁यत्र": 9022,
      "▁reform": 9023,
      "विद्यालय": 9024,
      "▁virtual": 9025,
      "▁organic": 9026,
      "anges": 9027,
      "▁guarantee": 9028,
      "▁plug": 9029,
      "▁अग्र": 9030,
      "▁researchers": 9031,
      "▁ped": 9032,
      "----": 9033,
      "भिर": 9034,
      "ployment": 9035,
      "▁संस्थान": 9036,
      "▁नेत": 9037,
      "EE": 9038,
      "arrow": 9039,
      "cking": 9040,
      "▁upper": 9041,
      "▁attorney": 9042,
      "▁Hard": 9043,
      "▁walls": 9044,
      "▁reliable": 9045,
      "abled": 9046,
      "▁fighting": 9047,
      "▁id": 9048,
      "▁birthday": 9049,
      "▁extended": 9050,
      "▁carbon": 9051,
      "ुल्क": 9052,
      "▁Lt": 9053,
      "▁hurt": 9054,
      "▁कितना": 9055,
      "▁regional": 9056,
      "▁grab": 9057,
      "▁clothes": 9058,
      "omy": 9059,
      "▁village": 9060,
      "▁Jackson": 9061,
      "oking": 9062,
      "िटर": 9063,
      "▁Ep": 9064,
      "प्रत्य": 9065,
      "▁recognized": 9066,
      "▁आनंद": 9067,
      "▁Ce": 9068,
      "▁candidate": 9069,
      "orders": 9070,
      "▁पंचायत": 9071,
      "▁owned": 9072,
      "उस": 9073,
      "▁गुप": 9074,
      "▁चम": 9075,
      "हं": 9076,
      "▁chapter": 9077,
      "▁typical": 9078,
      "▁entered": 9079,
      "▁शुक्रवार": 9080,
      "▁indeed": 9081,
      "▁बताते": 9082,
      "चार्य": 9083,
      "▁acid": 9084,
      "▁kne": 9085,
      "▁vacc": 9086,
      "ेंज": 9087,
      "▁विभ": 9088,
      "▁विकेट": 9089,
      "▁league": 9090,
      "▁फ्ल": 9091,
      "▁output": 9092,
      "▁Again": 9093,
      "▁पॉ": 9094,
      "▁ताव": 9095,
      "▁Mid": 9096,
      "▁वर्ण": 9097,
      "▁facts": 9098,
      "oosing": 9099,
      "▁केस": 9100,
      "▁वित": 9101,
      "▁मात": 9102,
      "▁Olymp": 9103,
      "▁inches": 9104,
      "▁debate": 9105,
      "▁facing": 9106,
      "वाही": 9107,
      "▁pil": 9108,
      "▁hook": 9109,
      "▁Current": 9110,
      "ात्मा": 9111,
      "you": 9112,
      "▁पंजाब": 9113,
      "▁ille": 9114,
      "▁Son": 9115,
      "▁tack": 9116,
      "▁अनुर": 9117,
      "▁Paris": 9118,
      "▁input": 9119,
      "तेन": 9120,
      "emic": 9121,
      "▁atmosp": 9122,
      "▁दस": 9123,
      "icial": 9124,
      "▁उद्योग": 9125,
      "▁स्त्री": 9126,
      "▁Mean": 9127,
      "VD": 9128,
      "▁Arab": 9129,
      "▁किलो": 9130,
      "▁शै": 9131,
      "▁सुप्रीम": 9132,
      "▁reasonable": 9133,
      "▁earned": 9134,
      "comes": 9135,
      "▁profit": 9136,
      "▁अप्रैल": 9137,
      "▁carefully": 9138,
      "Pro": 9139,
      "▁delay": 9140,
      "नाय": 9141,
      "▁presentation": 9142,
      "▁awareness": 9143,
      "▁impossible": 9144,
      "▁visiting": 9145,
      "▁Saf": 9146,
      "nic": 9147,
      "hered": 9148,
      "▁रिश्त": 9149,
      "▁34": 9150,
      "▁engage": 9151,
      "bi": 9152,
      "▁Hon": 9153,
      "▁situations": 9154,
      "▁Senate": 9155,
      "▁Webs": 9156,
      "ार्म": 9157,
      "▁Prem": 9158,
      "▁drivers": 9159,
      "ाले": 9160,
      "▁Michigan": 9161,
      "rick": 9162,
      "anger": 9163,
      "rum": 9164,
      "▁bear": 9165,
      "▁payments": 9166,
      "host": 9167,
      "▁असर": 9168,
      "▁politics": 9169,
      "5%": 9170,
      "▁efficiency": 9171,
      "▁suggested": 9172,
      "writ": 9173,
      "▁Blo": 9174,
      "▁बंग": 9175,
      "▁पर्य": 9176,
      "एक": 9177,
      "▁इत्यर्थः": 9178,
      "ियत": 9179,
      "▁उद्देश्य": 9180,
      "icing": 9181,
      "▁Columb": 9182,
      "▁हल": 9183,
      "▁10,": 9184,
      ".|": 9185,
      "▁Thus": 9186,
      "▁तस्या": 9187,
      "▁climb": 9188,
      "▁Meet": 9189,
      "मेल": 9190,
      "▁जात": 9191,
      "ache": 9192,
      "▁प्रार": 9193,
      "▁खत": 9194,
      "▁Buy": 9195,
      "▁fuck": 9196,
      "▁sin": 9197,
      "TA": 9198,
      "can": 9199,
      "▁COVID": 9200,
      "▁fro": 9201,
      "▁publish": 9202,
      "ampionship": 9203,
      "▁compens": 9204,
      "▁syn": 9205,
      "▁enforce": 9206,
      "▁Italian": 9207,
      "▁Coll": 9208,
      "▁यत्": 9209,
      "ATION": 9210,
      "ensity": 9211,
      "▁Mult": 9212,
      "▁root": 9213,
      "▁Help": 9214,
      "▁ast": 9215,
      "▁routine": 9216,
      "माने": 9217,
      "astern": 9218,
      "inations": 9219,
      "▁जहाँ": 9220,
      "▁अपराध": 9221,
      "▁चर": 9222,
      "ानों": 9223,
      "▁distinct": 9224,
      "▁retire": 9225,
      "▁विश्वविद्यालय": 9226,
      "धारित": 9227,
      "▁upcoming": 9228,
      "▁stands": 9229,
      "▁मानव": 9230,
      "▁Control": 9231,
      "▁38": 9232,
      "▁मैने": 9233,
      "▁Ohio": 9234,
      "वाच": 9235,
      "▁शि": 9236,
      "▁Ken": 9237,
      "uting": 9238,
      "▁Never": 9239,
      "66": 9240,
      "▁लोन": 9241,
      "▁पश्चिम": 9242,
      "ागत": 9243,
      "▁चिंता": 9244,
      "▁layer": 9245,
      "▁navig": 9246,
      "▁Friend": 9247,
      "▁stim": 9248,
      "▁पुस्त": 9249,
      "▁magazine": 9250,
      "▁त्वचा": 9251,
      "▁contest": 9252,
      "▁Instagram": 9253,
      "▁बेटे": 9254,
      "▁defined": 9255,
      "एच": 9256,
      "प्रिय": 9257,
      "▁scheduled": 9258,
      "▁रक्षा": 9259,
      "▁athlet": 9260,
      "alse": 9261,
      "▁Cross": 9262,
      "▁33": 9263,
      "▁Hor": 9264,
      "▁realized": 9265,
      "▁sessions": 9266,
      "ास्ट": 9267,
      "▁Students": 9268,
      "▁व्यवसाय": 9269,
      "Tube": 9270,
      "▁Republican": 9271,
      "▁row": 9272,
      "▁rein": 9273,
      "▁surf": 9274,
      "▁native": 9275,
      "▁Georg": 9276,
      "▁slowly": 9277,
      "ूबर": 9278,
      "▁विस्तार": 9279,
      "▁increases": 9280,
      "agon": 9281,
      "▁conclus": 9282,
      "▁younger": 9283,
      "RI": 9284,
      "▁रविवार": 9285,
      "4)": 9286,
      "हान": 9287,
      "▁हेल": 9288,
      "rency": 9289,
      "▁तुरंत": 9290,
      "▁formed": 9291,
      "▁Festival": 9292,
      "▁ताद": 9293,
      "▁depth": 9294,
      "▁supports": 9295,
      "▁returns": 9296,
      "▁resolution": 9297,
      "▁surrounding": 9298,
      "▁spoke": 9299,
      "▁challenging": 9300,
      "▁pulled": 9301,
      "▁teeth": 9302,
      "▁देंगे": 9303,
      "▁delight": 9304,
      "▁पित": 9305,
      "▁instructions": 9306,
      "मित्य": 9307,
      "▁वृद्धि": 9308,
      "▁loans": 9309,
      "▁river": 9310,
      "▁god": 9311,
      "▁shel": 9312,
      "ित्वा": 9313,
      "▁लै": 9314,
      "▁आखिर": 9315,
      "worth": 9316,
      "▁registration": 9317,
      "▁confirmed": 9318,
      "▁Fun": 9319,
      "▁negoti": 9320,
      "वाने": 9321,
      "GE": 9322,
      "▁सूर्य": 9323,
      "▁unable": 9324,
      "▁yards": 9325,
      "▁ज्योति": 9326,
      "जीव": 9327,
      "▁incl": 9328,
      "▁प्रसाद": 9329,
      "▁susp": 9330,
      "ml": 9331,
      "▁6,": 9332,
      "निर्": 9333,
      "▁Hope": 9334,
      "▁regulations": 9335,
      "oman": 9336,
      "▁symbol": 9337,
      "itutional": 9338,
      "▁expectations": 9339,
      "▁अदालत": 9340,
      "▁prompt": 9341,
      "▁musical": 9342,
      "▁figures": 9343,
      "▁कुर": 9344,
      "▁Mobile": 9345,
      "▁counsel": 9346,
      "▁Non": 9347,
      "्वे": 9348,
      "▁blogg": 9349,
      "▁गाँ": 9350,
      "▁delicious": 9351,
      "▁खिलाड़ी": 9352,
      "पो": 9353,
      "▁vul": 9354,
      "ंकर": 9355,
      "▁decade": 9356,
      "केश": 9357,
      "aturally": 9358,
      "▁Supp": 9359,
      "▁AC": 9360,
      "▁vit": 9361,
      "▁cock": 9362,
      "भाष": 9363,
      "सह": 9364,
      "ban": 9365,
      "▁आये": 9366,
      "▁कृषि": 9367,
      "My": 9368,
      "ingu": 9369,
      "▁Army": 9370,
      "▁Andrew": 9371,
      "▁Cast": 9372,
      "owing": 9373,
      "They": 9374,
      "▁याच": 9375,
      "▁Term": 9376,
      "▁adm": 9377,
      "▁Night": 9378,
      "▁अक्ष": 9379,
      "▁crazy": 9380,
      "▁assessment": 9381,
      "▁CB": 9382,
      "iner": 9383,
      "▁patterns": 9384,
      "cers": 9385,
      "▁possibility": 9386,
      "▁improvement": 9387,
      "▁millions": 9388,
      "lights": 9389,
      "▁tiss": 9390,
      "▁capable": 9391,
      "▁scored": 9392,
      "iety": 9393,
      "▁किर": 9394,
      "▁authorities": 9395,
      "▁Van": 9396,
      "▁Chair": 9397,
      "▁Royal": 9398,
      "▁prove": 9399,
      "earing": 9400,
      "▁‘‘": 9401,
      "EST": 9402,
      "▁edition": 9403,
      "car": 9404,
      "▁Fre": 9405,
      "▁twe": 9406,
      "▁flowers": 9407,
      "▁युद्ध": 9408,
      "▁smile": 9409,
      "law": 9410,
      "▁Muslim": 9411,
      "▁healthcare": 9412,
      "▁ऊर्": 9413,
      "▁यस्य": 9414,
      "▁discussed": 9415,
      "▁description": 9416,
      "▁hate": 9417,
      "▁vast": 9418,
      "person": 9419,
      "▁spiritual": 9420,
      "New": 9421,
      "▁mixed": 9422,
      "▁Rights": 9423,
      "▁Point": 9424,
      "ोपाल": 9425,
      "▁incident": 9426,
      "डेट": 9427,
      "▁Sup": 9428,
      "▁आंख": 9429,
      "▁serves": 9430,
      "▁संक्रमण": 9431,
      "▁प्रत्यक्ष": 9432,
      "▁ongoing": 9433,
      "▁premium": 9434,
      "redit": 9435,
      "▁प्रतियोग": 9436,
      "▁seriously": 9437,
      "िकता": 9438,
      "▁banks": 9439,
      "▁surprised": 9440,
      "▁जिन्हें": 9441,
      "▁त्य": 9442,
      "▁beer": 9443,
      "▁external": 9444,
      "▁(5": 9445,
      "▁sou": 9446,
      "चारी": 9447,
      "▁कही": 9448,
      "otal": 9449,
      "▁कंपनियों": 9450,
      "▁skill": 9451,
      "▁जुलाई": 9452,
      "▁reward": 9453,
      "▁impressive": 9454,
      "र्ति": 9455,
      "agues": 9456,
[...]
